{
  "version": "1.0",
  "truncation": null,
  "padding": null,
  "added_tokens": [
    {
      "id": 0,
      "content": "[UNK]",
      "single_word": false,
      "lstrip": false,
      "rstrip": false,
      "normalized": false,
      "special": true
    },
    {
      "id": 1,
      "content": "[START_ID]",
      "single_word": false,
      "lstrip": false,
      "rstrip": false,
      "normalized": false,
      "special": true
    },
    {
      "id": 2,
      "content": "[END_ID]",
      "single_word": false,
      "lstrip": false,
      "rstrip": false,
      "normalized": false,
      "special": true
    },
    {
      "id": 3,
      "content": "[EOT]",
      "single_word": false,
      "lstrip": false,
      "rstrip": false,
      "normalized": false,
      "special": true
    },
    {
      "id": 4,
      "content": "[MASK]",
      "single_word": false,
      "lstrip": false,
      "rstrip": false,
      "normalized": false,
      "special": true
    },
    {
      "id": 5,
      "content": "[BOS]",
      "single_word": false,
      "lstrip": false,
      "rstrip": false,
      "normalized": false,
      "special": true
    },
    {
      "id": 6,
      "content": "[EOS]",
      "single_word": false,
      "lstrip": false,
      "rstrip": false,
      "normalized": false,
      "special": true
    }
  ],
  "normalizer": null,
  "pre_tokenizer": {
    "type": "Whitespace"
  },
  "post_processor": null,
  "decoder": null,
  "model": {
    "type": "BPE",
    "dropout": null,
    "unk_token": "[UNK]",
    "continuing_subword_prefix": null,
    "end_of_word_suffix": null,
    "fuse_unk": false,
    "byte_fallback": false,
    "ignore_merges": false,
    "vocab": {
      "[UNK]": 0,
      "[START_ID]": 1,
      "[END_ID]": 2,
      "[EOT]": 3,
      "[MASK]": 4,
      "[BOS]": 5,
      "[EOS]": 6,
      "!": 7,
      "(": 8,
      ")": 9,
      ",": 10,
      "-": 11,
      ".": 12,
      "0": 13,
      "1": 14,
      "2": 15,
      "3": 16,
      "4": 17,
      "5": 18,
      "6": 19,
      "7": 20,
      "8": 21,
      "9": 22,
      "?": 23,
      "A": 24,
      "B": 25,
      "C": 26,
      "D": 27,
      "E": 28,
      "F": 29,
      "G": 30,
      "H": 31,
      "I": 32,
      "J": 33,
      "K": 34,
      "L": 35,
      "M": 36,
      "N": 37,
      "O": 38,
      "P": 39,
      "Q": 40,
      "R": 41,
      "S": 42,
      "T": 43,
      "U": 44,
      "V": 45,
      "W": 46,
      "X": 47,
      "Y": 48,
      "Z": 49,
      "a": 50,
      "b": 51,
      "c": 52,
      "d": 53,
      "e": 54,
      "f": 55,
      "g": 56,
      "h": 57,
      "i": 58,
      "j": 59,
      "k": 60,
      "l": 61,
      "m": 62,
      "n": 63,
      "o": 64,
      "p": 65,
      "q": 66,
      "r": 67,
      "s": 68,
      "t": 69,
      "u": 70,
      "v": 71,
      "w": 72,
      "x": 73,
      "y": 74,
      "z": 75,
      "À": 76,
      "Á": 77,
      "Â": 78,
      "Ã": 79,
      "È": 80,
      "É": 81,
      "Ê": 82,
      "Ì": 83,
      "Í": 84,
      "Ò": 85,
      "Ó": 86,
      "Ô": 87,
      "Õ": 88,
      "Ù": 89,
      "Ú": 90,
      "Ý": 91,
      "à": 92,
      "á": 93,
      "â": 94,
      "ã": 95,
      "è": 96,
      "é": 97,
      "ê": 98,
      "ì": 99,
      "í": 100,
      "ò": 101,
      "ó": 102,
      "ô": 103,
      "õ": 104,
      "ù": 105,
      "ú": 106,
      "ý": 107,
      "Ă": 108,
      "ă": 109,
      "Đ": 110,
      "đ": 111,
      "Ĩ": 112,
      "ĩ": 113,
      "Ũ": 114,
      "ũ": 115,
      "Ơ": 116,
      "ơ": 117,
      "Ư": 118,
      "ư": 119,
      "Ạ": 120,
      "ạ": 121,
      "Ả": 122,
      "ả": 123,
      "Ấ": 124,
      "ấ": 125,
      "Ầ": 126,
      "ầ": 127,
      "Ẩ": 128,
      "ẩ": 129,
      "Ẫ": 130,
      "ẫ": 131,
      "Ậ": 132,
      "ậ": 133,
      "Ắ": 134,
      "ắ": 135,
      "Ằ": 136,
      "ằ": 137,
      "Ẳ": 138,
      "ẳ": 139,
      "Ẵ": 140,
      "ẵ": 141,
      "Ặ": 142,
      "ặ": 143,
      "Ẹ": 144,
      "ẹ": 145,
      "Ẻ": 146,
      "ẻ": 147,
      "Ẽ": 148,
      "ẽ": 149,
      "Ế": 150,
      "ế": 151,
      "Ề": 152,
      "ề": 153,
      "Ể": 154,
      "ể": 155,
      "Ễ": 156,
      "ễ": 157,
      "Ệ": 158,
      "ệ": 159,
      "Ỉ": 160,
      "ỉ": 161,
      "Ị": 162,
      "ị": 163,
      "Ọ": 164,
      "ọ": 165,
      "Ỏ": 166,
      "ỏ": 167,
      "Ố": 168,
      "ố": 169,
      "Ồ": 170,
      "ồ": 171,
      "Ổ": 172,
      "ổ": 173,
      "Ỗ": 174,
      "ỗ": 175,
      "Ộ": 176,
      "ộ": 177,
      "Ớ": 178,
      "ớ": 179,
      "Ờ": 180,
      "ờ": 181,
      "Ở": 182,
      "ở": 183,
      "Ỡ": 184,
      "ỡ": 185,
      "Ợ": 186,
      "ợ": 187,
      "Ụ": 188,
      "ụ": 189,
      "Ủ": 190,
      "ủ": 191,
      "Ứ": 192,
      "ứ": 193,
      "Ừ": 194,
      "ừ": 195,
      "Ử": 196,
      "ử": 197,
      "Ữ": 198,
      "ữ": 199,
      "Ự": 200,
      "ự": 201,
      "Ỳ": 202,
      "ỳ": 203,
      "ỵ": 204,
      "Ỷ": 205,
      "ỷ": 206,
      "Ỹ": 207,
      "ỹ": 208,
      "ng": 209,
      "nh": 210,
      "ch": 211,
      "th": 212,
      "kh": 213,
      "tr": 214,
      "ông": 215,
      "ên": 216,
      "ời": 217,
      "ph": 218,
      "là": 219,
      "iế": 220,
      "qu": 221,
      "gi": 222,
      "không": 223,
      "ột": 224,
      "và": 225,
      "ôi": 226,
      "ại": 227,
      "ười": 228,
      "một": 229,
      "có": 230,
      "ới": 231,
      "ủa": 232,
      "của": 233,
      "uy": 234,
      "ấy": 235,
      "iệ": 236,
      "nó": 237,
      "ta": 238,
      "Th": 239,
      "ượ": 240,
      "anh": 241,
      "ân": 242,
      "nà": 243,
      "ong": 244,
      "ất": 245,
      "ươ": 246,
      "như": 247,
      "người": 248,
      "ình": 249,
      "ai": 250,
      "cá": 251,
      "đi": 252,
      "ra": 253,
      "đã": 254,
      "ao": 255,
      "nói": 256,
      "ướ": 257,
      "ược": 258,
      "lại": 259,
      "cho": 260,
      "ương": 261,
      "tôi": 262,
      "uố": 263,
      "ay": 264,
      "ải": 265,
      "ồi": 266,
      "ần": 267,
      "ngh": 268,
      "Ch": 269,
      "ang": 270,
      "àng": 271,
      "được": 272,
      "mà": 273,
      "on": 274,
      "ến": 275,
      "iên": 276,
      "an": 277,
      "iết": 278,
      "ây": 279,
      "ũng": 280,
      "ước": 281,
      "trong": 282,
      "ững": 283,
      "Ng": 284,
      "inh": 285,
      "cũng": 286,
      "với": 287,
      "ều": 288,
      "đó": 289,
      "ật": 290,
      "..": 291,
      "đến": 292,
      "au": 293,
      "Nh": 294,
      "âu": 295,
      "thì": 296,
      "Tr": 297,
      "ết": 298,
      "ầu": 299,
      "phải": 300,
      "cả": 301,
      "làm": 302,
      "àn": 303,
      "ườ": 304,
      "những": 305,
      "vào": 306,
      "òn": 307,
      "ác": 308,
      "úng": 309,
      "ường": 310,
      "con": 311,
      "em": 312,
      "ái": 313,
      "ài": 314,
      "Ph": 315,
      "này": 316,
      "ắt": 317,
      "ùng": 318,
      "rồi": 319,
      "lên": 320,
      "ot": 321,
      "gì": 322,
      "úc": 323,
      "ền": 324,
      "iể": 325,
      "quot": 326,
      "ưa": 327,
      "để": 328,
      "tiế": 329,
      "ận": 330,
      "ằng": 331,
      "thấy": 332,
      "về": 333,
      "cô": 334,
      "biết": 335,
      "ành": 336,
      "ặt": 337,
      "mình": 338,
      "Kh": 339,
      "còn": 340,
      "êu": 341,
      "ăn": 342,
      "ức": 343,
      "át": 344,
      "ơn": 345,
      "ung": 346,
      "thế": 347,
      "ối": 348,
      "ậy": 349,
      "uyệ": 350,
      "họ": 351,
      "ỏi": 352,
      "ắc": 353,
      "chỉ": 354,
      "òng": 355,
      "đá": 356,
      "ữa": 357,
      "nào": 358,
      "ừng": 359,
      "ồng": 360,
      "cái": 361,
      "âm": 362,
      "ội": 363,
      "hai": 364,
      "đầu": 365,
      "ho": 366,
      "thể": 367,
      "tay": 368,
      "ôn": 369,
      "ăm": 370,
      "iểu": 371,
      "khi": 372,
      "ạn": 373,
      "ìn": 374,
      "iện": 375,
      "ơi": 376,
      "ính": 377,
      "ực": 378,
      "ống": 379,
      "nhà": 380,
      "áo": 381,
      "ộc": 382,
      "ti": 383,
      "nhưng": 384,
      "sẽ": 385,
      "ẫn": 386,
      "sao": 387,
      "nhìn": 388,
      "ắn": 389,
      "uyện": 390,
      "bị": 391,
      "ục": 392,
      "ày": 393,
      "mặt": 394,
      "eo": 395,
      "iều": 396,
      "ưng": 397,
      "các": 398,
      "am": 399,
      "chúng": 400,
      "ẳng": 401,
      "ổi": 402,
      "uốn": 403,
      "ảo": 404,
      "trên": 405,
      "áng": 406,
      "ừa": 407,
      "uống": 408,
      "từ": 409,
      "ách": 410,
      "án": 411,
      "ăng": 412,
      "iến": 413,
      "vậy": 414,
      "ão": 415,
      "ộng": 416,
      "giờ": 417,
      "Tôi": 418,
      "ầm": 419,
      "nghĩ": 420,
      "đây": 421,
      "...": 422,
      "công": 423,
      "sự": 424,
      "vì": 425,
      "cười": 426,
      "nữa": 427,
      "tiếng": 428,
      "ọng": 429,
      "mắt": 430,
      "ứng": 431,
      "bà": 432,
      "nên": 433,
      "trước": 434,
      "êm": 435,
      "ửa": 436,
      "sau": 437,
      "ươi": 438,
      "mới": 439,
      "hỏi": 440,
      "đang": 441,
      "iệc": 442,
      "muốn": 443,
      "nàng": 444,
      "Qu": 445,
      "ích": 446,
      "ếu": 447,
      "lúc": 448,
      "ập": 449,
      "ạnh": 450,
      "nhân": 451,
      "nghe": 452,
      "Anh": 453,
      "ọi": 454,
      "en": 455,
      "ắm": 456,
      "ưở": 457,
      "tới": 458,
      "đâu": 459,
      "ánh": 460,
      "ưởng": 461,
      "ản": 462,
      "rất": 463,
      "việc": 464,
      "chị": 465,
      "đị": 466,
      "chuyện": 467,
      "cùng": 468,
      "chàng": 469,
      "to": 470,
      "theo": 471,
      "ọn": 472,
      "xuống": 473,
      "vừa": 474,
      "qua": 475,
      "ạc": 476,
      "vẫn": 477,
      "thành": 478,
      "iệt": 479,
      "ia": 480,
      "ượng": 481,
      "ngày": 482,
      "hơn": 483,
      "ạo": 484,
      "Ho": 485,
      "in": 486,
      "út": 487,
      "ồn": 488,
      "ọc": 489,
      "ầy": 490,
      "cứ": 491,
      "lo": 492,
      "lời": 493,
      "ám": 494,
      "uyên": 495,
      "thật": 496,
      "ắng": 497,
      "uộc": 498,
      "ặc": 499,
      "ào": 500,
      "năm": 501,
      "ngo": 502,
      "lão": 503,
      "chẳng": 504,
      "Nhưng": 505,
      "ba": 506,
      "iền": 507,
      "nước": 508,
      "bên": 509,
      "chưa": 510,
      "cách": 511,
      "ậu": 512,
      "ấn": 513,
      "rằng": 514,
      "nhiên": 515,
      "ỗi": 516,
      "iêu": 517,
      "nhiều": 518,
      "khác": 519,
      "hay": 520,
      "lu": 521,
      "Gi": 522,
      "áu": 523,
      "lấy": 524,
      "tình": 525,
      "im": 526,
      "tự": 527,
      "iếu": 528,
      "ạt": 529,
      "động": 530,
      "ốt": 531,
      "óc": 532,
      "ốc": 533,
      "hết": 534,
      "lớ": 535,
      "iệu": 536,
      "lòng": 537,
      "quá": 538,
      "quan": 539,
      "nhất": 540,
      "ấu": 541,
      "thân": 542,
      "nhau": 543,
      "điều": 544,
      "ạch": 545,
      "đại": 546,
      "đường": 547,
      "ốn": 548,
      "ôm": 549,
      "Không": 550,
      "tu": 551,
      "iếm": 552,
      "cảm": 553,
      "ấp": 554,
      "ặp": 555,
      "quy": 556,
      "bao": 557,
      "bu": 558,
      "hạ": 559,
      "iếc": 560,
      "ạy": 561,
      "bằng": 562,
      ".-": 563,
      "đều": 564,
      "chết": 565,
      "thu": 566,
      "nay": 567,
      "đứng": 568,
      "ảy": 569,
      "ìm": 570,
      "áp": 571,
      "định": 572,
      "hắn": 573,
      "ảng": 574,
      "chủ": 575,
      "mẹ": 576,
      "chính": 577,
      "tại": 578,
      "ngươi": 579,
      "bảo": 580,
      "ướng": 581,
      "Cô": 582,
      "đưa": 583,
      "trở": 584,
      "nhận": 585,
      "óng": 586,
      "lần": 587,
      "ngồi": 588,
      "tử": 589,
      "lớn": 590,
      "ét": 591,
      "kho": 592,
      "học": 593,
      "gia": 594,
      "tâm": 595,
      "bạn": 596,
      "tiếp": 597,
      "ặng": 598,
      "cửa": 599,
      "vu": 600,
      "sống": 601,
      "chân": 602,
      "Ông": 603,
      "ngay": 604,
      "vị": 605,
      "tìm": 606,
      "ụng": 607,
      "tên": 608,
      "bước": 609,
      "đối": 610,
      "vô": 611,
      "ía": 612,
      "ợi": 613,
      "ệnh": 614,
      "đồng": 615,
      "phòng": 616,
      "mấy": 617,
      "đo": 618,
      "ãi": 619,
      "ngoài": 620,
      "Có": 621,
      "hiểu": 622,
      "cần": 623,
      "yêu": 624,
      "lắm": 625,
      "nhỏ": 626,
      "gặp": 627,
      "tin": 628,
      "bắt": 629,
      "thứ": 630,
      "quân": 631,
      "bất": 632,
      "thôi": 633,
      "thời": 634,
      "uyền": 635,
      "đánh": 636,
      "cao": 637,
      "chiếc": 638,
      "tho": 639,
      "ãy": 640,
      "ạng": 641,
      "do": 642,
      "hiện": 643,
      "gh": 644,
      "ưới": 645,
      "ễn": 646,
      "chứ": 647,
      "ấm": 648,
      "thủ": 649,
      "ẩn": 650,
      "hình": 651,
      "vẻ": 652,
      "ịch": 653,
      "iệp": 654,
      "thường": 655,
      "ắp": 656,
      "kia": 657,
      "nếu": 658,
      "khỏi": 659,
      "sợ": 660,
      "nơi": 661,
      "phía": 662,
      "xe": 663,
      "sinh": 664,
      "sư": 665,
      "cuộc": 666,
      "chạy": 667,
      "chú": 668,
      "Một": 669,
      "bỏ": 670,
      "đời": 671,
      "xu": 672,
      "Tiểu": 673,
      "ói": 674,
      "thương": 675,
      "xem": 676,
      "bộ": 677,
      "mọi": 678,
      "úi": 679,
      "ứa": 680,
      "ar": 681,
      "hành": 682,
      "gái": 683,
      "bàn": 684,
      "lẽ": 685,
      "Thiên": 686,
      "sáng": 687,
      "cơ": 688,
      "Nếu": 689,
      "bọn": 690,
      "đáp": 691,
      "câu": 692,
      "mất": 693,
      "gọi": 694,
      "er": 695,
      "kiếm": 696,
      "xa": 697,
      "ảnh": 698,
      "chịu": 699,
      "ít": 700,
      "ưu": 701,
      "Người": 702,
      "uốc": 703,
      "rõ": 704,
      "thần": 705,
      "đất": 706,
      "ằm": 707,
      "dài": 708,
      "uyệt": 709,
      "tiền": 710,
      "Em": 711,
      "mu": 712,
      "số": 713,
      "quay": 714,
      "ởi": 715,
      "Nam": 716,
      "tất": 717,
      "ẹp": 718,
      "kinh": 719,
      "chỗ": 720,
      "uối": 721,
      "ỉnh": 722,
      "thực": 723,
      "khó": 724,
      "hàng": 725,
      "đàn": 726,
      "áy": 727,
      "éo": 728,
      "trời": 729,
      "đấy": 730,
      "thích": 731,
      "hôm": 732,
      "toàn": 733,
      "xin": 734,
      "lâu": 735,
      "tức": 736,
      "uyết": 737,
      "oi": 738,
      "ổng": 739,
      "Thanh": 740,
      "lực": 741,
      "sĩ": 742,
      "iệm": 743,
      "Trong": 744,
      "ạm": 745,
      "nữ": 746,
      "càng": 747,
      "Thế": 748,
      "kẻ": 749,
      "thêm": 750,
      "ĩnh": 751,
      "nhớ": 752,
      "giọng": 753,
      "gần": 754,
      "cố": 755,
      "nổi": 756,
      "Ngh": 757,
      "cây": 758,
      "ép": 759,
      "trả": 760,
      "dùng": 761,
      "dưới": 762,
      "gian": 763,
      "vật": 764,
      "ựa": 765,
      "tưởng": 766,
      "đạo": 767,
      "chắc": 768,
      "Hai": 769,
      "phát": 770,
      "Bà": 771,
      "tính": 772,
      "bé": 773,
      "ẩm": 774,
      "đôi": 775,
      "cậu": 776,
      "lý": 777,
      "đúng": 778,
      "từng": 779,
      "sức": 780,
      "liền": 781,
      "nghi": 782,
      "Con": 783,
      "vui": 784,
      "iển": 785,
      "phụ": 786,
      "Tử": 787,
      "dân": 788,
      "mở": 789,
      "vợ": 790,
      "huy": 791,
      "mày": 792,
      "luôn": 793,
      "đêm": 794,
      "chút": 795,
      "chu": 796,
      "ri": 797,
      "èn": 798,
      "trường": 799,
      "kỳ": 800,
      "xong": 801,
      "Hoa": 802,
      "thanh": 803,
      "báo": 804,
      "chiến": 805,
      "ển": 806,
      "Long": 807,
      "giữa": 808,
      "đệ": 809,
      "ỗng": 810,
      "tiểu": 811,
      "già": 812,
      "cha": 813,
      "quả": 814,
      "khí": 815,
      "tiên": 816,
      "sang": 817,
      "hồ": 818,
      "viên": 819,
      "bản": 820,
      "giải": 821,
      "úp": 822,
      "đủ": 823,
      "trọng": 824,
      "thị": 825,
      "bình": 826,
      "quyết": 827,
      "sát": 828,
      "dù": 829,
      "đẹp": 830,
      "dám": 831,
      "ùa": 832,
      "yên": 833,
      "mang": 834,
      "Dương": 835,
      "Ngọc": 836,
      "Lão": 837,
      "Nàng": 838,
      "cháu": 839,
      "gã": 840,
      "giả": 841,
      "ậm": 842,
      "khu": 843,
      "Đại": 844,
      "khách": 845,
      "thư": 846,
      "di": 847,
      "phu": 848,
      "thức": 849,
      "êng": 850,
      "nằm": 851,
      "chí": 852,
      "Phong": 853,
      "Khi": 854,
      "đầy": 855,
      "Chàng": 856,
      "ca": 857,
      "vội": 858,
      "Chúng": 859,
      "tối": 860,
      "?-": 861,
      "bây": 862,
      "hơi": 863,
      "cảnh": 864,
      "ngờ": 865,
      "uốt": 866,
      "đau": 867,
      "đứa": 868,
      "Hoàng": 869,
      "Kim": 870,
      "đề": 871,
      "giáo": 872,
      "chồng": 873,
      "xuất": 874,
      "iệng": 875,
      "độ": 876,
      "tháng": 877,
      "Từ": 878,
      "Ta": 879,
      "nghĩa": 880,
      "đừng": 881,
      "ngủ": 882,
      "lập": 883,
      "hãy": 884,
      "chi": 885,
      "ùi": 886,
      "khiến": 887,
      "hội": 888,
      "giữ": 889,
      "mạnh": 890,
      "thở": 891,
      "Lý": 892,
      "ru": 893,
      "hoa": 894,
      "Vân": 895,
      "Những": 896,
      "tuổi": 897,
      "tài": 898,
      "phương": 899,
      "Minh": 900,
      "tốt": 901,
      "mặc": 902,
      "đồ": 903,
      "ợp": 904,
      "chờ": 905,
      "nhanh": 906,
      "Vũ": 907,
      "buồn": 908,
      "kể": 909,
      "lạnh": 910,
      "Và": 911,
      "miệng": 912,
      "lạ": 913,
      "võ": 914,
      "phục": 915,
      "kêu": 916,
      "Vương": 917,
      "ợt": 918,
      "phần": 919,
      "đáng": 920,
      "mỗi": 921,
      "thiếu": 922,
      "biến": 923,
      "òa": 924,
      "ưỡ": 925,
      "iếp": 926,
      "vàng": 927,
      "Trung": 928,
      "lặng": 929,
      "đem": 930,
      "vụ": 931,
      "Văn": 932,
      "ứt": 933,
      "pháp": 934,
      "bác": 935,
      "trẻ": 936,
      "đặt": 937,
      "dậy": 938,
      "àm": 939,
      "huynh": 940,
      "hoàn": 941,
      "le": 942,
      "cầu": 943,
      "Ba": 944,
      "dự": 945,
      "nhẹ": 946,
      "Còn": 947,
      "cầm": 948,
      "bay": 949,
      "cổ": 950,
      "ịp": 951,
      "thay": 952,
      "thằng": 953,
      "mười": 954,
      "hồi": 955,
      "vọng": 956,
      "bóng": 957,
      "Chỉ": 958,
      "la": 959,
      "độc": 960,
      "giận": 961,
      "giúp": 962,
      "tư": 963,
      "bốn": 964,
      "giới": 965,
      "lộ": 966,
      "Sơn": 967,
      "Sau": 968,
      "li": 969,
      "giết": 970,
      "coi": 971,
      "đình": 972,
      "nương": 973,
      "tướng": 974,
      "Thu": 975,
      "hợp": 976,
      "kéo": 977,
      "cuối": 978,
      "rượ": 979,
      "đổi": 980,
      "tiến": 981,
      "quanh": 982,
      "khổ": 983,
      "Phương": 984,
      "sách": 985,
      "văn": 986,
      "ãnh": 987,
      "ẩy": 988,
      "Việt": 989,
      "trang": 990,
      "vài": 991,
      "thông": 992,
      "trông": 993,
      "thẳng": 994,
      "âng": 995,
      "trái": 996,
      "sắc": 997,
      "cánh": 998,
      "ãn": 999,
      "Phi": 1000,
      "Bình": 1001,
      "ểm": 1002,
      "Nó": 1003,
      "ềm": 1004,
      "Thái": 1005,
      "ọt": 1006,
      "bỗng": 1007,
      "iếng": 1008,
      "ngựa": 1009,
      "thơ": 1010,
      "Cái": 1011,
      "Bạch": 1012,
      "chơi": 1013,
      "cứu": 1014,
      "Linh": 1015,
      "quyền": 1016,
      "ín": 1017,
      "điểm": 1018,
      "Kỳ": 1019,
      "Nguyên": 1020,
      "Hà": 1021,
      "trung": 1022,
      "Tại": 1023,
      "thuốc": 1024,
      "Như": 1025,
      "đen": 1026,
      "giống": 1027,
      "đu": 1028,
      "chuy": 1029,
      "trí": 1030,
      "rượu": 1031,
      "trai": 1032,
      "tội": 1033,
      "Các": 1034,
      "trắng": 1035,
      "An": 1036,
      "trưởng": 1037,
      "Lúc": 1038,
      "Vậy": 1039,
      "giác": 1040,
      "màu": 1041,
      "Công": 1042,
      "sai": 1043,
      "tuy": 1044,
      "biệt": 1045,
      "tập": 1046,
      "hoặc": 1047,
      "ma": 1048,
      "kết": 1049,
      "chớ": 1050,
      "ịnh": 1051,
      "danh": 1052,
      "dễ": 1053,
      "liên": 1054,
      "viết": 1055,
      "nỗi": 1056,
      "ảm": 1057,
      "máy": 1058,
      "tranh": 1059,
      "gật": 1060,
      "ón": 1061,
      "thiên": 1062,
      "tinh": 1063,
      "úa": 1064,
      "uyễn": 1065,
      "dụng": 1066,
      "bệnh": 1067,
      "Hồng": 1068,
      "Vì": 1069,
      "lệnh": 1070,
      "đỏ": 1071,
      "Rồi": 1072,
      "ót": 1073,
      "thầy": 1074,
      "bố": 1075,
      "giá": 1076,
      "vi": 1077,
      "tỏ": 1078,
      "Ma": 1079,
      "mạng": 1080,
      "núi": 1081,
      "ém": 1082,
      "lưng": 1083,
      "điện": 1084,
      "thầm": 1085,
      "iểm": 1086,
      "môn": 1087,
      "phong": 1088,
      "tuyệt": 1089,
      "thái": 1090,
      "Lâm": 1091,
      "mươi": 1092,
      "tai": 1093,
      "hoàng": 1094,
      "bài": 1095,
      "Họ": 1096,
      "khóc": 1097,
      "tác": 1098,
      "đội": 1099,
      "Nguyễn": 1100,
      "Quân": 1101,
      "binh": 1102,
      "cạnh": 1103,
      "mũ": 1104,
      "vai": 1105,
      "Tây": 1106,
      "tục": 1107,
      "óa": 1108,
      "Đông": 1109,
      "tỉnh": 1110,
      "quen": 1111,
      "đọc": 1112,
      "uân": 1113,
      "Thiếu": 1114,
      "đám": 1115,
      "thuộc": 1116,
      "Sao": 1117,
      "đợi": 1118,
      "thi": 1119,
      "ệt": 1120,
      "ữu": 1121,
      "mừng": 1122,
      "ẳn": 1123,
      "ngạc": 1124,
      "trị": 1125,
      "Mai": 1126,
      "dẫn": 1127,
      "ượt": 1128,
      "cung": 1129,
      "ặn": 1130,
      "Mỹ": 1131,
      "thất": 1132,
      "quần": 1133,
      "tượng": 1134,
      "da": 1135,
      "xanh": 1136,
      "èo": 1137,
      "ụi": 1138,
      "chung": 1139,
      "hộ": 1140,
      "vòng": 1141,
      "amp": 1142,
      "Nói": 1143,
      "quên": 1144,
      "phủ": 1145,
      "ạp": 1146,
      "én": 1147,
      "Trần": 1148,
      "trận": 1149,
      "so": 1150,
      "hậu": 1151,
      "mi": 1152,
      "chừng": 1153,
      "ớm": 1154,
      "thiết": 1155,
      "lắc": 1156,
      "suy": 1157,
      "ni": 1158,
      "19": 1159,
      "tao": 1160,
      "hiệu": 1161,
      "Bảo": 1162,
      "Hải": 1163,
      "địa": 1164,
      "cụ": 1165,
      "mãi": 1166,
      "ổn": 1167,
      "ếp": 1168,
      "lễ": 1169,
      "bởi": 1170,
      "nội": 1171,
      "hại": 1172,
      "mỉ": 1173,
      "chữ": 1174,
      "minh": 1175,
      "nhiêu": 1176,
      "vua": 1177,
      "Tu": 1178,
      "Ngươi": 1179,
      "sắp": 1180,
      "bạc": 1181,
      "lợi": 1182,
      "nửa": 1183,
      "hề": 1184,
      "chợt": 1185,
      "Thần": 1186,
      "hẳn": 1187,
      "phố": 1188,
      "Hắn": 1189,
      "Chị": 1190,
      "dị": 1191,
      "Lan": 1192,
      "kiến": 1193,
      "Hồ": 1194,
      "giao": 1195,
      "nguyên": 1196,
      "Vi": 1197,
      "sử": 1198,
      "Chương": 1199,
      "Châu": 1200,
      "trò": 1201,
      "mai": 1202,
      "el": 1203,
      "máu": 1204,
      "gió": 1205,
      "trăm": 1206,
      "phái": 1207,
      "chiều": 1208,
      "nhảy": 1209,
      "loại": 1210,
      "hướng": 1211,
      "xác": 1212,
      "mời": 1213,
      "tóc": 1214,
      "thượng": 1215,
      "căn": 1216,
      "Tiêu": 1217,
      "xo": 1218,
      "đông": 1219,
      "truyền": 1220,
      "ẹn": 1221,
      "xảy": 1222,
      "et": 1223,
      "chức": 1224,
      "hồn": 1225,
      "mua": 1226,
      "vương": 1227,
      "phản": 1228,
      "ly": 1229,
      "vấn": 1230,
      "quốc": 1231,
      "ngang": 1232,
      "diện": 1233,
      "nhờ": 1234,
      "Bây": 1235,
      "òi": 1236,
      "ẫu": 1237,
      "chứng": 1238,
      "thú": 1239,
      "chuyển": 1240,
      "bán": 1241,
      "tiêu": 1242,
      "ẩu": 1243,
      "thù": 1244,
      "Hương": 1245,
      "đoàn": 1246,
      "Nhân": 1247,
      "bức": 1248,
      "chưởng": 1249,
      "tế": 1250,
      "Tôn": 1251,
      "đấu": 1252,
      "nặng": 1253,
      "Giang": 1254,
      "Mẹ": 1255,
      "thoát": 1256,
      "phá": 1257,
      "nắm": 1258,
      "mật": 1259,
      "hôn": 1260,
      "mỉm": 1261,
      "kịp": 1262,
      "phi": 1263,
      "cu": 1264,
      "tấm": 1265,
      "chặt": 1266,
      "Pháp": 1267,
      "lá": 1268,
      "riêng": 1269,
      "sông": 1270,
      "mũi": 1271,
      "óm": 1272,
      "nghiệp": 1273,
      "song": 1274,
      "lỗi": 1275,
      "bí": 1276,
      "ớt": 1277,
      "Tư": 1278,
      "vùng": 1279,
      "đỡ": 1280,
      "kế": 1281,
      "sâu": 1282,
      "Quốc": 1283,
      "lửa": 1284,
      "Thủ": 1285,
      "Trương": 1286,
      "trách": 1287,
      "tránh": 1288,
      "thăm": 1289,
      "môi": 1290,
      "năng": 1291,
      "viện": 1292,
      "chế": 1293,
      "niên": 1294,
      "ộn": 1295,
      "may": 1296,
      "Đó": 1297,
      "xưa": 1298,
      "phân": 1299,
      "vang": 1300,
      "đột": 1301,
      "hả": 1302,
      "mê": 1303,
      "tạo": 1304,
      "bối": 1305,
      "cấp": 1306,
      "buổi": 1307,
      "Tuy": 1308,
      "rơi": 1309,
      "đoạn": 1310,
      "ban": 1311,
      "đơn": 1312,
      "Đức": 1313,
      "Hu": 1314,
      "oan": 1315,
      "Thành": 1316,
      "thuyền": 1317,
      "lao": 1318,
      "Phải": 1319,
      "Vô": 1320,
      "es": 1321,
      "chất": 1322,
      "dần": 1323,
      "or": 1324,
      "mong": 1325,
      "rời": 1326,
      "chiêu": 1327,
      "ưỡng": 1328,
      "suốt": 1329,
      "rừng": 1330,
      "àu": 1331,
      "tận": 1332,
      "Chính": 1333,
      "hầu": 1334,
      "Thôi": 1335,
      "Gia": 1336,
      "chống": 1337,
      "tổ": 1338,
      "rộng": 1339,
      "phép": 1340,
      "Chu": 1341,
      "ngài": 1342,
      "lạc": 1343,
      "cũ": 1344,
      "iễ": 1345,
      "đóng": 1346,
      "tăng": 1347,
      "quý": 1348,
      "cất": 1349,
      "nóng": 1350,
      "địch": 1351,
      "giật": 1352,
      "sớm": 1353,
      "ngu": 1354,
      "bật": 1355,
      "hạnh": 1356,
      "đặc": 1357,
      "Đúng": 1358,
      "phóng": 1359,
      "trầm": 1360,
      "đón": 1361,
      "tù": 1362,
      "ấc": 1363,
      "ngôi": 1364,
      "úy": 1365,
      "tha": 1366,
      "rút": 1367,
      "bụng": 1368,
      "yếu": 1369,
      "chăng": 1370,
      "lượng": 1371,
      "trình": 1372,
      "hữu": 1373,
      "Quan": 1374,
      "Bắc": 1375,
      "phút": 1376,
      "hóa": 1377,
      "thử": 1378,
      "đoán": 1379,
      "đổ": 1380,
      "Phật": 1381,
      "má": 1382,
      "kỹ": 1383,
      "ghế": 1384,
      "biển": 1385,
      "ngoại": 1386,
      "vệ": 1387,
      "Thật": 1388,
      "lùng": 1389,
      "Chẳng": 1390,
      "ồm": 1391,
      "oàn": 1392,
      "thuật": 1393,
      "muội": 1394,
      "hệ": 1395,
      "phúc": 1396,
      "khoảng": 1397,
      "diễn": 1398,
      "vốn": 1399,
      "chúa": 1400,
      "cơn": 1401,
      "thúc": 1402,
      "giấy": 1403,
      "mơ": 1404,
      "Ai": 1405,
      "tung": 1406,
      "sản": 1407,
      "đuổi": 1408,
      "gây": 1409,
      "khẽ": 1410,
      "cuốn": 1411,
      "ãng": 1412,
      "kính": 1413,
      "lệ": 1414,
      "Triệu": 1415,
      "cơm": 1416,
      "đèn": 1417,
      "Tam": 1418,
      "lắng": 1419,
      "ửu": 1420,
      "lớp": 1421,
      "chia": 1422,
      "linh": 1423,
      "sa": 1424,
      "bờ": 1425,
      "hiệp": 1426,
      "khá": 1427,
      "giường": 1428,
      "Xin": 1429,
      "thắng": 1430,
      "nghiêm": 1431,
      "lâm": 1432,
      "Hàn": 1433,
      "tan": 1434,
      "Liên": 1435,
      "nghỉ": 1436,
      "cực": 1437,
      "quái": 1438,
      "õi": 1439,
      "dừng": 1440,
      "om": 1441,
      "luận": 1442,
      "ửi": 1443,
      "khăn": 1444,
      "ẵn": 1445,
      "thống": 1446,
      "thịt": 1447,
      "quán": 1448,
      "Hồi": 1449,
      "đảo": 1450,
      "ngọn": 1451,
      "Cả": 1452,
      "mục": 1453,
      "Lê": 1454,
      "Tiên": 1455,
      "dạy": 1456,
      "Dung": 1457,
      "ườn": 1458,
      "tim": 1459,
      "dữ": 1460,
      "hiểm": 1461,
      "cúi": 1462,
      "Đồng": 1463,
      "Đường": 1464,
      "lãnh": 1465,
      "hát": 1466,
      "lầm": 1467,
      "nhắc": 1468,
      "Du": 1469,
      "làng": 1470,
      "mưa": 1471,
      "00": 1472,
      "Chi": 1473,
      "ằn": 1474,
      "ngã": 1475,
      "sáu": 1476,
      "tĩnh": 1477,
      ").": 1478,
      "tôn": 1479,
      "hùng": 1480,
      "đao": 1481,
      "bèn": 1482,
      "che": 1483,
      "tích": 1484,
      "Tất": 1485,
      "mau": 1486,
      "xã": 1487,
      "Ngày": 1488,
      "hòa": 1489,
      "chậm": 1490,
      "Nhất": 1491,
      "ủng": 1492,
      "nghị": 1493,
      "ướt": 1494,
      "lưu": 1495,
      "hãi": 1496,
      "khắp": 1497,
      "Lưu": 1498,
      "--": 1499,
      "èm": 1500,
      "ẫm": 1501,
      "ràng": 1502,
      "Thượng": 1503,
      "sở": 1504,
      "sổ": 1505,
      "ìa": 1506,
      "nam": 1507,
      "biểu": 1508,
      "tương": 1509,
      "vận": 1510,
      "xét": 1511,
      "La": 1512,
      "lát": 1513,
      "Mã": 1514,
      "chắn": 1515,
      "Bất": 1516,
      "nhị": 1517,
      "lịch": 1518,
      "Trước": 1519,
      "ỳnh": 1520,
      "tường": 1521,
      "nầy": 1522,
      "Yến": 1523,
      "run": 1524,
      "Hạ": 1525,
      "re": 1526,
      "xấu": 1527,
      "tuần": 1528,
      "Vu": 1529,
      "bắn": 1530,
      "Lăng": 1531,
      "mái": 1532,
      "tiện": 1533,
      "Tuyết": 1534,
      "dứt": 1535,
      "ưỡi": 1536,
      "Tần": 1537,
      "sẵn": 1538,
      "Tâm": 1539,
      "Do": 1540,
      "chấp": 1541,
      "Xuân": 1542,
      "rối": 1543,
      "nguy": 1544,
      "ngực": 1545,
      "Nhi": 1546,
      "tàn": 1547,
      "lính": 1548,
      "xử": 1549,
      "dòng": 1550,
      "ủi": 1551,
      "lối": 1552,
      "nhé": 1553,
      "chọn": 1554,
      "tra": 1555,
      "đành": 1556,
      "tham": 1557,
      "dây": 1558,
      "Mi": 1559,
      "thừa": 1560,
      "quát": 1561,
      "Thạch": 1562,
      "đẩy": 1563,
      "ỏng": 1564,
      "Cậu": 1565,
      "nhiệm": 1566,
      "Hôm": 1567,
      "ry": 1568,
      "du": 1569,
      "buộc": 1570,
      "bảy": 1571,
      "Tiếng": 1572,
      "ngừng": 1573,
      "Năm": 1574,
      "Được": 1575,
      "Trường": 1576,
      "luyện": 1577,
      "vũ": 1578,
      "sân": 1579,
      "Cao": 1580,
      "xúc": 1581,
      "Quang": 1582,
      "giang": 1583,
      "hương": 1584,
      "hy": 1585,
      "chăm": 1586,
      "nu": 1587,
      "Đến": 1588,
      "dấu": 1589,
      "cáo": 1590,
      "ngàn": 1591,
      "Nghi": 1592,
      "hận": 1593,
      "chuẩn": 1594,
      "cử": 1595,
      "khắc": 1596,
      "ỏa": 1597,
      "kích": 1598,
      "dung": 1599,
      "Bọn": 1600,
      "đế": 1601,
      "lui": 1602,
      "Trời": 1603,
      "Tra": 1604,
      "say": 1605,
      "ẫy": 1606,
      "Thiết": 1607,
      "Cũng": 1608,
      "Cho": 1609,
      "ớn": 1610,
      "hồng": 1611,
      "Đây": 1612,
      "hào": 1613,
      "Lục": 1614,
      "Gã": 1615,
      "Chúa": 1616,
      "bữa": 1617,
      "buông": 1618,
      "tàu": 1619,
      "mối": 1620,
      "co": 1621,
      "sơn": 1622,
      "tiết": 1623,
      "khai": 1624,
      "tám": 1625,
      "tươi": 1626,
      "chào": 1627,
      "ĩa": 1628,
      "mệt": 1629,
      "Nhà": 1630,
      "phận": 1631,
      "thuyết": 1632,
      "ký": 1633,
      "tờ": 1634,
      "điên": 1635,
      "ngăn": 1636,
      "dàng": 1637,
      "Trọng": 1638,
      "băng": 1639,
      "cỏ": 1640,
      "phó": 1641,
      "phạm": 1642,
      "lẫn": 1643,
      "cặp": 1644,
      "liệu": 1645,
      "trạng": 1646,
      "Để": 1647,
      "Tống": 1648,
      "ngại": 1649,
      "ụp": 1650,
      "lục": 1651,
      "te": 1652,
      "Trên": 1653,
      "dịch": 1654,
      "Huy": 1655,
      "mùa": 1656,
      "kỷ": 1657,
      "Di": 1658,
      "túi": 1659,
      "niệm": 1660,
      "su": 1661,
      "Vừa": 1662,
      "vết": 1663,
      "ợn": 1664,
      "món": 1665,
      "Nghe": 1666,
      "ha": 1667,
      "tấn": 1668,
      "Nhật": 1669,
      "thưa": 1670,
      "tròn": 1671,
      "nhập": 1672,
      "Ngô": 1673,
      "Huyền": 1674,
      "Sư": 1675,
      "mùi": 1676,
      "tả": 1677,
      "dáng": 1678,
      "đương": 1679,
      "nhạc": 1680,
      "đức": 1681,
      "đập": 1682,
      "Độc": 1683,
      "cắt": 1684,
      "gương": 1685,
      "bánh": 1686,
      "ngược": 1687,
      "Hùng": 1688,
      "thoại": 1689,
      "dựng": 1690,
      "nụ": 1691,
      "chim": 1692,
      "Làm": 1693,
      "chó": 1694,
      "dì": 1695,
      "lai": 1696,
      "can": 1697,
      "quê": 1698,
      "tiếc": 1699,
      "....": 1700,
      "nét": 1701,
      "trốn": 1702,
      "Thư": 1703,
      "iễu": 1704,
      "mẫu": 1705,
      "ùm": 1706,
      "hưởng": 1707,
      "bày": 1708,
      "đòi": 1709,
      "Hãy": 1710,
      "lương": 1711,
      "Võ": 1712,
      "duy": 1713,
      "Mọi": 1714,
      "sơ": 1715,
      "íu": 1716,
      "trượng": 1717,
      "hoảng": 1718,
      "bại": 1719,
      "kín": 1720,
      "loạn": 1721,
      "Sự": 1722,
      "lang": 1723,
      "răng": 1724,
      "Bác": 1725,
      "Thì": 1726,
      "nhi": 1727,
      "cưới": 1728,
      "kim": 1729,
      "ngón": 1730,
      "Đừng": 1731,
      "trừ": 1732,
      "Phụng": 1733,
      "tán": 1734,
      "nuôi": 1735,
      "is": 1736,
      "thấp": 1737,
      "súng": 1738,
      "chục": 1739,
      "đích": 1740,
      "Chắc": 1741,
      "Mình": 1742,
      "ướp": 1743,
      "Dạ": 1744,
      "thốt": 1745,
      "Viên": 1746,
      "vượt": 1747,
      "ựng": 1748,
      "kiện": 1749,
      "Cung": 1750,
      "mắc": 1751,
      "quang": 1752,
      "hu": 1753,
      "khả": 1754,
      "chớp": 1755,
      "nạn": 1756,
      "ty": 1757,
      "trống": 1758,
      "hổ": 1759,
      "nghệ": 1760,
      "Trang": 1761,
      "thoáng": 1762,
      "chiếu": 1763,
      "Sa": 1764,
      "Kiếm": 1765,
      "lành": 1766,
      "dịu": 1767,
      "vườn": 1768,
      "Bộ": 1769,
      "Kinh": 1770,
      "Nga": 1771,
      "dành": 1772,
      "Thấy": 1773,
      "gắng": 1774,
      "luật": 1775,
      "òm": 1776,
      "thờ": 1777,
      "Thưa": 1778,
      "mưu": 1779,
      "tộc": 1780,
      "ụy": 1781,
      "Chuyện": 1782,
      "nhạt": 1783,
      "Đào": 1784,
      "Cơ": 1785,
      "xếp": 1786,
      "Đã": 1787,
      "ki": 1788,
      "Điều": 1789,
      "Har": 1790,
      "hoang": 1791,
      "Tú": 1792,
      "ênh": 1793,
      "bang": 1794,
      "Ca": 1795,
      "hoạt": 1796,
      "tỷ": 1797,
      "thận": 1798,
      "ghi": 1799,
      "trúng": 1800,
      "trần": 1801,
      "ụt": 1802,
      "Đình": 1803,
      "ou": 1804,
      "Mà": 1805,
      "cờ": 1806,
      "liệt": 1807,
      "dường": 1808,
      "Theo": 1809,
      "!-": 1810,
      "trại": 1811,
      "Mar": 1812,
      "đâm": 1813,
      "Ngu": 1814,
      "mụ": 1815,
      "dạ": 1816,
      "chạm": 1817,
      "mức": 1818,
      "thảm": 1819,
      "hét": 1820,
      "giấu": 1821,
      "Cát": 1822,
      "NG": 1823,
      "Tuấn": 1824,
      "giây": 1825,
      "thang": 1826,
      "mờ": 1827,
      "Dù": 1828,
      "Chân": 1829,
      "Nguyệt": 1830,
      "đài": 1831,
      "khuôn": 1832,
      "ậc": 1833,
      "Thủy": 1834,
      "dương": 1835,
      "ngắn": 1836,
      "sứ": 1837,
      "tầm": 1838,
      "Phượng": 1839,
      "tt": 1840,
      "niềm": 1841,
      "canh": 1842,
      "bi": 1843,
      "Âu": 1844,
      "Đi": 1845,
      "cướp": 1846,
      "giấc": 1847,
      "chảy": 1848,
      "nhắm": 1849,
      "va": 1850,
      "Liễu": 1851,
      "nãy": 1852,
      "khô": 1853,
      "hi": 1854,
      "vắng": 1855,
      "Trúc": 1856,
      "thả": 1857,
      "),": 1858,
      "cộng": 1859,
      "Lại": 1860,
      "Sở": 1861,
      "Song": 1862,
      "Quỳnh": 1863,
      "đùa": 1864,
      "Tổng": 1865,
      "trấn": 1866,
      "quỷ": 1867,
      "chiếm": 1868,
      "kém": 1869,
      "triển": 1870,
      "triều": 1871,
      "vạn": 1872,
      "dĩ": 1873,
      "hiền": 1874,
      "toán": 1875,
      "Ngo": 1876,
      "sửa": 1877,
      "Tự": 1878,
      "Thúy": 1879,
      "vỡ": 1880,
      "phẩm": 1881,
      "Duy": 1882,
      "vực": 1883,
      "Bá": 1884,
      "Bởi": 1885,
      "miền": 1886,
      "Cửu": 1887,
      "hứa": 1888,
      "huyệt": 1889,
      "ím": 1890,
      "cẩn": 1891,
      "giám": 1892,
      "Thằng": 1893,
      "trao": 1894,
      "Thất": 1895,
      "nguyện": 1896,
      "chín": 1897,
      "nghiệm": 1898,
      "Hay": 1899,
      "tá": 1900,
      "Cứ": 1901,
      "mảnh": 1902,
      "Hạnh": 1903,
      "Lạc": 1904,
      "quản": 1905,
      "khinh": 1906,
      "thua": 1907,
      "vỗ": 1908,
      "hạn": 1909,
      "bậc": 1910,
      "ruột": 1911,
      "Chú": 1912,
      "Chủ": 1913,
      "sướng": 1914,
      "Cha": 1915,
      "Môn": 1916,
      "phiền": 1917,
      "nọ": 1918,
      "xây": 1919,
      "tổng": 1920,
      "os": 1921,
      "Mấy": 1922,
      "Khánh": 1923,
      "bó": 1924,
      "cổng": 1925,
      "ghét": 1926,
      "Lệ": 1927,
      "Hội": 1928,
      "lan": 1929,
      "Đạo": 1930,
      "đào": 1931,
      "gỗ": 1932,
      "Sài": 1933,
      "Giáo": 1934,
      "Quách": 1935,
      "Cháu": 1936,
      "dõi": 1937,
      "Cổ": 1938,
      "il": 1939,
      "nghề": 1940,
      "Đinh": 1941,
      "10": 1942,
      "châu": 1943,
      "na": 1944,
      "Phát": 1945,
      "Tường": 1946,
      "bò": 1947,
      "bầu": 1948,
      "Ngài": 1949,
      "thèm": 1950,
      "hút": 1951,
      "dầu": 1952,
      "Kiều": 1953,
      "đốc": 1954,
      "cứng": 1955,
      "đựng": 1956,
      "gấp": 1957,
      "bận": 1958,
      "Sinh": 1959,
      "Nhìn": 1960,
      "nở": 1961,
      "tựa": 1962,
      "than": 1963,
      "nhỉ": 1964,
      "ượn": 1965,
      "ngó": 1966,
      "vây": 1967,
      "nhẫn": 1968,
      "Sĩ": 1969,
      "Lần": 1970,
      "Bu": 1971,
      "truyện": 1972,
      "đảm": 1973,
      "Vĩnh": 1974,
      "cà": 1975,
      "đa": 1976,
      "lưỡi": 1977,
      "ngọc": 1978,
      "đô": 1979,
      "lượt": 1980,
      "chén": 1981,
      "giơ": 1982,
      "Mày": 1983,
      "Hán": 1984,
      "ngon": 1985,
      "Tân": 1986,
      "kiểu": 1987,
      "góc": 1988,
      "Uy": 1989,
      "Về": 1990,
      "Nữ": 1991,
      "ầng": 1992,
      "Việc": 1993,
      "amp7": 1994,
      "trăng": 1995,
      "nho": 1996,
      "lông": 1997,
      "Vạn": 1998,
      "chùa": 1999,
      "bụi": 2000,
      "xung": 2001,
      "de": 2002,
      "Lu": 2003,
      "gà": 2004,
      "Uyên": 2005,
      "Thi": 2006,
      "Vâng": 2007,
      "bá": 2008,
      "Bằng": 2009,
      "cương": 2010,
      "hài": 2011,
      "Yên": 2012,
      "Tình": 2013,
      "nông": 2014,
      "hộp": 2015,
      "trà": 2016,
      "dặn": 2017,
      "rỡ": 2018,
      "Lời": 2019,
      "lũ": 2020,
      "sắt": 2021,
      "tái": 2022,
      "mệnh": 2023,
      "bực": 2024,
      "khuy": 2025,
      "hung": 2026,
      "đói": 2027,
      "tạm": 2028,
      "Harry": 2029,
      "tụi": 2030,
      "giỏi": 2031,
      "Thảo": 2032,
      "bếp": 2033,
      "tín": 2034,
      "Ngay": 2035,
      "nổ": 2036,
      "Mộc": 2037,
      "vung": 2038,
      "nắng": 2039,
      "Lương": 2040,
      "cải": 2041,
      "đằng": 2042,
      "xinh": 2043,
      "khen": 2044,
      "hô": 2045,
      "Bích": 2046,
      "Chí": 2047,
      "Nguồn": 2048,
      "hẹn": 2049,
      "lôi": 2050,
      "Thông": 2051,
      "chuyên": 2052,
      "ro": 2053,
      "thuận": 2054,
      "hán": 2055,
      "ọa": 2056,
      "Tao": 2057,
      "trôi": 2058,
      "lùi": 2059,
      "trải": 2060,
      "Nội": 2061,
      "xương": 2062,
      "phê": 2063,
      "gửi": 2064,
      "mộ": 2065,
      "Với": 2066,
      "ghê": 2067,
      "diệt": 2068,
      "sạch": 2069,
      "hối": 2070,
      "long": 2071,
      "bè": 2072,
      "vẽ": 2073,
      "ộm": 2074,
      "chối": 2075,
      "thiếp": 2076,
      "Câu": 2077,
      "Mạnh": 2078,
      "đắc": 2079,
      "mây": 2080,
      "hoài": 2081,
      "chữa": 2082,
      "mã": 2083,
      "sóng": 2084,
      "amp2": 2085,
      "Bỗng": 2086,
      "họa": 2087,
      "xông": 2088,
      "khoa": 2089,
      "lĩnh": 2090,
      "lăn": 2091,
      "Tô": 2092,
      "ol": 2093,
      "dục": 2094,
      "thánh": 2095,
      "thâm": 2096,
      "Thường": 2097,
      "thản": 2098,
      "mù": 2099,
      "khẩu": 2100,
      "thủy": 2101,
      "ck": 2102,
      "man": 2103,
      "sung": 2104,
      "giàu": 2105,
      "mồ": 2106,
      "Tên": 2107,
      "đạt": 2108,
      "Khấu": 2109,
      "tắt": 2110,
      "Đồ": 2111,
      "đỉnh": 2112,
      "ùn": 2113,
      "sốt": 2114,
      "Hòa": 2115,
      "dao": 2116,
      "tạ": 2117,
      "chán": 2118,
      "dịp": 2119,
      "tam": 2120,
      "Băng": 2121,
      "ẹt": 2122,
      "si": 2123,
      "gác": 2124,
      "khỏ": 2125,
      "ngập": 2126,
      "đốt": 2127,
      "Diệp": 2128,
      "Ngũ": 2129,
      "xoay": 2130,
      "Vỹ": 2131,
      "ngắm": 2132,
      "thoảng": 2133,
      "Hoài": 2134,
      "miếng": 2135,
      "Huệ": 2136,
      "ặm": 2137,
      "al": 2138,
      "Kiệt": 2139,
      "chở": 2140,
      "khúc": 2141,
      "Tinh": 2142,
      "Mỗi": 2143,
      "mộng": 2144,
      "Kho": 2145,
      "Giọng": 2146,
      "nghèo": 2147,
      "bát": 2148,
      "nhàng": 2149,
      "thiện": 2150,
      "cháy": 2151,
      "Lang": 2152,
      "Ly": 2153,
      "ửng": 2154,
      "khủng": 2155,
      "hôi": 2156,
      "ẹo": 2157,
      "nền": 2158,
      "tặng": 2159,
      "cục": 2160,
      "gốc": 2161,
      "tớ": 2162,
      "Thầy": 2163,
      "Hắc": 2164,
      "khỏe": 2165,
      "màn": 2166,
      "mát": 2167,
      "Bang": 2168,
      "dò": 2169,
      "Lam": 2170,
      "tri": 2171,
      "khuyên": 2172,
      "khiếp": 2173,
      "Hầu": 2174,
      "dối": 2175,
      "dụ": 2176,
      "trực": 2177,
      "Nhị": 2178,
      "chợ": 2179,
      "chóng": 2180,
      "bãi": 2181,
      "Bố": 2182,
      "điệu": 2183,
      "sàng": 2184,
      "khởi": 2185,
      "thảo": 2186,
      "Mặt": 2187,
      "Đoàn": 2188,
      "Nhạc": 2189,
      "giản": 2190,
      "Hình": 2191,
      "nhóm": 2192,
      "Mặc": 2193,
      "Hành": 2194,
      "đớn": 2195,
      "đeo": 2196,
      "Tứ": 2197,
      "rắn": 2198,
      "bấy": 2199,
      "ném": 2200,
      "nát": 2201,
      "ừu": 2202,
      "tứ": 2203,
      "Thánh": 2204,
      "Qua": 2205,
      "Thương": 2206,
      "Toàn": 2207,
      "lừa": 2208,
      "họp": 2209,
      "khôn": 2210,
      "Bách": 2211,
      "lộn": 2212,
      "ủy": 2213,
      "Đôi": 2214,
      "Hạng": 2215,
      "Luân": 2216,
      "duyên": 2217,
      "hở": 2218,
      "nhục": 2219,
      "huyện": 2220,
      "ne": 2221,
      "son": 2222,
      "cư": 2223,
      "nhu": 2224,
      "Lôi": 2225,
      "tước": 2226,
      "mỏi": 2227,
      "ngơ": 2228,
      "trưa": 2229,
      "dọc": 2230,
      "12": 2231,
      "tràn": 2232,
      "Cuối": 2233,
      "Khu": 2234,
      "cuồng": 2235,
      "trợ": 2236,
      "Phạm": 2237,
      "biên": 2238,
      "ún": 2239,
      "Thân": 2240,
      "Giả": 2241,
      "lái": 2242,
      "oán": 2243,
      "trừng": 2244,
      "khói": 2245,
      "dọn": 2246,
      "gan": 2247,
      "bề": 2248,
      "mò": 2249,
      "thổi": 2250,
      "thưởng": 2251,
      "Đêm": 2252,
      "tắm": 2253,
      "chuyến": 2254,
      "sanh": 2255,
      "Quả": 2256,
      "Tùng": 2257,
      "Loan": 2258,
      "hoá": 2259,
      "ran": 2260,
      "Na": 2261,
      "cốc": 2262,
      "hầm": 2263,
      "nhật": 2264,
      "chém": 2265,
      "đảng": 2266,
      "dại": 2267,
      "thỉnh": 2268,
      "Nhu": 2269,
      "liếc": 2270,
      "sợi": 2271,
      "xứ": 2272,
      "Dịch": 2273,
      "hoạch": 2274,
      "Ngân": 2275,
      "kiểm": 2276,
      "xuyên": 2277,
      "Ban": 2278,
      "Nghĩa": 2279,
      "rực": 2280,
      "us": 2281,
      "hấp": 2282,
      "thiệt": 2283,
      "ve": 2284,
      "thí": 2285,
      "treo": 2286,
      "Cách": 2287,
      "lầu": 2288,
      "chả": 2289,
      "hạt": 2290,
      "triệu": 2291,
      "bẩm": 2292,
      "thậm": 2293,
      "Đỗ": 2294,
      "lướt": 2295,
      "ýt": 2296,
      "chụp": 2297,
      "tô": 2298,
      "vải": 2299,
      "bông": 2300,
      "Thời": 2301,
      "Phúc": 2302,
      "nghiêng": 2303,
      "bổn": 2304,
      "Gòn": 2305,
      "Mục": 2306,
      "Kha": 2307,
      "Hoàn": 2308,
      "Phan": 2309,
      "dựa": 2310,
      "hứng": 2311,
      "ton": 2312,
      "xóm": 2313,
      "net": 2314,
      "lỗ": 2315,
      "vuốt": 2316,
      "cường": 2317,
      "Ni": 2318,
      "chương": 2319,
      "ịt": 2320,
      "giai": 2321,
      "muộn": 2322,
      "kiếp": 2323,
      "đạn": 2324,
      "Sáng": 2325,
      "cãi": 2326,
      "tố": 2327,
      "cản": 2328,
      "căng": 2329,
      "tòa": 2330,
      "Biết": 2331,
      "mãn": 2332,
      "vách": 2333,
      "mạo": 2334,
      "Bên": 2335,
      "ga": 2336,
      "Ha": 2337,
      "mến": 2338,
      "amp78": 2339,
      "trì": 2340,
      "chốc": 2341,
      "gạt": 2342,
      "tiệc": 2343,
      "Ánh": 2344,
      "ốm": 2345,
      "cau": 2346,
      "tệ": 2347,
      "vững": 2348,
      "cát": 2349,
      "đạp": 2350,
      "hư": 2351,
      "tuyên": 2352,
      "tuyết": 2353,
      "hạng": 2354,
      "Âm": 2355,
      "cắn": 2356,
      "móc": 2357,
      "Là": 2358,
      "Ngoài": 2359,
      "Chưa": 2360,
      "phấn": 2361,
      "kịch": 2362,
      "ngữ": 2363,
      "mắng": 2364,
      "râu": 2365,
      "Ân": 2366,
      "bội": 2367,
      "mạch": 2368,
      "Bao": 2369,
      "Tho": 2370,
      "18": 2371,
      "tủ": 2372,
      "bổ": 2373,
      "gối": 2374,
      "Lệnh": 2375,
      "ngũ": 2376,
      "Hưng": 2377,
      "khéo": 2378,
      "dâng": 2379,
      "Tố": 2380,
      "ngộ": 2381,
      "thuquan": 2382,
      "úm": 2383,
      "nhăn": 2384,
      "khích": 2385,
      "thơm": 2386,
      "vã": 2387,
      "dạng": 2388,
      "sóc": 2389,
      "tỉ": 2390,
      "nấu": 2391,
      "Sương": 2392,
      "ngâm": 2393,
      "đồn": 2394,
      "mô": 2395,
      "Mộng": 2396,
      "cự": 2397,
      "ngẩn": 2398,
      "?.": 2399,
      "Nương": 2400,
      "Vua": 2401,
      "Giờ": 2402,
      "bút": 2403,
      "Hiệp": 2404,
      "rung": 2405,
      "phù": 2406,
      "lấp": 2407,
      "Ôi": 2408,
      "ếch": 2409,
      "săn": 2410,
      "diệu": 2411,
      "Hữu": 2412,
      "nhiệt": 2413,
      "iễm": 2414,
      "Li": 2415,
      "giọt": 2416,
      "Đạt": 2417,
      "tụ": 2418,
      "ụa": 2419,
      "tí": 2420,
      "sờ": 2421,
      "cớ": 2422,
      "Tạ": 2423,
      "Cám": 2424,
      "đậu": 2425,
      "Ra": 2426,
      "dắt": 2427,
      "trộm": 2428,
      "pha": 2429,
      "leo": 2430,
      "Lân": 2431,
      "xi": 2432,
      "trụ": 2433,
      "rửa": 2434,
      "ngọt": 2435,
      "se": 2436,
      "Quý": 2437,
      "dồn": 2438,
      "dày": 2439,
      "Ri": 2440,
      "rãi": 2441,
      "tịch": 2442,
      "Đo": 2443,
      "chứa": 2444,
      "tia": 2445,
      "tây": 2446,
      "bạch": 2447,
      "non": 2448,
      "mềm": 2449,
      "Mao": 2450,
      "Thực": 2451,
      "đống": 2452,
      "khoái": 2453,
      "ce": 2454,
      "vụt": 2455,
      "bạo": 2456,
      "ngoan": 2457,
      "bừng": 2458,
      "ka": 2459,
      "ngắt": 2460,
      "Dân": 2461,
      "bớt": 2462,
      "bốc": 2463,
      "làn": 2464,
      "Mu": 2465,
      "Quỷ": 2466,
      "giặc": 2467,
      "Quyên": 2468,
      "ine": 2469,
      "Thị": 2470,
      "sương": 2471,
      "tắc": 2472,
      "thợ": 2473,
      "tồn": 2474,
      "hốt": 2475,
      "hang": 2476,
      "cán": 2477,
      "Cuộc": 2478,
      "lau": 2479,
      "phán": 2480,
      "tùy": 2481,
      "mỹ": 2482,
      "Lĩnh": 2483,
      "Vào": 2484,
      "ễu": 2485,
      "cấm": 2486,
      "đáo": 2487,
      "trán": 2488,
      "tầng": 2489,
      "loài": 2490,
      "Lãnh": 2491,
      "nộ": 2492,
      "Thục": 2493,
      "lẩm": 2494,
      "hà": 2495,
      "Chiếc": 2496,
      "Khang": 2497,
      "lánh": 2498,
      "Vị": 2499,
      "ghé": 2500,
      "ngây": 2501,
      "ẩng": 2502,
      "đứt": 2503,
      "luồng": 2504,
      "biện": 2505,
      "huyết": 2506,
      "lật": 2507,
      "dặm": 2508,
      "hàm": 2509,
      "Hồn": 2510,
      "bào": 2511,
      "Ro": 2512,
      "tốc": 2513,
      "ko": 2514,
      "dâu": 2515,
      "vn": 2516,
      "thụ": 2517,
      "xuân": 2518,
      "cột": 2519,
      "van": 2520,
      "chấm": 2521,
      "Điền": 2522,
      "Lập": 2523,
      "cốt": 2524,
      "nối": 2525,
      "Dao": 2526,
      "kiên": 2527,
      "khám": 2528,
      "htt": 2529,
      "vọt": 2530,
      "Định": 2531,
      "Trí": 2532,
      "ngợi": 2533,
      "Đầu": 2534,
      "chốn": 2535,
      "cõi": 2536,
      "lơ": 2537,
      "hè": 2538,
      "Hiện": 2539,
      "http": 2540,
      "Khanh": 2541,
      "NH": 2542,
      "chúc": 2543,
      "đà": 2544,
      "thước": 2545,
      "Quảng": 2546,
      "nợ": 2547,
      "Nghĩ": 2548,
      "uyến": 2549,
      "khốn": 2550,
      "11": 2551,
      "mượn": 2552,
      "thét": 2553,
      "cành": 2554,
      "hoà": 2555,
      "lô": 2556,
      "ngôn": 2557,
      "Hổ": 2558,
      "Hơn": 2559,
      "hải": 2560,
      "nghiên": 2561,
      "reo": 2562,
      "ùy": 2563,
      "cân": 2564,
      "cởi": 2565,
      "nhằm": 2566,
      "lăm": 2567,
      "nha": 2568,
      "Thẩm": 2569,
      "nảy": 2570,
      "trào": 2571,
      "Đang": 2572,
      "len": 2573,
      "San": 2574,
      "đụng": 2575,
      "phạt": 2576,
      "ter": 2577,
      "vnthuquan": 2578,
      "ngẩng": 2579,
      "Viễn": 2580,
      "toan": 2581,
      "nề": 2582,
      "xưng": 2583,
      "Giao": 2584,
      "khóa": 2585,
      "Mười": 2586,
      "ãm": 2587,
      "dưỡng": 2588,
      "Phú": 2589,
      "ngột": 2590,
      "ngầm": 2591,
      "đuôi": 2592,
      "thiệu": 2593,
      "khuất": 2594,
      "nâng": 2595,
      "httpvnthuquan": 2596,
      "netPhát": 2597,
      "giam": 2598,
      "Uyển": 2599,
      "ờn": 2600,
      "Khải": 2601,
      "buôn": 2602,
      "Tiền": 2603,
      "Trịnh": 2604,
      "bám": 2605,
      "quyển": 2606,
      "liều": 2607,
      "tốn": 2608,
      "Nay": 2609,
      "khát": 2610,
      "châm": 2611,
      "Huyết": 2612,
      "gánh": 2613,
      "sững": 2614,
      "chìm": 2615,
      "nấy": 2616,
      "rào": 2617,
      "Bạn": 2618,
      "Cộng": 2619,
      "chánh": 2620,
      "mỗ": 2621,
      "đặng": 2622,
      "gồm": 2623,
      "lò": 2624,
      "đền": 2625,
      "Cốc": 2626,
      "ịa": 2627,
      "Nhiều": 2628,
      "Đà": 2629,
      "Lâu": 2630,
      "Phùng": 2631,
      "Mẫn": 2632,
      "ard": 2633,
      "chấn": 2634,
      "quí": 2635,
      "as": 2636,
      "chép": 2637,
      "xứng": 2638,
      "mắn": 2639,
      "lọt": 2640,
      "gượng": 2641,
      "Bản": 2642,
      "Chung": 2643,
      "sạn": 2644,
      "phất": 2645,
      "Vy": 2646,
      "Diệm": 2647,
      "Nhã": 2648,
      "vả": 2649,
      "Hiền": 2650,
      "Này": 2651,
      "Dũng": 2652,
      "óp": 2653,
      "trùng": 2654,
      "cam": 2655,
      "suối": 2656,
      "nô": 2657,
      "ngân": 2658,
      "đoạt": 2659,
      "bọc": 2660,
      "Chào": 2661,
      "ke": 2662,
      "quỳ": 2663,
      "tà": 2664,
      "đồi": 2665,
      "phí": 2666,
      "xô": 2667,
      "lạy": 2668,
      "gỡ": 2669,
      "Cúc": 2670,
      "20": 2671,
      "dính": 2672,
      "vời": 2673,
      "khẩn": 2674,
      "Cảnh": 2675,
      "chuông": 2676,
      "tạp": 2677,
      "Ninh": 2678,
      "vâng": 2679,
      "Chiêu": 2680,
      "pháo": 2681,
      "Phần": 2682,
      "múa": 2683,
      "thạch": 2684,
      "đãi": 2685,
      "hoan": 2686,
      "Bát": 2687,
      "mồm": 2688,
      "Mạc": 2689,
      "rít": 2690,
      "Hạo": 2691,
      "Thứ": 2692,
      "thôn": 2693,
      "não": 2694,
      "Bốn": 2695,
      "bắc": 2696,
      "phim": 2697,
      "dội": 2698,
      "lựa": 2699,
      "ruộng": 2700,
      "trương": 2701,
      "túng": 2702,
      "mãnh": 2703,
      "nhã": 2704,
      "kình": 2705,
      "Tà": 2706,
      "Nước": 2707,
      "khuya": 2708,
      "cận": 2709,
      "Nào": 2710,
      "nguồn": 2711,
      "15": 2712,
      "chăn": 2713,
      "gầm": 2714,
      "giảm": 2715,
      "gõ": 2716,
      "ếm": 2717,
      "Phủ": 2718,
      "dạo": 2719,
      "muôn": 2720,
      "200": 2721,
      "chọc": 2722,
      "gói": 2723,
      "chửi": 2724,
      "Thắng": 2725,
      "Tướng": 2726,
      "Cầm": 2727,
      "lỡ": 2728,
      "Trinh": 2729,
      "mọc": 2730,
      "Đan": 2731,
      "Cần": 2732,
      "lê": 2733,
      "ươn": 2734,
      "Độ": 2735,
      "Trác": 2736,
      "lẻ": 2737,
      "đòn": 2738,
      "căm": 2739,
      "bần": 2740,
      "Bảy": 2741,
      "II": 2742,
      "mực": 2743,
      "Mộ": 2744,
      "thẹn": 2745,
      "dưng": 2746,
      "thề": 2747,
      "mông": 2748,
      "miễn": 2749,
      "hảo": 2750,
      "thập": 2751,
      "lồng": 2752,
      "Khách": 2753,
      "xót": 2754,
      "xé": 2755,
      "há": 2756,
      "Nhược": 2757,
      "đăm": 2758,
      "dở": 2759,
      "vờ": 2760,
      "chui": 2761,
      "xám": 2762,
      "tiệm": 2763,
      "Kỵ": 2764,
      "Triển": 2765,
      "giảng": 2766,
      "cắm": 2767,
      "Hiểu": 2768,
      "ờng": 2769,
      "bệ": 2770,
      "hiếu": 2771,
      "hỏa": 2772,
      "nhịn": 2773,
      "quà": 2774,
      "lanh": 2775,
      "tò": 2776,
      "ge": 2777,
      "Ti": 2778,
      "nén": 2779,
      "Jo": 2780,
      "truy": 2781,
      "vẫy": 2782,
      "Hân": 2783,
      "chôn": 2784,
      "cay": 2785,
      "rũ": 2786,
      "Nhạn": 2787,
      "Đối": 2788,
      "Cu": 2789,
      "doanh": 2790,
      "cạn": 2791,
      "gầy": 2792,
      "thuê": 2793,
      "My": 2794,
      "siêu": 2795,
      "chặn": 2796,
      "vân": 2797,
      "TH": 2798,
      "kìa": 2799,
      "Tưởng": 2800,
      "giày": 2801,
      "quét": 2802,
      "nghìn": 2803,
      "thê": 2804,
      "Dĩ": 2805,
      "ngục": 2806,
      "xá": 2807,
      "tảng": 2808,
      "!.": 2809,
      "thùng": 2810,
      "Tuyệt": 2811,
      "ngất": 2812,
      "lược": 2813,
      "bến": 2814,
      "xách": 2815,
      "vãn": 2816,
      "Sáu": 2817,
      "Tề": 2818,
      "nhủ": 2819,
      "Muốn": 2820,
      "Sát": 2821,
      "lén": 2822,
      "dã": 2823,
      "Côn": 2824,
      "sôi": 2825,
      "be": 2826,
      "Đoạn": 2827,
      "sàn": 2828,
      "trợn": 2829,
      "tang": 2830,
      "ngào": 2831,
      "Ka": 2832,
      "đàng": 2833,
      "no": 2834,
      "soạn": 2835,
      "khe": 2836,
      "tre": 2837,
      "kiệt": 2838,
      "gởi": 2839,
      "Đảng": 2840,
      "nghịch": 2841,
      "chìa": 2842,
      "Ne": 2843,
      "Hàng": 2844,
      "tui": 2845,
      "Rất": 2846,
      "cám": 2847,
      "gọn": 2848,
      "túc": 2849,
      "màng": 2850,
      "thổ": 2851,
      "nhún": 2852,
      "kháng": 2853,
      "viễn": 2854,
      "So": 2855,
      "kỵ": 2856,
      "nuốt": 2857,
      "hất": 2858,
      "xoa": 2859,
      "sảnh": 2860,
      "Thiệu": 2861,
      "Bội": 2862,
      "tháo": 2863,
      "ngước": 2864,
      "khoác": 2865,
      "té": 2866,
      "Trân": 2867,
      "huyền": 2868,
      "dốc": 2869,
      "tơ": 2870,
      "CH": 2871,
      "cỡ": 2872,
      "thai": 2873,
      "nhặt": 2874,
      "Tiết": 2875,
      "khối": 2876,
      "Lai": 2877,
      "tiễn": 2878,
      "khung": 2879,
      "chê": 2880,
      "Cương": 2881,
      "ghen": 2882,
      "Thừa": 2883,
      "tách": 2884,
      "trúc": 2885,
      "Xuyên": 2886,
      "Đài": 2887,
      "Hy": 2888,
      "hỗ": 2889,
      "buồng": 2890,
      "khoát": 2891,
      "me": 2892,
      "chai": 2893,
      "Tịnh": 2894,
      "dãy": 2895,
      "chỉnh": 2896,
      "lờ": 2897,
      "Hiếu": 2898,
      "Xem": 2899,
      "17": 2900,
      "ươm": 2901,
      "Đột": 2902,
      "bồ": 2903,
      "----": 2904,
      "xen": 2905,
      "Tấn": 2906,
      "õng": 2907,
      "bồi": 2908,
      "Le": 2909,
      "Lo": 2910,
      "ley": 2911,
      "Bo": 2912,
      "cưỡng": 2913,
      "rùng": 2914,
      "gạo": 2915,
      "lin": 2916,
      "nhường": 2917,
      "thói": 2918,
      "30": 2919,
      "ngốc": 2920,
      "Hậu": 2921,
      "trọn": 2922,
      "né": 2923,
      "Khắc": 2924,
      "thác": 2925,
      "Tối": 2926,
      "ham": 2927,
      "Đế": 2928,
      "ngạo": 2929,
      "May": 2930,
      "vỏ": 2931,
      "ốp": 2932,
      "Thích": 2933,
      "Phù": 2934,
      "sánh": 2935,
      "and": 2936,
      "rủ": 2937,
      "dược": 2938,
      "Lộc": 2939,
      "chư": 2940,
      "thiền": 2941,
      "vĩnh": 2942,
      "ngơi": 2943,
      "tánh": 2944,
      "xâm": 2945,
      "Vệ": 2946,
      "Cừu": 2947,
      "dư": 2948,
      "Phó": 2949,
      "mèo": 2950,
      "ngự": 2951,
      "ngửa": 2952,
      "phú": 2953,
      "Đặng": 2954,
      "Si": 2955,
      "Nha": 2956,
      "gắn": 2957,
      "đẻ": 2958,
      "Diệu": 2959,
      "gào": 2960,
      "hắc": 2961,
      "sót": 2962,
      "gắt": 2963,
      "ngác": 2964,
      "trâu": 2965,
      "16": 2966,
      "Diện": 2967,
      "khoan": 2968,
      "Vợ": 2969,
      "tê": 2970,
      "rách": 2971,
      "táo": 2972,
      "Hằng": 2973,
      "giở": 2974,
      "thám": 2975,
      "ngưng": 2976,
      "Dư": 2977,
      "giáp": 2978,
      "đăng": 2979,
      "Tổ": 2980,
      "xuôi": 2981,
      "Phục": 2982,
      "xà": 2983,
      "mỏng": 2984,
      "dũng": 2985,
      "Chưởng": 2986,
      "roi": 2987,
      "Da": 2988,
      "nồng": 2989,
      "Cam": 2990,
      "trồng": 2991,
      "lãng": 2992,
      "đinh": 2993,
      "xua": 2994,
      "huống": 2995,
      "Ngư": 2996,
      "Mắt": 2997,
      "thọ": 2998,
      "ớp": 2999,
      "Giữa": 3000,
      "thỏa": 3001,
      "les": 3002,
      "nhát": 3003,
      "24": 3004,
      "lăng": 3005,
      "ber": 3006,
      "Par": 3007,
      "Vinh": 3008,
      "tân": 3009,
      "gớm": 3010,
      "báu": 3011,
      "Cường": 3012,
      "To": 3013,
      "lam": 3014,
      "kiêu": 3015,
      "tổn": 3016,
      "hẹp": 3017,
      "chen": 3018,
      "Trầm": 3019,
      "Mông": 3020,
      "ngần": 3021,
      "nan": 3022,
      "Pi": 3023,
      "Kẻ": 3024,
      "go": 3025,
      "đáy": 3026,
      "sáo": 3027,
      "rẽ": 3028,
      "đả": 3029,
      "thình": 3030,
      "nghiến": 3031,
      "Phu": 3032,
      "Ar": 3033,
      "rắc": 3034,
      "ngưỡng": 3035,
      "nhọc": 3036,
      "xích": 3037,
      "xao": 3038,
      "lay": 3039,
      "tăm": 3040,
      "Huỳnh": 3041,
      "Thập": 3042,
      "thắc": 3043,
      "khứ": 3044,
      "tỳ": 3045,
      "thô": 3046,
      "góp": 3047,
      "Lợi": 3048,
      "Ja": 3049,
      "ưởi": 3050,
      "lung": 3051,
      "vĩ": 3052,
      "bưng": 3053,
      "Hừ": 3054,
      "Hóa": 3055,
      "tâu": 3056,
      "Vả": 3057,
      "Tay": 3058,
      "ngụ": 3059,
      "tặc": 3060,
      "Tào": 3061,
      "lụa": 3062,
      "dinh": 3063,
      "vở": 3064,
      "sói": 3065,
      "bàng": 3066,
      "Tông": 3067,
      "gục": 3068,
      "Diễm": 3069,
      "gợi": 3070,
      "nhịp": 3071,
      "Tĩnh": 3072,
      "one": 3073,
      "phức": 3074,
      "Xung": 3075,
      "dập": 3076,
      "Mới": 3077,
      "Hi": 3078,
      "thoải": 3079,
      "Bàn": 3080,
      "lẹ": 3081,
      "Bửu": 3082,
      "thiệp": 3083,
      "quận": 3084,
      "giành": 3085,
      "toà": 3086,
      "quotTôi": 3087,
      "Quy": 3088,
      "ngả": 3089,
      "...-": 3090,
      "Đa": 3091,
      "Lộ": 3092,
      "hèn": 3093,
      "Tiến": 3094,
      "bia": 3095,
      "Mụ": 3096,
      "Tương": 3097,
      "mạn": 3098,
      "đầm": 3099,
      "rau": 3100,
      "hái": 3101,
      "Sử": 3102,
      "Oanh": 3103,
      "uất": 3104,
      "13": 3105,
      "chằm": 3106,
      "mép": 3107,
      "vú": 3108,
      "za": 3109,
      "Quần": 3110,
      "chua": 3111,
      "Cẩm": 3112,
      "Chiến": 3113,
      "hít": 3114,
      "cắp": 3115,
      "bão": 3116,
      "sữa": 3117,
      "đắm": 3118,
      "rầu": 3119,
      "tráng": 3120,
      "giục": 3121,
      "Tiếu": 3122,
      "manh": 3123,
      "soi": 3124,
      "nghẹn": 3125,
      "bóp": 3126,
      "Cảm": 3127,
      "thò": 3128,
      "tật": 3129,
      "Pet": 3130,
      "điếu": 3131,
      "Lữ": 3132,
      "dọa": 3133,
      "hiếm": 3134,
      "hò": 3135,
      "Dưới": 3136,
      "tỏa": 3137,
      "õm": 3138,
      "cuộn": 3139,
      "Buổi": 3140,
      "trễ": 3141,
      "trùm": 3142,
      "don": 3143,
      "Địch": 3144,
      "dè": 3145,
      "trói": 3146,
      "vút": 3147,
      "Kiến": 3148,
      "Khai": 3149,
      "bái": 3150,
      "vẹn": 3151,
      "khẳng": 3152,
      "văng": 3153,
      "tuân": 3154,
      "25": 3155,
      "Triều": 3156,
      "cậy": 3157,
      "cú": 3158,
      "gãy": 3159,
      "kê": 3160,
      "bách": 3161,
      "loạt": 3162,
      "ộp": 3163,
      "lúng": 3164,
      "tấp": 3165,
      "Trình": 3166,
      "Khả": 3167,
      "ris": 3168,
      "14": 3169,
      "thắt": 3170,
      "Học": 3171,
      "oai": 3172,
      "197": 3173,
      "quyến": 3174,
      "rên": 3175,
      "tàng": 3176,
      "tùng": 3177,
      "ngỡ": 3178,
      "Thuần": 3179,
      "lia": 3180,
      "ie": 3181,
      "phe": 3182,
      "ẻo": 3183,
      "hòn": 3184,
      "điềm": 3185,
      "Nhiên": 3186,
      "Tám": 3187,
      "pho": 3188,
      "Thuận": 3189,
      "Tốt": 3190,
      "ũa": 3191,
      "nheo": 3192,
      "khoẻ": 3193,
      "hỏng": 3194,
      "bắp": 3195,
      "Ái": 3196,
      "Dì": 3197,
      "nháy": 3198,
      "Thiện": 3199,
      "bã": 3200,
      "khép": 3201,
      "Pa": 3202,
      "lồ": 3203,
      "rót": 3204,
      "rồng": 3205,
      "196": 3206,
      "Han": 3207,
      "bầy": 3208,
      "lưỡng": 3209,
      "quotquot": 3210,
      "choàng": 3211,
      "hăng": 3212,
      "mì": 3213,
      "Cụ": 3214,
      "phen": 3215,
      "Tài": 3216,
      "Đô": 3217,
      "cỗ": 3218,
      "tím": 3219,
      "vất": 3220,
      "mét": 3221,
      "cong": 3222,
      "nhào": 3223,
      "ơm": 3224,
      "Siêu": 3225,
      "ló": 3226,
      "lúa": 3227,
      "Đàn": 3228,
      "dẹp": 3229,
      "tát": 3230,
      "Hạc": 3231,
      "hiển": 3232,
      "hừ": 3233,
      "Cùng": 3234,
      "cập": 3235,
      "men": 3236,
      "đuối": 3237,
      "vinh": 3238,
      "tuyến": 3239,
      "tông": 3240,
      "Phàm": 3241,
      "lều": 3242,
      "hiếp": 3243,
      "suýt": 3244,
      "dỗ": 3245,
      "nhíu": 3246,
      "Đoan": 3247,
      "Thụy": 3248,
      "Kính": 3249,
      "thấm": 3250,
      "thinh": 3251,
      "gậy": 3252,
      "soát": 3253,
      "cúng": 3254,
      "Car": 3255,
      "chuột": 3256,
      "Địa": 3257,
      "thăng": 3258,
      "Su": 3259,
      "họng": 3260,
      "cọ": 3261,
      "tẩu": 3262,
      "hệt": 3263,
      "Lỗ": 3264,
      "tràng": 3265,
      "Phòng": 3266,
      "đắng": 3267,
      "sửng": 3268,
      "Tuệ": 3269,
      "hủy": 3270,
      "chắp": 3271,
      "rộn": 3272,
      "vong": 3273,
      "khái": 3274,
      "Ngồi": 3275,
      "Nhớ": 3276,
      "Peter": 3277,
      "vơ": 3278,
      "Quái": 3279,
      "Ấn": 3280,
      "Hư": 3281,
      "ngượng": 3282,
      "trú": 3283,
      "vươn": 3284,
      "the": 3285,
      "sầu": 3286,
      "Dự": 3287,
      "phẫn": 3288,
      "Đăng": 3289,
      "khôi": 3290,
      "Đệ": 3291,
      "ver": 3292,
      "phiên": 3293,
      "dằn": 3294,
      "Tăng": 3295,
      "lí": 3296,
      "Sách": 3297,
      "De": 3298,
      "Ale": 3299,
      "kệ": 3300,
      "Xương": 3301,
      "dy": 3302,
      "Nhờ": 3303,
      "Khôi": 3304,
      "Bấy": 3305,
      "Nghiêm": 3306,
      "hn": 3307,
      "lình": 3308,
      "ũi": 3309,
      "bơi": 3310,
      "Al": 3311,
      "khoản": 3312,
      "Danh": 3313,
      "đè": 3314,
      "bịt": 3315,
      "điếm": 3316,
      "Khổng": 3317,
      "cừu": 3318,
      "mạc": 3319,
      "thà": 3320,
      "xỉ": 3321,
      "Bồ": 3322,
      "ngõ": 3323,
      "rỉ": 3324,
      "Yêu": 3325,
      "bổng": 3326,
      "đĩa": 3327,
      "Khương": 3328,
      "Động": 3329,
      "Tàu": 3330,
      "Giới": 3331,
      "Chiều": 3332,
      "Kế": 3333,
      "Co": 3334,
      "xí": 3335,
      "pe": 3336,
      "khanh": 3337,
      "mẽ": 3338,
      "Chấn": 3339,
      "sụp": 3340,
      "nín": 3341,
      "rậm": 3342,
      "bể": 3343,
      "gai": 3344,
      "Quá": 3345,
      "Tới": 3346,
      "tru": 3347,
      "hễ": 3348,
      "Kiên": 3349,
      "Má": 3350,
      "Her": 3351,
      "Khoa": 3352,
      "thối": 3353,
      "bù": 3354,
      "Đấy": 3355,
      "hỗn": 3356,
      "ven": 3357,
      "gò": 3358,
      "đấm": 3359,
      "bảng": 3360,
      "trân": 3361,
      "luân": 3362,
      "Nơi": 3363,
      "gu": 3364,
      "bế": 3365,
      "gạch": 3366,
      "Suốt": 3367,
      "Chợt": 3368,
      "Cố": 3369,
      "tịnh": 3370,
      "thao": 3371,
      "rớt": 3372,
      "Tiếp": 3373,
      "sen": 3374,
      "Tích": 3375,
      "trêu": 3376,
      "hé": 3377,
      "quấy": 3378,
      "lưới": 3379,
      "tú": 3380,
      "đê": 3381,
      "thấu": 3382,
      "Hảo": 3383,
      "nôn": 3384,
      "Lãng": 3385,
      "đũa": 3386,
      "triết": 3387,
      "khiển": 3388,
      "gù": 3389,
      "Huế": 3390,
      "chầm": 3391,
      "hì": 3392,
      "Đương": 3393,
      "xì": 3394,
      "Quế": 3395,
      "Nhĩ": 3396,
      "Duyên": 3397,
      "Rõ": 3398,
      "Tín": 3399,
      "quấn": 3400,
      "sườn": 3401,
      "miếu": 3402,
      "ren": 3403,
      "huấn": 3404,
      "Gần": 3405,
      "trứng": 3406,
      "Thơ": 3407,
      "nhổ": 3408,
      "ẳm": 3409,
      "dâm": 3410,
      "thỏ": 3411,
      "cai": 3412,
      "lặn": 3413,
      "khổng": 3414,
      "rú": 3415,
      "Thúc": 3416,
      "gươm": 3417,
      "John": 3418,
      "Lòng": 3419,
      "cưỡi": 3420,
      "tống": 3421,
      "nức": 3422,
      "cuống": 3423,
      "bê": 3424,
      "Vẫn": 3425,
      "vác": 3426,
      "rẩy": 3427,
      "194": 3428,
      "phật": 3429,
      "Kể": 3430,
      "đe": 3431,
      "nhãn": 3432,
      "quãng": 3433,
      "chói": 3434,
      "nhan": 3435,
      "đếm": 3436,
      "Hào": 3437,
      "thảy": 3438,
      "Ăn": 3439,
      "Hỏa": 3440,
      "Trông": 3441,
      "lách": 3442,
      "Mau": 3443,
      "Phụ": 3444,
      "Gió": 3445,
      "Thùy": 3446,
      "ượm": 3447,
      "thuở": 3448,
      "Bị": 3449,
      "hằng": 3450,
      "đan": 3451,
      "náo": 3452,
      "nhắn": 3453,
      "bal": 3454,
      "thép": 3455,
      "phối": 3456,
      "Fran": 3457,
      "Phía": 3458,
      "Kỷ": 3459,
      "ví": 3460,
      "thủng": 3461,
      "gót": 3462,
      "ởm": 3463,
      "Nên": 3464,
      "Thọ": 3465,
      "bẩn": 3466,
      "mỏ": 3467,
      "gằn": 3468,
      "vò": 3469,
      "sẻ": 3470,
      "ur": 3471,
      "qui": 3472,
      "ẵng": 3473,
      "Điệp": 3474,
      "Trái": 3475,
      "Cầu": 3476,
      "Tính": 3477,
      "hàn": 3478,
      "trơ": 3479,
      "bồng": 3480,
      "bậy": 3481,
      "Đám": 3482,
      "Bài": 3483,
      "giùm": 3484,
      "Chánh": 3485,
      "thách": 3486,
      "ngẫm": 3487,
      "quạt": 3488,
      "Thống": 3489,
      "car": 3490,
      "nhở": 3491,
      "Liệt": 3492,
      "nga": 3493,
      "tửu": 3494,
      "Thăng": 3495,
      "quo": 3496,
      "Miên": 3497,
      "buột": 3498,
      "thuỷ": 3499,
      "Xô": 3500,
      "Số": 3501,
      "phổ": 3502,
      "lẳng": 3503,
      "Báo": 3504,
      "nạp": 3505,
      "nhấc": 3506,
      "Đổng": 3507,
      "quảng": 3508,
      "Lã": 3509,
      "Đâu": 3510,
      "Hiên": 3511,
      "liễu": 3512,
      "Vĩ": 3513,
      "lộng": 3514,
      "thuần": 3515,
      "Cây": 3516,
      "phụng": 3517,
      "ther": 3518,
      "bùng": 3519,
      "Càng": 3520,
      "đùi": 3521,
      "Bùi": 3522,
      "rã": 3523,
      "rợn": 3524,
      "tro": 3525,
      "rể": 3526,
      "Ron": 3527,
      "tọa": 3528,
      "loáng": 3529,
      "hờn": 3530,
      "Đứng": 3531,
      "nỉ": 3532,
      "nỡ": 3533,
      "kề": 3534,
      "trọ": 3535,
      "Xe": 3536,
      "ff": 3537,
      "lự": 3538,
      "ván": 3539,
      "Biên": 3540,
      "trút": 3541,
      "Mùa": 3542,
      "thẳm": 3543,
      "khỉ": 3544,
      "đắp": 3545,
      "Huynh": 3546,
      "nè": 3547,
      "xôi": 3548,
      "Đánh": 3549,
      "vuông": 3550,
      "vặt": 3551,
      "giã": 3552,
      "Miêu": 3553,
      "điền": 3554,
      "trưng": 3555,
      "rước": 3556,
      "Paris": 3557,
      "nom": 3558,
      "chinh": 3559,
      "000": 3560,
      "nhức": 3561,
      "Tập": 3562,
      "un": 3563,
      "Xích": 3564,
      "Bé": 3565,
      "43": 3566,
      "xạ": 3567,
      "toát": 3568,
      "ện": 3569,
      "rốt": 3570,
      "tụng": 3571,
      "khiêu": 3572,
      "đạm": 3573,
      "Đằng": 3574,
      "tuôn": 3575,
      "phì": 3576,
      "Càn": 3577,
      "trèo": 3578,
      "độngNguồn": 3579,
      "cuốiCám": 3580,
      "Giá": 3581,
      "Ed": 3582,
      "195": 3583,
      "hông": 3584,
      "nể": 3585,
      "Ảnh": 3586,
      "mồi": 3587,
      "Lẽ": 3588,
      "hố": 3589,
      "Quyền": 3590,
      "Quán": 3591,
      "cấu": 3592,
      "nhích": 3593,
      "kiệu": 3594,
      "Sai": 3595,
      "nhọn": 3596,
      "Căn": 3597,
      "thịnh": 3598,
      "cóc": 3599,
      "bo": 3600,
      "trá": 3601,
      "rẻ": 3602,
      "Tả": 3603,
      "điệp": 3604,
      "bì": 3605,
      "tháp": 3606,
      "yếm": 3607,
      "khoá": 3608,
      "hiến": 3609,
      "Đao": 3610,
      "bộc": 3611,
      "Trì": 3612,
      "sầm": 3613,
      "tóm": 3614,
      "ngậm": 3615,
      "Điện": 3616,
      "mịt": 3617,
      "Dị": 3618,
      "nhầm": 3619,
      "miên": 3620,
      "năn": 3621,
      "bột": 3622,
      "kèm": 3623,
      "nâu": 3624,
      "hoại": 3625,
      "Tụi": 3626,
      "lột": 3627,
      "pi": 3628,
      "lạng": 3629,
      "thẩm": 3630,
      "Trâm": 3631,
      "Đáng": 3632,
      "đậy": 3633,
      "nhơn": 3634,
      "ỡn": 3635,
      "phách": 3636,
      "ĩu": 3637,
      "khảo": 3638,
      "Tháng": 3639,
      "Ste": 3640,
      "bén": 3641,
      "chập": 3642,
      "Hứa": 3643,
      "hãnh": 3644,
      "ướn": 3645,
      "tít": 3646,
      "điển": 3647,
      "mập": 3648,
      "mênh": 3649,
      "hắt": 3650,
      "gay": 3651,
      "đua": 3652,
      "ky": 3653,
      "béo": 3654,
      "đẫm": 3655,
      "hoạ": 3656,
      "nhếch": 3657,
      "khoe": 3658,
      "rạp": 3659,
      "kẽ": 3660,
      "mòn": 3661,
      "thong": 3662,
      "rác": 3663,
      "Tri": 3664,
      "hí": 3665,
      "Thịnh": 3666,
      "ll": 3667,
      "bơ": 3668,
      "bỉ": 3669,
      "Mùi": 3670,
      "Ngụy": 3671,
      "bom": 3672,
      "sấm": 3673,
      "ninh": 3674,
      "nốt": 3675,
      "Phổ": 3676,
      "nhẹn": 3677,
      "nàn": 3678,
      "Ru": 3679,
      "dẫu": 3680,
      "đờ": 3681,
      "Tin": 3682,
      "củi": 3683,
      "Dứt": 3684,
      "Hàm": 3685,
      "vứt": 3686,
      "ngấm": 3687,
      "Me": 3688,
      "bịnh": 3689,
      "Cánh": 3690,
      "đàm": 3691,
      "tanh": 3692,
      "mớ": 3693,
      "tải": 3694,
      "Đơn": 3695,
      "lẽo": 3696,
      "Khuê": 3697,
      "xế": 3698,
      "dán": 3699,
      "Ki": 3700,
      "xiết": 3701,
      "khấu": 3702,
      "27": 3703,
      "Thổ": 3704,
      "bạt": 3705,
      "mốt": 3706,
      "đò": 3707,
      "Cực": 3708,
      "TR": 3709,
      "!...": 3710,
      "Ngoại": 3711,
      "Lau": 3712,
      "hãm": 3713,
      "đục": 3714,
      "nhè": 3715,
      "voi": 3716,
      "Doãn": 3717,
      "đỗ": 3718,
      "vạch": 3719,
      "trinh": 3720,
      "ci": 3721,
      "mại": 3722,
      "vái": 3723,
      "ngành": 3724,
      "Thiền": 3725,
      "phế": 3726,
      "soái": 3727,
      "hiên": 3728,
      "Riêng": 3729,
      "san": 3730,
      "phắt": 3731,
      "lội": 3732,
      "lót": 3733,
      "Chết": 3734,
      "lượn": 3735,
      "Can": 3736,
      "nếp": 3737,
      "bồn": 3738,
      "bùn": 3739,
      "gáy": 3740,
      "Chờ": 3741,
      "Lực": 3742,
      "điệt": 3743,
      "móng": 3744,
      "rảnh": 3745,
      "Tuyên": 3746,
      "nản": 3747,
      "ợm": 3748,
      "rầm": 3749,
      "sực": 3750,
      "đợt": 3751,
      "phỏng": 3752,
      "kì": 3753,
      "Viện": 3754,
      "Lạt": 3755,
      "vầy": 3756,
      "mẻ": 3757,
      "Chúc": 3758,
      "quotAnh": 3759,
      "tồi": 3760,
      "ny": 3761,
      "Hết": 3762,
      "phiêu": 3763,
      "ướm": 3764,
      "ựt": 3765,
      "Ju": 3766,
      "giáng": 3767,
      "đắn": 3768,
      "quotKhông": 3769,
      "Lượng": 3770,
      "mổ": 3771,
      "ườm": 3772,
      "nhấn": 3773,
      "Tết": 3774,
      "chèo": 3775,
      "rạng": 3776,
      "nồi": 3777,
      "rụt": 3778,
      "lon": 3779,
      "Dường": 3780,
      "vặn": 3781,
      "bỏng": 3782,
      "bẻ": 3783,
      "thâu": 3784,
      "Mời": 3785,
      "Tội": 3786,
      "Hanni": 3787,
      "Nhan": 3788,
      "Mãi": 3789,
      "ell": 3790,
      "vớ": 3791,
      "nghênh": 3792,
      "đãng": 3793,
      "Ngạn": 3794,
      "Hannibal": 3795,
      "đạc": 3796,
      "nón": 3797,
      "phàm": 3798,
      "lường": 3799,
      "Liêu": 3800,
      "Hiển": 3801,
      "der": 3802,
      "nướng": 3803,
      "lợn": 3804,
      "ròng": 3805,
      "Hãn": 3806,
      "xíu": 3807,
      "vẩn": 3808,
      "đậm": 3809,
      "50": 3810,
      "nhợt": 3811,
      "Doanh": 3812,
      "mầy": 3813,
      "Ôn": 3814,
      "Wil": 3815,
      "bẫy": 3816,
      "đoan": 3817,
      "cợt": 3818,
      "nấp": 3819,
      "phơi": 3820,
      "Je": 3821,
      "củ": 3822,
      "đẳng": 3823,
      "nít": 3824,
      "Char": 3825,
      "thuế": 3826,
      "Đời": 3827,
      "Bob": 3828,
      "ráng": 3829,
      "Bữa": 3830,
      "lắp": 3831,
      "dàn": 3832,
      "muối": 3833,
      "lẫy": 3834,
      "ngán": 3835,
      "ấng": 3836,
      "nắp": 3837,
      "lừng": 3838,
      "rành": 3839,
      "trạm": 3840,
      "heo": 3841,
      "chát": 3842,
      "pa": 3843,
      "gon": 3844,
      "mợ": 3845,
      "Hoan": 3846,
      "khoăn": 3847,
      "cháo": 3848,
      "Ty": 3849,
      "hân": 3850,
      "nhai": 3851,
      "Hộ": 3852,
      "thím": 3853,
      "Liệu": 3854,
      "đẽ": 3855,
      "kiều": 3856,
      "nhung": 3857,
      "vắt": 3858,
      "Ngưu": 3859,
      "băn": 3860,
      "Se": 3861,
      "ngoái": 3862,
      "trộn": 3863,
      "búa": 3864,
      "quầy": 3865,
      "đùng": 3866,
      "Tế": 3867,
      "hốc": 3868,
      "Tạng": 3869,
      "thiêng": 3870,
      "thự": 3871,
      "chật": 3872,
      "mị": 3873,
      "Nhậm": 3874,
      "dơ": 3875,
      "73": 3876,
      "phào": 3877,
      "mầu": 3878,
      "lóc": 3879,
      "ranh": 3880,
      "rủa": 3881,
      "hờ": 3882,
      "Cửa": 3883,
      "dìu": 3884,
      "han": 3885,
      "lọ": 3886,
      "kí": 3887,
      "rụng": 3888,
      "nạt": 3889,
      "vé": 3890,
      "phiếu": 3891,
      "nhứt": 3892,
      "khơi": 3893,
      "gián": 3894,
      "Trà": 3895,
      "vù": 3896,
      "Trận": 3897,
      "tuyển": 3898,
      "xảo": 3899,
      "chau": 3900,
      "Mo": 3901,
      "Ưng": 3902,
      "tản": 3903,
      "nêu": 3904,
      "Đàm": 3905,
      "chận": 3906,
      "khao": 3907,
      "lửng": 3908,
      "cước": 3909,
      "nhô": 3910,
      "súc": 3911,
      "câm": 3912,
      "vụn": 3913,
      "Bàng": 3914,
      "amp79": 3915,
      "ỡi": 3916,
      "nút": 3917,
      "ord": 3918,
      "lẩn": 3919,
      "khoang": 3920,
      "New": 3921,
      "khoảnh": 3922,
      "Sam": 3923,
      "Út": 3924,
      "Giám": 3925,
      "Thỉnh": 3926,
      "vo": 3927,
      "21": 3928,
      "rét": 3929,
      "dê": 3930,
      "Đứa": 3931,
      "mạ": 3932,
      "Nhỏ": 3933,
      "Lễ": 3934,
      "No": 3935,
      "ngóng": 3936,
      "láo": 3937,
      "thềm": 3938,
      "váy": 3939,
      "mé": 3940,
      "que": 3941,
      "ngớt": 3942,
      "In": 3943,
      "hoạn": 3944,
      "khốc": 3945,
      "Dật": 3946,
      "rỗng": 3947,
      "199": 3948,
      "nhược": 3949,
      "Bí": 3950,
      "thêu": 3951,
      "Nô": 3952,
      "bấm": 3953,
      "Trưởng": 3954,
      "Hợp": 3955,
      "lạt": 3956,
      "rồ": 3957,
      "nhét": 3958,
      "thoái": 3959,
      "thiêu": 3960,
      "Bóng": 3961,
      "Muội": 3962,
      "ễm": 3963,
      "sét": 3964,
      "hao": 3965,
      "chồm": 3966,
      "Chín": 3967,
      "chồn": 3968,
      "phẳng": 3969,
      "Sanh": 3970,
      "trỏ": 3971,
      "Vài": 3972,
      "choáng": 3973,
      "cối": 3974,
      "Lát": 3975,
      "đúc": 3976,
      "Jan": 3977,
      "cằm": 3978,
      "kẻo": 3979,
      "cy": 3980,
      "xóa": 3981,
      "ngô": 3982,
      "Bi": 3983,
      "chạp": 3984,
      "vạt": 3985,
      "thắp": 3986,
      "Hermi": 3987,
      "ròm": 3988,
      "khống": 3989,
      "Đưa": 3990,
      "ts": 3991,
      "Hermione": 3992,
      "rầy": 3993,
      "he": 3994,
      "bừa": 3995,
      "Liêm": 3996,
      "gìn": 3997,
      "trượt": 3998,
      "quật": 3999,
      "Lấy": 4000,
      "Nghệ": 4001,
      "toa": 4002,
      "ose": 4003,
      "sắm": 4004,
      "nộp": 4005,
      "Alex": 4006,
      "ngời": 4007,
      "nhấp": 4008,
      "khùng": 4009,
      "mâu": 4010,
      "bọt": 4011,
      "nao": 4012,
      "Eli": 4013,
      "Khuyết": 4014,
      "buốt": 4015,
      "nhánh": 4016,
      "Coi": 4017,
      "táng": 4018,
      "ngửi": 4019,
      "Be": 4020,
      "Gu": 4021,
      "điêu": 4022,
      "côn": 4023,
      "phiến": 4024,
      "Gặp": 4025,
      "26": 4026,
      "El": 4027,
      "Bành": 4028,
      "Chừng": 4029,
      "Trấn": 4030,
      "thuẫn": 4031,
      "Xa": 4032,
      "Tớ": 4033,
      "Giác": 4034,
      "Lư": 4035,
      "chà": 4036,
      "hãng": 4037,
      "tuấn": 4038,
      "23": 4039,
      "uổng": 4040,
      "láng": 4041,
      "chộp": 4042,
      "chuồng": 4043,
      "khiêng": 4044,
      "bẩy": 4045,
      "Ký": 4046,
      "quăng": 4047,
      "khàn": 4048,
      "hắng": 4049,
      "Phỉ": 4050,
      "giương": 4051,
      "aul": 4052,
      "Tỉnh": 4053,
      "tuệ": 4054,
      "Mon": 4055,
      "ghe": 4056,
      "sừng": 4057,
      "quẩn": 4058,
      "Mary": 4059,
      "lì": 4060,
      "xả": 4061,
      "Đợi": 4062,
      "Hoắc": 4063,
      "mo": 4064,
      "chè": 4065,
      "chuộc": 4066,
      "gũi": 4067,
      "trật": 4068,
      "vich": 4069,
      "nguyệt": 4070,
      "Mạt": 4071,
      "bert": 4072,
      "tề": 4073,
      "luyến": 4074,
      "Mãn": 4075,
      "mộc": 4076,
      "cưng": 4077,
      "Chứ": 4078,
      "đọng": 4079,
      "Xà": 4080,
      "Hoà": 4081,
      "Dã": 4082,
      "giếng": 4083,
      "Phá": 4084,
      "Tức": 4085,
      "Diêu": 4086,
      "Dược": 4087,
      "rè": 4088,
      "Vọng": 4089,
      "viếng": 4090,
      "thoả": 4091,
      "by": 4092,
      "phun": 4093,
      "mâm": 4094,
      "ẻm": 4095,
      "nhì": 4096,
      "Sta": 4097,
      "Bắt": 4098,
      "vùi": 4099,
      "vịt": 4100,
      "lett": 4101,
      "lả": 4102,
      "mím": 4103,
      "nhóc": 4104,
      "Hoặc": 4105,
      "gả": 4106,
      "hằn": 4107,
      "Nhung": 4108,
      "Trạch": 4109,
      "yết": 4110,
      "ềng": 4111,
      "thào": 4112,
      "nguyền": 4113,
      "nến": 4114,
      "chước": 4115,
      "cáu": 4116,
      "Chà": 4117,
      "ward": 4118,
      "dang": 4119,
      "sủa": 4120,
      "cụt": 4121,
      "sưởi": 4122,
      "léo": 4123,
      "Diêm": 4124,
      "mướn": 4125,
      "chao": 4126,
      "hăm": 4127,
      "Thậm": 4128,
      "Trùng": 4129,
      "lóe": 4130,
      "Dan": 4131,
      "ble": 4132,
      "Thức": 4133,
      "khiêm": 4134,
      "Hen": 4135,
      "uý": 4136,
      "Ga": 4137,
      "Đề": 4138,
      "Nhơn": 4139,
      "đai": 4140,
      "ớng": 4141,
      "hú": 4142,
      "chậu": 4143,
      "phước": 4144,
      "thây": 4145,
      "Kết": 4146,
      "PH": 4147,
      "Mật": 4148,
      "Sắc": 4149,
      "gân": 4150,
      "od": 4151,
      "trố": 4152,
      "lùn": 4153,
      "Giáp": 4154,
      "Chả": 4155,
      "dời": 4156,
      "Vấn": 4157,
      "Vụ": 4158,
      "bặt": 4159,
      "Chỗ": 4160,
      "Ấy": 4161,
      "lặp": 4162,
      "Phiên": 4163,
      "gieo": 4164,
      "mỡ": 4165,
      "cuả": 4166,
      "chuỗi": 4167,
      "rì": 4168,
      "Mậu": 4169,
      "Mẫu": 4170,
      "Khúc": 4171,
      "hoành": 4172,
      "Triết": 4173,
      "nhiễm": 4174,
      "Mây": 4175,
      "Ngôn": 4176,
      "trắc": 4177,
      "đuốc": 4178,
      "carlett": 4179,
      "Huyên": 4180,
      "nghiệt": 4181,
      "Sợ": 4182,
      "Phước": 4183,
      "nhàn": 4184,
      "lề": 4185,
      "rải": 4186,
      "vay": 4187,
      "Giải": 4188,
      "sảng": 4189,
      "Luật": 4190,
      "Ít": 4191,
      "quỉ": 4192,
      "sưa": 4193,
      "kẹp": 4194,
      "Ngạc": 4195,
      "Nghị": 4196,
      "Bẩm": 4197,
      "Cẩn": 4198,
      "nóc": 4199,
      "lie": 4200,
      "cống": 4201,
      "vụng": 4202,
      "Tồn": 4203,
      "chót": 4204,
      "mỉa": 4205,
      "Đất": 4206,
      "rưỡi": 4207,
      "uyển": 4208,
      "tủi": 4209,
      "nhốt": 4210,
      "lim": 4211,
      "Diên": 4212,
      "ngoãn": 4213,
      "22": 4214,
      "ngớ": 4215,
      "hớn": 4216,
      "tủm": 4217,
      "Tim": 4218,
      "nếm": 4219,
      "nhói": 4220,
      "Khiêm": 4221,
      "uỷ": 4222,
      "cài": 4223,
      "Sứ": 4224,
      "ráo": 4225,
      "ov": 4226,
      "tết": 4227,
      "Hận": 4228,
      "ngư": 4229,
      "Tuyền": 4230,
      "chì": 4231,
      "Bước": 4232,
      "Lên": 4233,
      "Lạp": 4234,
      "Sang": 4235,
      "tỉm": 4236,
      "kẹt": 4237,
      "rô": 4238,
      "mẩu": 4239,
      "Lao": 4240,
      "sùng": 4241,
      "thắm": 4242,
      "Mê": 4243,
      "Xong": 4244,
      "bóc": 4245,
      "sập": 4246,
      "ịu": 4247,
      "Khoảng": 4248,
      "Man": 4249,
      "ria": 4250,
      "đắt": 4251,
      "nạ": 4252,
      "thẻ": 4253,
      "Sống": 4254,
      "nệ": 4255,
      "lịnh": 4256,
      "tấc": 4257,
      "sh": 4258,
      "khâm": 4259,
      "trọc": 4260,
      "trơn": 4261,
      "nhướng": 4262,
      "xăm": 4263,
      "vóc": 4264,
      "ina": 4265,
      "Nho": 4266,
      "khuyết": 4267,
      "cọp": 4268,
      "Khê": 4269,
      "kìm": 4270,
      "quất": 4271,
      "He": 4272,
      "Mưa": 4273,
      "Pe": 4274,
      "sặc": 4275,
      "ku": 4276,
      "rỗi": 4277,
      "Eliza": 4278,
      "tuỳ": 4279,
      "vướng": 4280,
      "suất": 4281,
      "váng": 4282,
      "40": 4283,
      "hẻm": 4284,
      "ten": 4285,
      "Tang": 4286,
      "vầng": 4287,
      "măng": 4288,
      "trục": 4289,
      "trích": 4290,
      "mon": 4291,
      "túm": 4292,
      "Thuý": 4293,
      "Hiến": 4294,
      "VN": 4295,
      "Quản": 4296,
      "xẻ": 4297,
      "Sẽ": 4298,
      "pp": 4299,
      "khăng": 4300,
      "hụt": 4301,
      "núp": 4302,
      "cày": 4303,
      "Lạ": 4304,
      "nhõm": 4305,
      "chải": 4306,
      "rưng": 4307,
      "buồm": 4308,
      "mải": 4309,
      "kẹo": 4310,
      "cửu": 4311,
      "Bệnh": 4312,
      "bướng": 4313,
      "nhó": 4314,
      "Ngao": 4315,
      "Ber": 4316,
      "ớc": 4317,
      "vành": 4318,
      "đật": 4319,
      "Viết": 4320,
      "ngà": 4321,
      "Dực": 4322,
      "kô": 4323,
      "Quí": 4324,
      "Bạt": 4325,
      "chiêm": 4326,
      "Ứng": 4327,
      "ngạt": 4328,
      "our": 4329,
      "nép": 4330,
      "Hỏi": 4331,
      "ork": 4332,
      "phò": 4333,
      "Lãm": 4334,
      "ler": 4335,
      "Ngự": 4336,
      "gấu": 4337,
      "cò": 4338,
      "cào": 4339,
      "phồng": 4340,
      "ngàng": 4341,
      "ựu": 4342,
      "tiềm": 4343,
      "lư": 4344,
      "nhúc": 4345,
      "bầm": 4346,
      "giỏ": 4347,
      "28": 4348,
      "ẽn": 4349,
      "Túc": 4350,
      "lỏng": 4351,
      "Thể": 4352,
      "khan": 4353,
      "cẩm": 4354,
      "Geo": 4355,
      "vin": 4356,
      "rình": 4357,
      "trẫm": 4358,
      "nhẽ": 4359,
      "trổ": 4360,
      "hiu": 4361,
      "ểu": 4362,
      "Bổn": 4363,
      "ngụm": 4364,
      "Điểm": 4365,
      "khoai": 4366,
      "hực": 4367,
      "com": 4368,
      "hủ": 4369,
      "Scarlett": 4370,
      "đốn": 4371,
      "Phí": 4372,
      "rèm": 4373,
      "rơm": 4374,
      "--------": 4375,
      "tấu": 4376,
      "kiềm": 4377,
      "bả": 4378,
      "Lịch": 4379,
      "Khởi": 4380,
      "loa": 4381,
      "xăng": 4382,
      "rập": 4383,
      "vía": 4384,
      "nghiền": 4385,
      "rủi": 4386,
      "Giáng": 4387,
      "tuột": 4388,
      "Quay": 4389,
      "hỉ": 4390,
      "hòng": 4391,
      "khuyến": 4392,
      "tởm": 4393,
      "beth": 4394,
      "ngoảnh": 4395,
      "đính": 4396,
      "siết": 4397,
      "thót": 4398,
      "198": 4399,
      "Tuân": 4400,
      "đố": 4401,
      "Re": 4402,
      "?...": 4403,
      "kov": 4404,
      "bướm": 4405,
      "therine": 4406,
      "trướng": 4407,
      "quắc": 4408,
      "day": 4409,
      "ngẫu": 4410,
      "rệt": 4411,
      "xào": 4412,
      "cựu": 4413,
      "lảo": 4414,
      "xắn": 4415,
      "Cốt": 4416,
      "chuối": 4417,
      "Bar": 4418,
      "um": 4419,
      "hổn": 4420,
      "Phàn": 4421,
      "lấn": 4422,
      "chốt": 4423,
      "nhựa": 4424,
      "Mong": 4425,
      "giỡn": 4426,
      "bênh": 4427,
      "ơng": 4428,
      "ngừ": 4429,
      "Geor": 4430,
      "amp273": 4431,
      "dùm": 4432,
      "tôm": 4433,
      "Khôn": 4434,
      "quotCó": 4435,
      "hột": 4436,
      "Cuồng": 4437,
      "gấm": 4438,
      "vó": 4439,
      "Huống": 4440,
      "lìa": 4441,
      "nài": 4442,
      "đóa": 4443,
      "Ben": 4444,
      "tuốt": 4445,
      "chầu": 4446,
      "xưởng": 4447,
      "độn": 4448,
      "ỉa": 4449,
      "nhượng": 4450,
      "ngùng": 4451,
      "Thuyền": 4452,
      "dai": 4453,
      "đỗi": 4454,
      "Cư": 4455,
      "Ác": 4456,
      "lân": 4457,
      "thỉ": 4458,
      "hển": 4459,
      "dầy": 4460,
      "cạo": 4461,
      "Nụ": 4462,
      "chan": 4463,
      "36": 4464,
      "trữ": 4465,
      "dạn": 4466,
      "Xưa": 4467,
      "lốc": 4468,
      "res": 4469,
      "lảng": 4470,
      "chướng": 4471,
      "bôi": 4472,
      "xơ": 4473,
      "amp224": 4474,
      "đày": 4475,
      "rứt": 4476,
      "nhũ": 4477,
      "khiếu": 4478,
      "Ngã": 4479,
      "Nhận": 4480,
      "xui": 4481,
      "phảng": 4482,
      "Truyện": 4483,
      "Ngộ": 4484,
      "lũng": 4485,
      "Mệnh": 4486,
      "tơi": 4487,
      "kem": 4488,
      "đanh": 4489,
      "Hol": 4490,
      "giễu": 4491,
      "vãng": 4492,
      "tựu": 4493,
      "hưng": 4494,
      "khom": 4495,
      "rèn": 4496,
      "thán": 4497,
      "quạ": 4498,
      "xoáy": 4499,
      "Dần": 4500,
      "dừa": 4501,
      "hòm": 4502,
      "lở": 4503,
      "ngỏ": 4504,
      "Thiếp": 4505,
      "Trừ": 4506,
      "triệt": 4507,
      "mảng": 4508,
      "Đảo": 4509,
      "phường": 4510,
      "Đội": 4511,
      "Tẩu": 4512,
      "Tung": 4513,
      "cộ": 4514,
      "khán": 4515,
      "vén": 4516,
      "Giê": 4517,
      "Bính": 4518,
      "Tuần": 4519,
      "Nỗi": 4520,
      "Ủa": 4521,
      "rễ": 4522,
      "Nan": 4523,
      "ino": 4524,
      "Đặc": 4525,
      "tột": 4526,
      "khoanh": 4527,
      "!!": 4528,
      "vẳng": 4529,
      "Hướng": 4530,
      "Elizabeth": 4531,
      "Tỷ": 4532,
      "chực": 4533,
      "níu": 4534,
      "xổ": 4535,
      "thung": 4536,
      "Túy": 4537,
      "tía": 4538,
      "choạng": 4539,
      "ƯƠ": 4540,
      "rot": 4541,
      "Alexand": 4542,
      "thính": 4543,
      "Gương": 4544,
      "po": 4545,
      "Tát": 4546,
      "xài": 4547,
      "Phố": 4548,
      "chùm": 4549,
      "Bức": 4550,
      "ins": 4551,
      "Thuyên": 4552,
      "Am": 4553,
      "tion": 4554,
      "Im": 4555,
      "bời": 4556,
      "Ngạo": 4557,
      "rie": 4558,
      "doạ": 4559,
      "Ros": 4560,
      "Edward": 4561,
      "giầy": 4562,
      "ngủi": 4563,
      "òe": 4564,
      "dưa": 4565,
      "ya": 4566,
      "Ngữ": 4567,
      "Khiết": 4568,
      "Chiêm": 4569,
      "Tom": 4570,
      "rong": 4571,
      "rượt": 4572,
      "rảo": 4573,
      "KH": 4574,
      "Quyết": 4575,
      "Khổ": 4576,
      "Gra": 4577,
      "100": 4578,
      "Sh": 4579,
      "Quận": 4580,
      "sưng": 4581,
      "Binh": 4582,
      "Paul": 4583,
      "sục": 4584,
      "Val": 4585,
      "bành": 4586,
      "ill": 4587,
      "luống": 4588,
      "Chồng": 4589,
      "gòn": 4590,
      "Đôn": 4591,
      "Ngôi": 4592,
      "Năng": 4593,
      "Phân": 4594,
      "vid": 4595,
      "Khoan": 4596,
      "côi": 4597,
      "Tóc": 4598,
      "cua": 4599,
      "dòm": 4600,
      "ini": 4601,
      "rộ": 4602,
      "nhạy": 4603,
      "Lũ": 4604,
      "cằn": 4605,
      "Té": 4606,
      "tag": 4607,
      "York": 4608,
      "Phiêu": 4609,
      "Uống": 4610,
      "khẩy": 4611,
      "thiểu": 4612,
      "Vẻ": 4613,
      "hổng": 4614,
      "nết": 4615,
      "Khí": 4616,
      "lle": 4617,
      "õa": 4618,
      "ona": 4619,
      "thoạt": 4620,
      "nhe": 4621,
      "Lớn": 4622,
      "Lou": 4623,
      "lệch": 4624,
      "rương": 4625,
      "Tiệp": 4626,
      "chủng": 4627,
      "nai": 4628,
      "Jam": 4629,
      "Chris": 4630,
      "quotEm": 4631,
      "cảng": 4632,
      "Giống": 4633,
      "And": 4634,
      "Ali": 4635,
      "nại": 4636,
      "vòi": 4637,
      "vần": 4638,
      "dải": 4639,
      "mặn": 4640,
      "Bần": 4641,
      "đặn": 4642,
      "Thêm": 4643,
      "sỉ": 4644,
      "chùi": 4645,
      "ss": 4646,
      "Thoại": 4647,
      "Tháp": 4648,
      "dỗi": 4649,
      "nẩy": 4650,
      "Truy": 4651,
      "Trụ": 4652,
      "hoả": 4653,
      "giựt": 4654,
      "giặt": 4655,
      "dặt": 4656,
      "Emma": 4657,
      "yến": 4658,
      "rĩ": 4659,
      "Gì": 4660,
      "ngói": 4661,
      "elle": 4662,
      "UY": 4663,
      "thon": 4664,
      "líu": 4665,
      "chuồn": 4666,
      "Tác": 4667,
      "tể": 4668,
      "ari": 4669,
      "Go": 4670,
      "Tiễn": 4671,
      "oang": 4672,
      "Tầm": 4673,
      "chờn": 4674,
      "lứa": 4675,
      "nhẩm": 4676,
      "Vãn": 4677,
      "dore": 4678,
      "lẻn": 4679,
      "29": 4680,
      "Hiệu": 4681,
      "wa": 4682,
      "diễm": 4683,
      "Dum": 4684,
      "nhả": 4685,
      "Hài": 4686,
      "gãi": 4687,
      "Lạy": 4688,
      "ré": 4689,
      "miệt": 4690,
      "lượm": 4691,
      "dd": 4692,
      "nhí": 4693,
      "Chớ": 4694,
      "Già": 4695,
      "45": 4696,
      "Khuôn": 4697,
      "còi": 4698,
      "tròng": 4699,
      "Tý": 4700,
      ".(": 4701,
      "ngùi": 4702,
      "sỹ": 4703,
      "ruồi": 4704,
      "lây": 4705,
      "Mang": 4706,
      "vệt": 4707,
      "chuyền": 4708,
      "giăng": 4709,
      "lộc": 4710,
      "Nhâm": 4711,
      "xuồng": 4712,
      "Langdon": 4713,
      "Hơi": 4714,
      "Tìm": 4715,
      "càn": 4716,
      "lầy": 4717,
      "rống": 4718,
      "bịa": 4719,
      "Mc": 4720,
      "dượng": 4721,
      "nhiễu": 4722,
      "Gri": 4723,
      "cúc": 4724,
      "loang": 4725,
      "Ken": 4726,
      "nhạo": 4727,
      "Cang": 4728,
      "sào": 4729,
      "thắn": 4730,
      "quậy": 4731,
      "Laura": 4732,
      "Của": 4733,
      "Per": 4734,
      "Khâm": 4735,
      "Trưng": 4736,
      "IA": 4737,
      "Nửa": 4738,
      "dẫm": 4739,
      "rọi": 4740,
      "toả": 4741,
      "Chữ": 4742,
      "thoắt": 4743,
      "ềnh": 4744,
      "Trị": 4745,
      "nhậu": 4746,
      "khất": 4747,
      "Hoành": 4748,
      "lấm": 4749,
      "Truyền": 4750,
      "Tùy": 4751,
      "Jose": 4752,
      "lóng": 4753,
      "Tấm": 4754,
      "chổ": 4755,
      "ƯƠNG": 4756,
      "hãn": 4757,
      "xúm": 4758,
      "tần": 4759,
      "Đốc": 4760,
      "khờ": 4761,
      "lười": 4762,
      "Lào": 4763,
      "quotHạng": 4764,
      "Thuỷ": 4765,
      "Dumble": 4766,
      "bâng": 4767,
      "Miệng": 4768,
      "bùa": 4769,
      "ort": 4770,
      "Dumbledore": 4771,
      "quì": 4772,
      "phăng": 4773,
      "Thiều": 4774,
      "Trại": 4775,
      "ngặt": 4776,
      "Catherine": 4777,
      "ette": 4778,
      "tị": 4779,
      "thạo": 4780,
      "mắm": 4781,
      "bịch": 4782,
      "nhoáng": 4783,
      "Thù": 4784,
      "mịch": 4785,
      "Bối": 4786,
      "tợn": 4787,
      "giòng": 4788,
      "bới": 4789,
      "sệt": 4790,
      "bền": 4791,
      "phơ": 4792,
      "Thử": 4793,
      "Giai": 4794,
      "sỏi": 4795,
      "III": 4796,
      "mạt": 4797,
      "........": 4798,
      "Bán": 4799,
      "Sâm": 4800,
      "lem": 4801,
      "quotCon": 4802,
      "vòm": 4803,
      "hưu": 4804,
      "chóc": 4805,
      "chọi": 4806,
      "mẫn": 4807,
      "lọc": 4808,
      "Giản": 4809,
      "Cứu": 4810,
      "Ku": 4811,
      "quàng": 4812,
      "En": 4813,
      "ed": 4814,
      "ệch": 4815,
      "mài": 4816,
      "lữ": 4817,
      "háo": 4818,
      "nguôi": 4819,
      "Tàn": 4820,
      "trù": 4821,
      "tì": 4822,
      "nệm": 4823,
      "34": 4824,
      "dge": 4825,
      "liêng": 4826,
      "ngụy": 4827,
      "Máu": 4828,
      "gt": 4829,
      "chưng": 4830,
      "sòng": 4831,
      "Cơn": 4832,
      "Bỏ": 4833,
      "pin": 4834,
      "Hoạt": 4835,
      "nứt": 4836,
      "Thú": 4837,
      "Ad": 4838,
      "loan": 4839,
      "tagnan": 4840,
      "Ang": 4841,
      "Mal": 4842,
      "ngao": 4843,
      "Khưu": 4844,
      "huyên": 4845,
      "Biệt": 4846,
      "Hoá": 4847,
      "tý": 4848,
      "rạch": 4849,
      "liếm": 4850,
      "QU": 4851,
      "xấp": 4852,
      "of": 4853,
      "Mở": 4854,
      "mách": 4855,
      "Oli": 4856,
      "mùng": 4857,
      "hoi": 4858,
      "Tham": 4859,
      "Mác": 4860,
      "dép": 4861,
      "thừng": 4862,
      "rao": 4863,
      "đoản": 4864,
      "Thay": 4865,
      "nghía": 4866,
      "Va": 4867,
      "Tranh": 4868,
      "Xã": 4869,
      "phượng": 4870,
      "kèn": 4871,
      "lụy": 4872,
      "chael": 4873,
      "ngton": 4874,
      "Robert": 4875,
      "xít": 4876,
      "gen": 4877,
      "44": 4878,
      "Chợ": 4879,
      "Khuyên": 4880,
      "ragon": 4881,
      "bô": 4882,
      "võng": 4883,
      "Maria": 4884,
      "lững": 4885,
      "héo": 4886,
      "xốc": 4887,
      "phẫu": 4888,
      "Niệm": 4889,
      "cựa": 4890,
      "ore": 4891,
      "hoãn": 4892,
      "lè": 4893,
      "thục": 4894,
      "sẹo": 4895,
      "phô": 4896,
      "biếu": 4897,
      "Michael": 4898,
      "khóe": 4899,
      "Ví": 4900,
      "đèo": 4901,
      "cẳng": 4902,
      "old": 4903,
      "amp789": 4904,
      "Gre": 4905,
      "Tai": 4906,
      "nguội": 4907,
      "quotÔng": 4908,
      "Pha": 4909,
      "bứt": 4910,
      "nấm": 4911,
      "Chư": 4912,
      "rền": 4913,
      "Oa": 4914,
      "Tui": 4915,
      "eri": 4916,
      "Đỉnh": 4917,
      "hộc": 4918,
      "lậu": 4919,
      "Anna": 4920,
      "Ngọn": 4921,
      "Chạy": 4922,
      "trẻo": 4923,
      "Cặp": 4924,
      "Từng": 4925,
      "Đắc": 4926,
      "Bạc": 4927,
      "vớt": 4928,
      "vũng": 4929,
      "đút": 4930,
      "cuốc": 4931,
      "loạng": 4932,
      "luồn": 4933,
      "Artagnan": 4934,
      "chần": 4935,
      "ron": 4936,
      "quotTa": 4937,
      "vơi": 4938,
      "oải": 4939,
      "Thoạt": 4940,
      "Nhẫn": 4941,
      "nhàu": 4942,
      "Lửa": 4943,
      "xéo": 4944,
      "nhuộm": 4945,
      "lút": 4946,
      "Ẩn": 4947,
      "Nét": 4948,
      "đốm": 4949,
      "trảo": 4950,
      "búng": 4951,
      "Ke": 4952,
      "nịnh": 4953,
      "Kìa": 4954,
      "Tốn": 4955,
      "bạ": 4956,
      "Cục": 4957,
      "Thiệt": 4958,
      "nghen": 4959,
      "Tháo": 4960,
      "Nguyện": 4961,
      "kíp": 4962,
      "hững": 4963,
      "tie": 4964,
      "Qui": 4965,
      "Ngược": 4966,
      "nham": 4967,
      "khuynh": 4968,
      "đam": 4969,
      "thóc": 4970,
      "nỗ": 4971,
      "amp790": 4972,
      "Trở": 4973,
      "Joseph": 4974,
      "60": 4975,
      "riết": 4976,
      "bìa": 4977,
      "ld": 4978,
      "phác": 4979,
      "land": 4980,
      "Poi": 4981,
      "vá": 4982,
      "nhang": 4983,
      "giò": 4984,
      "Eragon": 4985,
      "cút": 4986,
      "amp787": 4987,
      "Mơ": 4988,
      "lảnh": 4989,
      "két": 4990,
      "Tượng": 4991,
      "chay": 4992,
      "lị": 4993,
      "Đậu": 4994,
      "Ngàn": 4995,
      "khua": 4996,
      "Phán": 4997,
      "Khâu": 4998,
      "AN": 4999,
      "bri": 5000,
      "kiêm": 5001,
      "fi": 5002,
      "tó": 5003,
      "Khó": 5004,
      "Niên": 5005,
      "củng": 5006,
      "nhao": 5007,
      "chuộng": 5008,
      "mồng": 5009,
      "dăm": 5010,
      "Ab": 5011,
      "ụm": 5012,
      "Biển": 5013,
      "Ct": 5014,
      "hót": 5015,
      "huỷ": 5016,
      "bói": 5017,
      "Huyện": 5018,
      "Cử": 5019,
      "tạt": 5020,
      "ượu": 5021,
      "thos": 5022,
      "193": 5023,
      "rê": 5024,
      "Áo": 5025,
      "dạt": 5026,
      "des": 5027,
      "đực": 5028,
      "per": 5029,
      "tor": 5030,
      "cuồn": 5031,
      "Jean": 5032,
      "xộn": 5033,
      "Poirot": 5034,
      "trĩu": 5035,
      "Gọi": 5036,
      "ngoạn": 5037,
      "Tiếc": 5038,
      "vấp": 5039,
      "rang": 5040,
      "Sầu": 5041,
      "xôn": 5042,
      "nghẹt": 5043,
      "banh": 5044,
      "mịn": 5045,
      "thừ": 5046,
      "xki": 5047,
      "Tước": 5048,
      "We": 5049,
      "bĩu": 5050,
      "trịnh": 5051,
      "ella": 5052,
      "nhộn": 5053,
      "Vận": 5054,
      "quơ": 5055,
      "Mos": 5056,
      "tuồng": 5057,
      "liam": 5058,
      "lịa": 5059,
      "náy": 5060,
      "Tuổi": 5061,
      "Ren": 5062,
      "nấc": 5063,
      "đấng": 5064,
      "chĩa": 5065,
      "quotNếu": 5066,
      "Kiện": 5067,
      "George": 5068,
      "búp": 5069,
      "David": 5070,
      "tạc": 5071,
      "Mor": 5072,
      "dột": 5073,
      "Sản": 5074,
      "rát": 5075,
      "ner": 5076,
      "Stalin": 5077,
      "Thí": 5078,
      "Rượu": 5079,
      "nhảm": 5080,
      "Ivan": 5081,
      "Lá": 5082,
      "Phách": 5083,
      "gom": 5084,
      "Vật": 5085,
      "red": 5086,
      "khựng": 5087,
      "Nhanh": 5088,
      "khiết": 5089,
      "quỹ": 5090,
      "uể": 5091,
      "ger": 5092,
      "kềm": 5093,
      "méo": 5094,
      "Frank": 5095,
      "dãi": 5096,
      "tẩm": 5097,
      "lli": 5098,
      "par": 5099,
      "xỏ": 5100,
      "Khất": 5101,
      "Thâm": 5102,
      "ent": 5103,
      "cẩu": 5104,
      "Luận": 5105,
      "Xi": 5106,
      "xẩy": 5107,
      "bỉnh": 5108,
      "Bân": 5109,
      "Hách": 5110,
      "Lon": 5111,
      "hậm": 5112,
      "Mạng": 5113,
      "rai": 5114,
      "Tòng": 5115,
      "Nằm": 5116,
      "my": 5117,
      "sút": 5118,
      "tch": 5119,
      "Huân": 5120,
      "chừ": 5121,
      "thoa": 5122,
      "nhằn": 5123,
      "mít": 5124,
      "pu": 5125,
      "phở": 5126,
      "dệt": 5127,
      "sâm": 5128,
      "nhúng": 5129,
      "ett": 5130,
      "Jen": 5131,
      "Hoán": 5132,
      "mes": 5133,
      "Vàng": 5134,
      "las": 5135,
      "tiều": 5136,
      "lìm": 5137,
      "biếc": 5138,
      "hửng": 5139,
      "Đọc": 5140,
      "phổi": 5141,
      "Trăng": 5142,
      "mọn": 5143,
      "mer": 5144,
      "cộc": 5145,
      "xuẩn": 5146,
      "hớp": 5147,
      "chiên": 5148,
      "The": 5149,
      "ker": 5150,
      "zo": 5151,
      "sẫm": 5152,
      "est": 5153,
      "liệng": 5154,
      "xướng": 5155,
      "Tóm": 5156,
      "dí": 5157,
      "thẩn": 5158,
      "Hỡi": 5159,
      "Liền": 5160,
      "Po": 5161,
      "ngứa": 5162,
      "VI": 5163,
      "Hễ": 5164,
      "ngáy": 5165,
      "điếc": 5166,
      "chel": 5167,
      "Nông": 5168,
      "hớt": 5169,
      "Hinh": 5170,
      "rén": 5171,
      "Ngọ": 5172,
      "lâng": 5173,
      "ỜI": 5174,
      "Cai": 5175,
      "Dầu": 5176,
      "Cự": 5177,
      "nhơ": 5178,
      "Dẫu": 5179,
      "lườm": 5180,
      "432": 5181,
      "sành": 5182,
      "William": 5183,
      "Tịch": 5184,
      "Hẳn": 5185,
      "lù": 5186,
      "sộ": 5187,
      "túy": 5188,
      "ÔNG": 5189,
      "ngát": 5190,
      "thẫn": 5191,
      "dốt": 5192,
      "vèo": 5193,
      "ampamp": 5194,
      "Thoa": 5195,
      "fa": 5196,
      "tẻ": 5197,
      "Ton": 5198,
      "cõng": 5199,
      "oy": 5200,
      "rúc": 5201,
      "giàn": 5202,
      "Charles": 5203,
      "Pio": 5204,
      "lét": 5205,
      "Buồn": 5206,
      "1975": 5207,
      "Canh": 5208,
      "giềng": 5209,
      "Hung": 5210,
      "khớp": 5211,
      "Nhuế": 5212,
      "Camp": 5213,
      "dong": 5214,
      "rón": 5215,
      "khấn": 5216,
      "Piotr": 5217,
      "Sức": 5218,
      "chanh": 5219,
      "huệ": 5220,
      "hê": 5221,
      "xáo": 5222,
      "Bốc": 5223,
      "Gian": 5224,
      "ghép": 5225,
      "Trực": 5226,
      "ngọ": 5227,
      "phớt": 5228,
      "Quỳ": 5229,
      "Đạm": 5230,
      "Bái": 5231,
      "cọc": 5232,
      "it": 5233,
      "mĩ": 5234,
      "mác": 5235,
      "Nhãn": 5236,
      "trạc": 5237,
      "vồ": 5238,
      "rượi": 5239,
      "giãn": 5240,
      "Loại": 5241,
      "triền": 5242,
      "Hoằng": 5243,
      "Nhàn": 5244,
      "quotChúng": 5245,
      "chích": 5246,
      "Mac": 5247,
      "xó": 5248,
      "hoay": 5249,
      "Mạn": 5250,
      "Vong": 5251,
      "Louis": 5252,
      "Ngờ": 5253,
      "nhẩy": 5254,
      "khâu": 5255,
      "ashi": 5256,
      "Lặc": 5257,
      "quẻ": 5258,
      "Jes": 5259,
      "phập": 5260,
      "lố": 5261,
      "râm": 5262,
      "GI": 5263,
      "duyệt": 5264,
      "amp788": 5265,
      "ano": 5266,
      "Phái": 5267,
      "Grigo": 5268,
      "Dùng": 5269,
      "tóe": 5270,
      "xoá": 5271,
      "xỉu": 5272,
      "Don": 5273,
      "at": 5274,
      "rah": 5275,
      "khuấy": 5276,
      "tốp": 5277,
      "Xuyến": 5278,
      "chẽ": 5279,
      "Nhiệm": 5280,
      "dt": 5281,
      "mas": 5282,
      "ngửng": 5283,
      "Uông": 5284,
      "Miền": 5285,
      "gập": 5286,
      "cù": 5287,
      "Cor": 5288,
      "lom": 5289,
      "dĩa": 5290,
      "rẫy": 5291,
      "toang": 5292,
      "Đoạt": 5293,
      ".....": 5294,
      "Cáp": 5295,
      "Giết": 5296,
      "lùa": 5297,
      "ÊN": 5298,
      "Chim": 5299,
      "Mạch": 5300,
      "Tỳ": 5301,
      "réo": 5302,
      "biếng": 5303,
      "dia": 5304,
      "nách": 5305,
      "moi": 5306,
      "éc": 5307,
      "Trai": 5308,
      "vôi": 5309,
      "thỉu": 5310,
      "ghì": 5311,
      "rêu": 5312,
      "diều": 5313,
      "Soái": 5314,
      "Ước": 5315,
      "Tạm": 5316,
      "Thám": 5317,
      "nghiện": 5318,
      "ngổn": 5319,
      "tẩy": 5320,
      "zan": 5321,
      "Ầm": 5322,
      "Cá": 5323,
      "lác": 5324,
      "chéo": 5325,
      "Kiếp": 5326,
      "Xo": 5327,
      "amp432": 5328,
      "hạc": 5329,
      "giằng": 5330,
      "vun": 5331,
      "Mer": 5332,
      "quáng": 5333,
      "xúi": 5334,
      "chòi": 5335,
      "Điêu": 5336,
      "tamp": 5337,
      "Diễn": 5338,
      "tưng": 5339,
      "đệm": 5340,
      "Khoái": 5341,
      "qúa": 5342,
      "Thuốc": 5343,
      "kin": 5344,
      "thọc": 5345,
      "Grigori": 5346,
      "Xanh": 5347,
      "Suy": 5348,
      "IV": 5349,
      "cỏi": 5350,
      "dầm": 5351,
      "chùng": 5352,
      "Bến": 5353,
      "lịm": 5354,
      "quotNhưng": 5355,
      "je": 5356,
      "chừa": 5357,
      "Tòa": 5358,
      "ẻn": 5359,
      "ngầu": 5360,
      "then": 5361,
      "toi": 5362,
      "Bệ": 5363,
      "Biện": 5364,
      "taxi": 5365,
      "xoe": 5366,
      "nhũn": 5367,
      "Tâu": 5368,
      "Vú": 5369,
      "nắn": 5370,
      "khoáng": 5371,
      "Thuật": 5372,
      "Đẹp": 5373,
      "for": 5374,
      "As": 5375,
      "bích": 5376,
      "huýt": 5377,
      "xẹt": 5378,
      "ngông": 5379,
      "đềm": 5380,
      "Đỏ": 5381,
      "dào": 5382,
      "lãm": 5383,
      "nũng": 5384,
      "Jack": 5385,
      "loay": 5386,
      "Nghiệp": 5387,
      "mảy": 5388,
      "Thang": 5389,
      "vạ": 5390,
      "thảng": 5391,
      "bin": 5392,
      "ghẻ": 5393,
      "Hỷ": 5394,
      "dậm": 5395,
      "rùa": 5396,
      "Dòng": 5397,
      "phai": 5398,
      "bít": 5399,
      "Mái": 5400,
      "Máy": 5401,
      "Vốn": 5402,
      "diêm": 5403,
      "khố": 5404,
      "Andre": 5405,
      "trề": 5406,
      "trăn": 5407,
      "thớt": 5408,
      "ghẹo": 5409,
      "xuyến": 5410,
      "bệch": 5411,
      "41": 5412,
      "xiêu": 5413,
      "Đau": 5414,
      "bềnh": 5415,
      "Trắng": 5416,
      "sưu": 5417,
      "Bầu": 5418,
      "ganh": 5419,
      "nặc": 5420,
      "Thụ": 5421,
      "Rốt": 5422,
      "lỏi": 5423,
      "Chỉnh": 5424,
      "nt": 5425,
      "Nguy": 5426,
      "trầu": 5427,
      "rin": 5428,
      "ríu": 5429,
      "khà": 5430,
      "all": 5431,
      "cưa": 5432,
      "cồn": 5433,
      "Chuyến": 5434,
      "mền": 5435,
      "tụt": 5436,
      "Trẻ": 5437,
      "thụt": 5438,
      "nhện": 5439,
      "hỡi": 5440,
      "lẫm": 5441,
      "tòng": 5442,
      "trìu": 5443,
      "ẫng": 5444,
      "Nè": 5445,
      "kênh": 5446,
      "nia": 5447,
      "Sắp": 5448,
      "xâu": 5449,
      "kĩ": 5450,
      "Henry": 5451,
      "ngai": 5452,
      "Dừng": 5453,
      "Dar": 5454,
      "80": 5455,
      "khay": 5456,
      "muỗi": 5457,
      "cụm": 5458,
      "sụt": 5459,
      "dửng": 5460,
      "70": 5461,
      "st": 5462,
      "Hối": 5463,
      "còng": 5464,
      "chang": 5465,
      "Biểu": 5466,
      "??": 5467,
      "ray": 5468,
      "soạt": 5469,
      "Sen": 5470,
      "tầu": 5471,
      "ngáp": 5472,
      "nịu": 5473,
      "thoi": 5474,
      "Tán": 5475,
      "Mất": 5476,
      "Xá": 5477,
      "tụy": 5478,
      "Alexandra": 5479,
      "chênh": 5480,
      "nhác": 5481,
      "ểnh": 5482,
      "phả": 5483,
      "Jane": 5484,
      "sô": 5485,
      "Bụt": 5486,
      "vét": 5487,
      "kha": 5488,
      "sếp": 5489,
      "Tan": 5490,
      "dẻ": 5491,
      "dan": 5492,
      "phàn": 5493,
      "Cập": 5494,
      "nã": 5495,
      "quai": 5496,
      "phẩy": 5497,
      "quotCô": 5498,
      "đít": 5499,
      "Bút": 5500,
      "tạng": 5501,
      "Hel": 5502,
      "thố": 5503,
      "fer": 5504,
      "ama": 5505,
      "Mễ": 5506,
      "zu": 5507,
      "bar": 5508,
      "chòm": 5509,
      "quyệt": 5510,
      "hoe": 5511,
      "Van": 5512,
      "hâm": 5513,
      "Nắng": 5514,
      "xỉa": 5515,
      "đâ": 5516,
      "Ko": 5517,
      "dấn": 5518,
      "Phiến": 5519,
      "tiếu": 5520,
      "CIA": 5521,
      "quặc": 5522,
      "quotThế": 5523,
      "nuối": 5524,
      "dụi": 5525,
      "mả": 5526,
      "uchia": 5527,
      "ks": 5528,
      "đìa": 5529,
      "Rừng": 5530,
      "oni": 5531,
      "thốn": 5532,
      "London": 5533,
      "việt": 5534,
      "Tá": 5535,
      "Tạo": 5536,
      "Ối": 5537,
      "duỗi": 5538,
      "giông": 5539,
      "Cù": 5540,
      "thày": 5541,
      "thít": 5542,
      "Son": 5543,
      "Ảo": 5544,
      "tiêm": 5545,
      "bét": 5546,
      "ọp": 5547,
      "nháo": 5548,
      "Dục": 5549,
      "Ya": 5550,
      "đơ": 5551,
      "Thy": 5552,
      "Khuất": 5553,
      "trụi": 5554,
      "Sung": 5555,
      "Col": 5556,
      "nhỏm": 5557,
      "khuỷ": 5558,
      "tal": 5559,
      "nẻo": 5560,
      "xù": 5561,
      "bặm": 5562,
      "nện": 5563,
      "nie": 5564,
      "Den": 5565,
      "lùm": 5566,
      "rà": 5567,
      "Ngừng": 5568,
      "lis": 5569,
      "Chinh": 5570,
      "Dạo": 5571,
      "Tái": 5572,
      "mầm": 5573,
      "Mari": 5574,
      "lũy": 5575,
      "Vù": 5576,
      "dồi": 5577,
      "chúi": 5578,
      "Môi": 5579,
      "Campuchia": 5580,
      "Mel": 5581,
      "gừ": 5582,
      "Gái": 5583,
      "keo": 5584,
      "IẾ": 5585,
      "lọi": 5586,
      "nghinh": 5587,
      "gặt": 5588,
      "47": 5589,
      "Ara": 5590,
      "Mỵ": 5591,
      "Sông": 5592,
      "Xảo": 5593,
      "ỏm": 5594,
      "Jim": 5595,
      "line": 5596,
      "đần": 5597,
      "Thuộc": 5598,
      "liêu": 5599,
      "Washi": 5600,
      "kỉ": 5601,
      "quít": 5602,
      "lể": 5603,
      "Trả": 5604,
      "den": 5605,
      "Nhiếp": 5606,
      "liêm": 5607,
      "dor": 5608,
      "Jaco": 5609,
      "James": 5610,
      "Đu": 5611,
      "lừ": 5612,
      "Tiện": 5613,
      "ji": 5614,
      "Trừng": 5615,
      "mốc": 5616,
      "Adam": 5617,
      "Đen": 5618,
      "quotNgười": 5619,
      "Washington": 5620,
      "Thà": 5621,
      "báng": 5622,
      "ẦN": 5623,
      "Bồi": 5624,
      "55": 5625,
      "Franc": 5626,
      "chài": 5627,
      "via": 5628,
      "33": 5629,
      "gar": 5630,
      "Te": 5631,
      "yn": 5632,
      "ngút": 5633,
      "Rô": 5634,
      "quạnh": 5635,
      "hạm": 5636,
      "Tru": 5637,
      "Điểu": 5638,
      "đong": 5639,
      "ple": 5640,
      "gẫy": 5641,
      "Tuyến": 5642,
      "Chế": 5643,
      "bon": 5644,
      "chuốc": 5645,
      "khuỷu": 5646,
      "gài": 5647,
      "ợc": 5648,
      "Hoang": 5649,
      "nghễ": 5650,
      "toét": 5651,
      "xòe": 5652,
      "kè": 5653,
      "bọ": 5654,
      "bong": 5655,
      "vịn": 5656,
      "Sp": 5657,
      "lận": 5658,
      "khuâng": 5659,
      "0o": 5660,
      "dim": 5661,
      "tine": 5662,
      "sie": 5663,
      "múc": 5664,
      "nua": 5665,
      "truồng": 5666,
      "dấp": 5667,
      "nang": 5668,
      "Hô": 5669,
      "sọ": 5670,
      "Tàng": 5671,
      "nung": 5672,
      "neo": 5673,
      "chổi": 5674,
      "hũ": 5675,
      "Che": 5676,
      "bùi": 5677,
      "rán": 5678,
      "Cỏ": 5679,
      "luộc": 5680,
      "loé": 5681,
      "kiệm": 5682,
      "shi": 5683,
      "phỉ": 5684,
      "vãi": 5685,
      "Bro": 5686,
      "Khẩu": 5687,
      "mượt": 5688,
      "vẩy": 5689,
      "nhá": 5690,
      "Phili": 5691,
      "illy": 5692,
      "Tửu": 5693,
      "nhẽo": 5694,
      "Rich": 5695,
      "CS": 5696,
      "Núi": 5697,
      "Mô": 5698,
      "Vui": 5699,
      "35": 5700,
      "Bla": 5701,
      "đái": 5702,
      "chằng": 5703,
      "vênh": 5704,
      "rồiquot": 5705,
      "tùm": 5706,
      "phanh": 5707,
      "Bưu": 5708,
      "nhổm": 5709,
      "giếm": 5710,
      "cỡi": 5711,
      "Bông": 5712,
      "ÂN": 5713,
      "Huê": 5714,
      "var": 5715,
      "Mũi": 5716,
      "Thình": 5717,
      "oanh": 5718,
      "chường": 5719,
      "dắc": 5720,
      "xê": 5721,
      "mó": 5722,
      "Bô": 5723,
      "bưu": 5724,
      "Pier": 5725,
      "ville": 5726,
      "khía": 5727,
      "hoán": 5728,
      "Phóng": 5729,
      "nê": 5730,
      "Mừng": 5731,
      "gang": 5732,
      "mơn": 5733,
      "trót": 5734,
      "phịch": 5735,
      "lủng": 5736,
      "kiêng": 5737,
      "31": 5738,
      "Trẫm": 5739,
      "Tar": 5740,
      "wi": 5741,
      "nhồi": 5742,
      "răn": 5743,
      "?!": 5744,
      "cữu": 5745,
      "sáp": 5746,
      "mãng": 5747,
      "Cười": 5748,
      "Thím": 5749,
      "tưới": 5750,
      "vế": 5751,
      "nger": 5752,
      "Cổn": 5753,
      "Tắc": 5754,
      "nhỡ": 5755,
      "vắn": 5756,
      "chảo": 5757,
      "nực": 5758,
      "Jacob": 5759,
      "Lô": 5760,
      "amp225": 5761,
      "đóm": 5762,
      "lựu": 5763,
      "điếng": 5764,
      "chơn": 5765,
      "iểng": 5766,
      "Luyện": 5767,
      "ous": 5768,
      "tua": 5769,
      "cia": 5770,
      "ski": 5771,
      "lum": 5772,
      "Hạt": 5773,
      "Max": 5774,
      "rứa": 5775,
      "o0o": 5776,
      "Quát": 5777,
      "AO": 5778,
      "quýt": 5779,
      "Cưu": 5780,
      "Quê": 5781,
      "nhoẻn": 5782,
      "we": 5783,
      ".)": 5784,
      "mướt": 5785,
      "Mưu": 5786,
      "quẳng": 5787,
      "vỉa": 5788,
      "Nhai": 5789,
      "Nata": 5790,
      "hức": 5791,
      "rần": 5792,
      "nhẵn": 5793,
      "thé": 5794,
      "Lar": 5795,
      "kỉnh": 5796,
      "Mỗ": 5797,
      "ngợm": 5798,
      "hun": 5799,
      "ana": 5800,
      "wn": 5801,
      "ram": 5802,
      "Bill": 5803,
      "bún": 5804,
      "cọng": 5805,
      "Mối": 5806,
      "era": 5807,
      "bập": 5808,
      "Nhiêu": 5809,
      "lủi": 5810,
      "Oo": 5811,
      "kva": 5812,
      "Por": 5813,
      "chửa": 5814,
      "càu": 5815,
      "Đành": 5816,
      "tỵ": 5817,
      "thịch": 5818,
      "let": 5819,
      "pô": 5820,
      "quách": 5821,
      "hách": 5822,
      "trối": 5823,
      "rằm": 5824,
      "Đủ": 5825,
      "Au": 5826,
      "Kiểm": 5827,
      "nhấm": 5828,
      "Or": 5829,
      "Holmes": 5830,
      "Tụ": 5831,
      "rợ": 5832,
      "ken": 5833,
      "Len": 5834,
      "Phấn": 5835,
      "lãi": 5836,
      "Lối": 5837,
      "Pot": 5838,
      "gở": 5839,
      "gắp": 5840,
      "vượn": 5841,
      "nhũng": 5842,
      "VNthuquan": 5843,
      "khét": 5844,
      "Điên": 5845,
      "nới": 5846,
      "lã": 5847,
      "trâm": 5848,
      "Trưa": 5849,
      "37": 5850,
      "rúng": 5851,
      "vịnh": 5852,
      "Cali": 5853,
      "rid": 5854,
      "Lỗi": 5855,
      "quẹo": 5856,
      "hiềm": 5857,
      "lòa": 5858,
      "táp": 5859,
      "vàn": 5860,
      "AI": 5861,
      "ane": 5862,
      ".,": 5863,
      "thẫm": 5864,
      "quây": 5865,
      "Martin": 5866,
      "ngoắt": 5867,
      "Ian": 5868,
      "liu": 5869,
      "Kar": 5870,
      "ươu": 5871,
      "rinh": 5872,
      "32": 5873,
      "Dụng": 5874,
      "đĩ": 5875,
      "Đem": 5876,
      "1945": 5877,
      "Cà": 5878,
      "Ry": 5879,
      "bốp": 5880,
      "Toán": 5881,
      "kiếng": 5882,
      "véo": 5883,
      "thy": 5884,
      "Moskva": 5885,
      "sùi": 5886,
      "Đỡ": 5887,
      "Vin": 5888,
      "gàng": 5889,
      "đôn": 5890,
      "Xuống": 5891,
      "Chao": 5892,
      "Chiếu": 5893,
      "cúp": 5894,
      "Ger": 5895,
      "Mèo": 5896,
      "sải": 5897,
      "dõng": 5898,
      "rặng": 5899,
      "náu": 5900,
      "Lauren": 5901,
      "cáng": 5902,
      "sấp": 5903,
      "viền": 5904,
      "Rachel": 5905,
      "phan": 5906,
      "Kenne": 5907,
      "Vút": 5908,
      "Anne": 5909,
      "vie": 5910,
      "keng": 5911,
      "Thuỵ": 5912,
      "giỗ": 5913,
      "thải": 5914,
      "điểu": 5915,
      "nóiquot": 5916,
      "Đặt": 5917,
      "Mầy": 5918,
      "dật": 5919,
      "lơn": 5920,
      "ịn": 5921,
      "Buông": 5922,
      "quẹt": 5923,
      "lép": 5924,
      "Ương": 5925,
      "sủng": 5926,
      "miêu": 5927,
      "Vưu": 5928,
      "bôn": 5929,
      "Gar": 5930,
      "Sna": 5931,
      "thui": 5932,
      "tuông": 5933,
      "Jenni": 5934,
      "Biến": 5935,
      "Fe": 5936,
      "ưỡn": 5937,
      "quýnh": 5938,
      "ẵm": 5939,
      "thuyên": 5940,
      "viêm": 5941,
      "Màu": 5942,
      "Hợi": 5943,
      "nhót": 5944,
      "Thuấn": 5945,
      "kị": 5946,
      "Jennifer": 5947,
      "dẻo": 5948,
      "Carol": 5949,
      "chột": 5950,
      "Ngựa": 5951,
      "Sim": 5952,
      "thòi": 5953,
      "sấn": 5954,
      "guốc": 5955,
      "Vết": 5956,
      "dấy": 5957,
      "mấp": 5958,
      "gán": 5959,
      "Nghiên": 5960,
      "amp244": 5961,
      "rạ": 5962,
      "Ủy": 5963,
      "TQ": 5964,
      "Ver": 5965,
      "lằn": 5966,
      "art": 5967,
      "Hả": 5968,
      "đờn": 5969,
      "bung": 5970,
      "xịt": 5971,
      "tráo": 5972,
      "Cận": 5973,
      "oto": 5974,
      "đượm": 5975,
      "nốp": 5976,
      "ney": 5977,
      "tiệt": 5978,
      "sà": 5979,
      "Thản": 5980,
      "Qúy": 5981,
      "ngòi": 5982,
      "Đáp": 5983,
      "nhặn": 5984,
      "rim": 5985,
      "Hốt": 5986,
      "bịp": 5987,
      "boong": 5988,
      "mường": 5989,
      "ott": 5990,
      "Sc": 5991,
      "ẾT": 5992,
      "Kate": 5993,
      "thiu": 5994,
      "dế": 5995,
      "vê": 5996,
      "Trượng": 5997,
      "Win": 5998,
      "nhoi": 5999,
      "Kennedy": 6000,
      "Rom": 6001,
      "Đèn": 6002,
      "quotSao": 6003,
      "gg": 6004,
      "nơ": 6005,
      "2004": 6006,
      "chít": 6007,
      "Tha": 6008,
      "phới": 6009,
      "víu": 6010,
      "gie": 6011,
      "chững": 6012,
      "Nhương": 6013,
      "đượcquot": 6014,
      "Nghiêu": 6015,
      "bục": 6016,
      "Xét": 6017,
      "Snape": 6018,
      "Bri": 6019,
      "Điển": 6020,
      "oOo": 6021,
      "Bèn": 6022,
      "yểm": 6023,
      "bur": 6024,
      "Lớp": 6025,
      "gợn": 6026,
      "Mợ": 6027,
      "500": 6028,
      "Toà": 6029,
      "vel": 6030,
      "lly": 6031,
      "Ngủ": 6032,
      "Fu": 6033,
      "dà": 6034,
      "mí": 6035,
      "tuyền": 6036,
      "Ngọa": 6037,
      "pan": 6038,
      "Tràng": 6039,
      "ON": 6040,
      "thòng": 6041,
      "Hòn": 6042,
      "amp243": 6043,
      "bú": 6044,
      "Bồng": 6045,
      "Dọc": 6046,
      "Phẩm": 6047,
      "máng": 6048,
      "ja": 6049,
      "bẹp": 6050,
      "góa": 6051,
      "xát": 6052,
      "làu": 6053,
      "Khác": 6054,
      "giòn": 6055,
      "Xuất": 6056,
      "đốp": 6057,
      "lẽn": 6058,
      "giãy": 6059,
      "Chất": 6060,
      "ngạnh": 6061,
      "Pu": 6062,
      "đểu": 6063,
      "Diệt": 6064,
      "Nick": 6065,
      "toạ": 6066,
      "phao": 6067,
      "Phản": 6068,
      "cặn": 6069,
      "lẩy": 6070,
      "rích": 6071,
      "quắt": 6072,
      "thỏm": 6073,
      "Saigon": 6074,
      "Uỷ": 6075,
      "rày": 6076,
      "phủi": 6077,
      "dằng": 6078,
      "đọa": 6079,
      "Sùng": 6080,
      "ing": 6081,
      "ey": 6082,
      "vẹo": 6083,
      "Ưu": 6084,
      "nghếch": 6085,
      "lòi": 6086,
      "82": 6087,
      "sỡ": 6088,
      "chặng": 6089,
      "khước": 6090,
      "Úy": 6091,
      "thổn": 6092,
      "Khỏi": 6093,
      "Richard": 6094,
      "Kê": 6095,
      "hơ": 6096,
      "rổ": 6097,
      "còm": 6098,
      "nhòm": 6099,
      "mĩm": 6100,
      "nhĩ": 6101,
      "loi": 6102,
      "ood": 6103,
      "Ào": 6104,
      "giời": 6105,
      "Tản": 6106,
      "Khá": 6107,
      "Rh": 6108,
      "khỏa": 6109,
      "42": 6110,
      "quỵ": 6111,
      "Triệt": 6112,
      "lênh": 6113,
      "tem": 6114,
      "phiện": 6115,
      "ep": 6116,
      "ủn": 6117,
      "xon": 6118,
      "Mãnh": 6119,
      "Uất": 6120,
      "HỒ": 6121,
      "Hường": 6122,
      "rờn": 6123,
      "quotMột": 6124,
      "Tí": 6125,
      "găng": 6126,
      "Ung": 6127,
      "90": 6128,
      "Kỹ": 6129,
      "sảo": 6130,
      "hừng": 6131,
      "bai": 6132,
      "Trãi": 6133,
      "Kình": 6134,
      "xẻo": 6135,
      "gặm": 6136,
      "đuợc": 6137,
      "Niềm": 6138,
      "lụt": 6139,
      "tành": 6140,
      "bẽn": 6141,
      "sk": 6142,
      "Sảng": 6143,
      "nanh": 6144,
      "Huấn": 6145,
      "khóm": 6146,
      "Dinh": 6147,
      "nòng": 6148,
      "ère": 6149,
      "giêng": 6150,
      "biếm": 6151,
      "zi": 6152,
      "nguỵ": 6153,
      "cấy": 6154,
      "rơ": 6155,
      "nhoài": 6156,
      "Jeff": 6157,
      "Dễ": 6158,
      "cốp": 6159,
      "nhuyễn": 6160,
      "thệ": 6161,
      "lỉnh": 6162,
      "phie": 6163,
      "75": 6164,
      "hươu": 6165,
      "ght": 6166,
      "Món": 6167,
      "78": 6168,
      "Ash": 6169,
      "HO": 6170,
      "Vùng": 6171,
      "Yu": 6172,
      "mía": 6173,
      "ois": 6174,
      "Gen": 6175,
      "Thao": 6176,
      "hon": 6177,
      "sốc": 6178,
      "ngoa": 6179,
      "ngừa": 6180,
      "nhăng": 6181,
      "rad": 6182,
      "Lính": 6183,
      "xuýt": 6184,
      "Nê": 6185,
      "Chuẩn": 6186,
      "nhãi": 6187,
      "Ăng": 6188,
      "Mat": 6189,
      "khánh": 6190,
      "tes": 6191,
      "khoét": 6192,
      "nhuận": 6193,
      "Hag": 6194,
      "gn": 6195,
      "giẫm": 6196,
      "Lượm": 6197,
      "ford": 6198,
      "rờ": 6199,
      "yểu": 6200,
      "chuôi": 6201,
      "giảo": 6202,
      "VÀ": 6203,
      "Oai": 6204,
      "lỵ": 6205,
      "Họa": 6206,
      "suông": 6207,
      "cùi": 6208,
      "ame": 6209,
      "Greg": 6210,
      "INH": 6211,
      "lạm": 6212,
      "xay": 6213,
      "Ất": 6214,
      "Ac": 6215,
      "hòi": 6216,
      "vậ": 6217,
      "lồi": 6218,
      "38": 6219,
      "ling": 6220,
      "Xu": 6221,
      "trỗi": 6222,
      "chếch": 6223,
      "Tony": 6224,
      "sto": 6225,
      "chùy": 6226,
      "hạch": 6227,
      "Ky": 6228,
      "Lầu": 6229,
      "khỉnh": 6230,
      "thững": 6231,
      "thõng": 6232,
      "xoắn": 6233,
      "oc": 6234,
      "CHƯƠNG": 6235,
      "ÌNH": 6236,
      "lõm": 6237,
      "Lành": 6238,
      "Sarah": 6239,
      "Saint": 6240,
      "chợp": 6241,
      "Tre": 6242,
      "mìn": 6243,
      "Thạnh": 6244,
      "tợ": 6245,
      "ux": 6246,
      "gội": 6247,
      "Án": 6248,
      "XX": 6249,
      "bấu": 6250,
      "Quyển": 6251,
      "ỦA": 6252,
      "Wal": 6253,
      "Pierre": 6254,
      "Bò": 6255,
      "Nạn": 6256,
      "trườn": 6257,
      "von": 6258,
      "nhòa": 6259,
      "Than": 6260,
      "ara": 6261,
      "Dám": 6262,
      "Cẩu": 6263,
      "Nhuận": 6264,
      "49": 6265,
      "?,": 6266,
      "cội": 6267,
      "mõ": 6268,
      "kép": 6269,
      "Chứng": 6270,
      "Nẵng": 6271,
      "ok": 6272,
      "tuế": 6273,
      "ngách": 6274,
      "Dụ": 6275,
      "Sói": 6276,
      "lõng": 6277,
      "Nham": 6278,
      "Trạng": 6279,
      "CÓ": 6280,
      "toại": 6281,
      "Quên": 6282,
      "Ức": 6283,
      "Chùa": 6284,
      "buýt": 6285,
      "CỦA": 6286,
      "Vòng": 6287,
      "phùng": 6288,
      "khư": 6289,
      "Thoát": 6290,
      "hổi": 6291,
      "ngườ": 6292,
      "Philip": 6293,
      "rả": 6294,
      "dạc": 6295,
      "rúm": 6296,
      "sey": 6297,
      "Chịu": 6298,
      "cừ": 6299,
      "xối": 6300,
      "Lin": 6301,
      "đẫn": 6302,
      "Ker": 6303,
      "nán": 6304,
      "veo": 6305,
      "giầu": 6306,
      "điquot": 6307,
      "ad": 6308,
      "diễu": 6309,
      "Hagrid": 6310,
      "amp7871": 6311,
      "lào": 6312,
      "Bê": 6313,
      "Cuốn": 6314,
      "xõa": 6315,
      "xòa": 6316,
      "đẽo": 6317,
      "Câm": 6318,
      "Dượng": 6319,
      "ôê": 6320,
      "dông": 6321,
      "Sớm": 6322,
      "Trục": 6323,
      "Sơ": 6324,
      "foy": 6325,
      "mẩn": 6326,
      "núm": 6327,
      "Bay": 6328,
      "Pan": 6329,
      "kheo": 6330,
      ".--": 6331,
      "Henri": 6332,
      "dẫy": 6333,
      "choang": 6334,
      "sì": 6335,
      "Naôê": 6336,
      "Xta": 6337,
      "thoang": 6338,
      "Blo": 6339,
      "dỡ": 6340,
      "nập": 6341,
      "mui": 6342,
      "SA": 6343,
      "dùi": 6344,
      "mis": 6345,
      "nghịu": 6346,
      "chặp": 6347,
      "oro": 6348,
      "Trảo": 6349,
      "Phác": 6350,
      "Cơm": 6351,
      "2003": 6352,
      "giụa": 6353,
      "Joe": 6354,
      "53": 6355,
      "kén": 6356,
      "tuý": 6357,
      "khứa": 6358,
      "Nhóm": 6359,
      "Malfoy": 6360,
      "cóng": 6361,
      "Thắm": 6362,
      "miết": 6363,
      "ơc": 6364,
      "ppi": 6365,
      "đgt": 6366,
      "Nu": 6367,
      "õn": 6368,
      "Sus": 6369,
      "Thìn": 6370,
      "thur": 6371,
      "mếu": 6372,
      "ngỗng": 6373,
      "Trâu": 6374,
      "nhút": 6375,
      "lơi": 6376,
      "khì": 6377,
      "xộc": 6378,
      "nháp": 6379,
      "Rhett": 6380,
      "xơi": 6381,
      "pol": 6382,
      "trớn": 6383,
      "Alice": 6384,
      "fe": 6385,
      "Ích": 6386,
      "tti": 6387,
      "Đán": 6388,
      "xcơ": 6389,
      "quyên": 6390,
      "Vũng": 6391,
      "éon": 6392,
      "đở": 6393,
      "ami": 6394,
      "Bôn": 6395,
      "lổ": 6396,
      "phờ": 6397,
      "cáp": 6398,
      "khuây": 6399,
      "Hôn": 6400,
      "khử": 6401,
      "Ngoan": 6402,
      "NA": 6403,
      "rn": 6404,
      "lợp": 6405,
      "Chuyển": 6406,
      "què": 6407,
      "Sophie": 6408,
      "nỏ": 6409,
      "thúng": 6410,
      "sài": 6411,
      "sê": 6412,
      "Juli": 6413,
      "Oliver": 6414,
      "hỷ": 6415,
      "núng": 6416,
      "Thomas": 6417,
      "Vực": 6418,
      "dúi": 6419,
      "mõm": 6420,
      "ẤT": 6421,
      "Lưỡng": 6422,
      "Vo": 6423,
      "48": 6424,
      "ná": 6425,
      "lov": 6426,
      "Kin": 6427,
      "rãnh": 6428,
      "Vol": 6429,
      "Làng": 6430,
      "Cán": 6431,
      "CÔ": 6432,
      "khảy": 6433,
      "Wa": 6434,
      "đun": 6435,
      "Marie": 6436,
      "his": 6437,
      "tôiquot": 6438,
      "Tol": 6439,
      "mủ": 6440,
      "Trò": 6441,
      "are": 6442,
      "sắng": 6443,
      "taquot": 6444,
      "Giỏi": 6445,
      "giắt": 6446,
      "Thuyết": 6447,
      "bết": 6448,
      "găm": 6449,
      "tz": 6450,
      "quotVậy": 6451,
      "vạm": 6452,
      "ƯỜI": 6453,
      "ễnh": 6454,
      "Muôn": 6455,
      "Dĩnh": 6456,
      "chòng": 6457,
      "Chức": 6458,
      "1954": 6459,
      "rưới": 6460,
      "khịt": 6461,
      "2005": 6462,
      "cer": 6463,
      "Lịnh": 6464,
      "Jon": 6465,
      "Holly": 6466,
      "Katie": 6467,
      "mỏm": 6468,
      "Hấp": 6469,
      "rom": 6470,
      "Cước": 6471,
      "tta": 6472,
      "dể": 6473,
      "đẩu": 6474,
      "Helen": 6475,
      "anda": 6476,
      "Khắp": 6477,
      "vờn": 6478,
      "xạo": 6479,
      "Ơn": 6480,
      "quotCái": 6481,
      "War": 6482,
      "Miễn": 6483,
      "Ve": 6484,
      "quoth": 6485,
      "Lạng": 6486,
      "bèo": 6487,
      "sky": 6488,
      "...,": 6489,
      "Fi": 6490,
      "Cấm": 6491,
      "Fred": 6492,
      "chạc": 6493,
      "...!": 6494,
      "lor": 6495,
      "khoé": 6496,
      "ONG": 6497,
      "IỆ": 6498,
      "Thôn": 6499,
      "Vịnh": 6500,
      "nhen": 6501,
      "oun": 6502,
      "bẽ": 6503,
      "giẻ": 6504,
      "65": 6505,
      "thốc": 6506,
      "quotCác": 6507,
      "Dra": 6508,
      "quotTiểu": 6509,
      "queo": 6510,
      "ND": 6511,
      "nữaquot": 6512,
      "Arthur": 6513,
      "1963": 6514,
      "mệ": 6515,
      "Bào": 6516,
      "hẫng": 6517,
      "Khô": 6518,
      "Weas": 6519,
      "thủi": 6520,
      "Potter": 6521,
      "xốp": 6522,
      "nhiếp": 6523,
      "Chuyên": 6524,
      "Ashley": 6525,
      "khít": 6526,
      "vẹt": 6527,
      "Francis": 6528,
      "Trùm": 6529,
      "Ange": 6530,
      "xiên": 6531,
      "----------------": 6532,
      "uế": 6533,
      "ada": 6534,
      "toạc": 6535,
      "rạc": 6536,
      "Weasley": 6537,
      "đư": 6538,
      "kham": 6539,
      "Thố": 6540,
      "sy": 6541,
      "tưởi": 6542,
      "nhúm": 6543,
      "Màn": 6544,
      "tsu": 6545,
      "Quỉ": 6546,
      "láu": 6547,
      "sứt": 6548,
      "ỏn": 6549,
      "quotXin": 6550,
      "On": 6551,
      "---": 6552,
      "nọc": 6553,
      "khoán": 6554,
      "ráp": 6555,
      "Susan": 6556,
      "Mão": 6557,
      "lết": 6558,
      "Hỉ": 6559,
      "Xác": 6560,
      "quotPhải": 6561,
      "Bella": 6562,
      "dọ": 6563,
      "dra": 6564,
      "()": 6565,
      "Bờ": 6566,
      "sũng": 6567,
      "sấu": 6568,
      "sẳn": 6569,
      "Khốn": 6570,
      "ves": 6571,
      "Hèn": 6572,
      "bím": 6573,
      "Gor": 6574,
      "Nai": 6575,
      "well": 6576,
      "hen": 6577,
      "quở": 6578,
      "gin": 6579,
      "die": 6580,
      "tivi": 6581,
      "sá": 6582,
      "nữạ": 6583,
      "lạch": 6584,
      "ỗn": 6585,
      "khêu": 6586,
      "bệt": 6587,
      "ghìm": 6588,
      "vali": 6589,
      "ary": 6590,
      "72": 6591,
      "Tarzan": 6592,
      "Lara": 6593,
      "muỗng": 6594,
      "Tiêm": 6595,
      "thiển": 6596,
      "chẩn": 6597,
      "Larry": 6598,
      "Cựu": 6599,
      "Jus": 6600,
      "Tơ": 6601,
      "lặt": 6602,
      "khảm": 6603,
      "rỏ": 6604,
      "59": 6605,
      "vít": 6606,
      "Ngải": 6607,
      "nhừ": 6608,
      "giậm": 6609,
      "bõ": 6610,
      "tắp": 6611,
      "xoài": 6612,
      "cồm": 6613,
      "Wi": 6614,
      "diếm": 6615,
      "phừng": 6616,
      "hẻo": 6617,
      "lọng": 6618,
      "ngoặt": 6619,
      "Sy": 6620,
      "búi": 6621,
      "gô": 6622,
      "Nghê": 6623,
      "mọt": 6624,
      "khang": 6625,
      "lún": 6626,
      "Cấp": 6627,
      "mận": 6628,
      "300": 6629,
      "Ổng": 6630,
      "Nãy": 6631,
      "cầy": 6632,
      "hước": 6633,
      "quotTại": 6634,
      "lòe": 6635,
      "mân": 6636,
      "chắt": 6637,
      "phồn": 6638,
      "Mike": 6639,
      "TI": 6640,
      "rou": 6641,
      "bợ": 6642,
      "lợm": 6643,
      "nõn": 6644,
      "trọi": 6645,
      "Sóc": 6646,
      "Ốc": 6647,
      "tỉa": 6648,
      "Alec": 6649,
      "ngóc": 6650,
      "uẩn": 6651,
      "Bon": 6652,
      "đay": 6653,
      "Thoáng": 6654,
      "VÔ": 6655,
      "rìu": 6656,
      "túp": 6657,
      "ngoằn": 6658,
      "nhạn": 6659,
      "Ngưng": 6660,
      "Ser": 6661,
      "băm": 6662,
      "ish": 6663,
      "ghim": 6664,
      "thoăn": 6665,
      "chúm": 6666,
      "Les": 6667,
      "bự": 6668,
      "ska": 6669,
      "!,": 6670,
      "Giữ": 6671,
      "thôiquot": 6672,
      "ANH": 6673,
      "cạm": 6674,
      "bie": 6675,
      "Mân": 6676,
      "bộn": 6677,
      "tươm": 6678,
      ",-": 6679,
      "39": 6680,
      "tạnh": 6681,
      "Gui": 6682,
      "ul": 6683,
      "thụp": 6684,
      "xiêm": 6685,
      "Mua": 6686,
      "Xiêm": 6687,
      "bở": 6688,
      "đới": 6689,
      "Trích": 6690,
      "khẻ": 6691,
      "tus": 6692,
      "phà": 6693,
      "sọc": 6694,
      "nhuệ": 6695,
      "cắc": 6696,
      "quotMình": 6697,
      "Sửu": 6698,
      "vằng": 6699,
      "Đả": 6700,
      "rắm": 6701,
      "sti": 6702,
      "quế": 6703,
      "chiết": 6704,
      "Inter": 6705,
      "gọng": 6706,
      "mửa": 6707,
      "hùm": 6708,
      "nặn": 6709,
      "oạn": 6710,
      "oà": 6711,
      "sám": 6712,
      "thênh": 6713,
      "Đính": 6714,
      "thầu": 6715,
      "quyện": 6716,
      "Tỏa": 6717,
      "Úc": 6718,
      "Chuông": 6719,
      "del": 6720,
      "chẻ": 6721,
      "Vic": 6722,
      "Thác": 6723,
      "hám": 6724,
      "nòi": 6725,
      "sum": 6726,
      "thút": 6727,
      "quotThôi": 6728,
      "đru": 6729,
      "use": 6730,
      "Đấng": 6731,
      "Thuở": 6732,
      "Khiếu": 6733,
      "loanh": 6734,
      "Rồng": 6735,
      "Tờ": 6736,
      "ros": 6737,
      "Ngang": 6738,
      "Carrie": 6739,
      "hù": 6740,
      "Đá": 6741,
      "Pro": 6742,
      "Nhứt": 6743,
      "rạo": 6744,
      "Dana": 6745,
      "mẹo": 6746,
      "Tara": 6747,
      "mè": 6748,
      "63": 6749,
      "Biền": 6750,
      "lt": 6751,
      "nốc": 6752,
      "gáp": 6753,
      "Tiều": 6754,
      "mọng": 6755,
      "tắn": 6756,
      "nhón": 6757,
      "chong": 6758,
      "hói": 6759,
      "hỉnh": 6760,
      "toe": 6761,
      "you": 6762,
      "lẻo": 6763,
      "Hun": 6764,
      "Hừm": 6765,
      "bảnh": 6766,
      "xệch": 6767,
      "khè": 6768,
      "bộp": 6769,
      "Đản": 6770,
      "thùy": 6771,
      "rồị": 6772,
      "min": 6773,
      "tịt": 6774,
      "khuân": 6775,
      "Sân": 6776,
      "Hựu": 6777,
      "Mark": 6778,
      "AR": 6779,
      "Mĩ": 6780,
      "Vườn": 6781,
      "Trát": 6782,
      "ovich": 6783,
      "thóa": 6784,
      "vạc": 6785,
      "đát": 6786,
      "ere": 6787,
      "chiêng": 6788,
      "cro": 6789,
      "Tánh": 6790,
      "gừng": 6791,
      "nàyquot": 6792,
      "khov": 6793,
      "Um": 6794,
      "Nor": 6795,
      "vồng": 6796,
      "Bãi": 6797,
      "sòm": 6798,
      "vát": 6799,
      "Johnson": 6800,
      "Trăm": 6801,
      "Nixon": 6802,
      "Lựu": 6803,
      "Tảo": 6804,
      "vis": 6805,
      "ise": 6806,
      "noi": 6807,
      "Cân": 6808,
      "xạc": 6809,
      "Chuột": 6810,
      "TT": 6811,
      "Dáng": 6812,
      "Is": 6813,
      "ngòm": 6814,
      "nhối": 6815,
      "Mâu": 6816,
      "húp": 6817,
      "ngấn": 6818,
      "Hon": 6819,
      "Hát": 6820,
      "Smi": 6821,
      "lốp": 6822,
      "lõa": 6823,
      "bỡn": 6824,
      "êli": 6825,
      "Blood": 6826,
      "nhốn": 6827,
      "chịt": 6828,
      "Jake": 6829,
      "vùn": 6830,
      "ỲNH": 6831,
      "nôi": 6832,
      "Sha": 6833,
      "Tỉ": 6834,
      "vư": 6835,
      "giũ": 6836,
      "Nhập": 6837,
      "eld": 6838,
      "nhậm": 6839,
      "khiếm": 6840,
      "phịu": 6841,
      ".?": 6842,
      "DAO": 6843,
      "ĐCS": 6844,
      "cật": 6845,
      "Giây": 6846,
      "Cải": 6847,
      "chông": 6848,
      "burg": 6849,
      "phiệt": 6850,
      "Tục": 6851,
      "cạch": 6852,
      "Kô": 6853,
      "Kel": 6854,
      "mói": 6855,
      "bua": 6856,
      "rys": 6857,
      "Pao": 6858,
      "liếng": 6859,
      "tov": 6860,
      "nguời": 6861,
      "Dậu": 6862,
      "Tỵ": 6863,
      "dề": 6864,
      "sin": 6865,
      "ster": 6866,
      "chới": 6867,
      "quầng": 6868,
      "emquot": 6869,
      "Nhắc": 6870,
      "Lỡ": 6871,
      "huân": 6872,
      "Râu": 6873,
      "160": 6874,
      "phiếm": 6875,
      "Nạp": 6876,
      "nẻ": 6877,
      "Bánh": 6878,
      "gne": 6879,
      "trằn": 6880,
      "...?": 6881,
      "Toại": 6882,
      "lán": 6883,
      "win": 6884,
      "gel": 6885,
      "quằn": 6886,
      "sớ": 6887,
      "war": 6888,
      "êt": 6889,
      "lũi": 6890,
      "khế": 6891,
      "Gò": 6892,
      "lói": 6893,
      "đự": 6894,
      "Yos": 6895,
      "nịt": 6896,
      "thìa": 6897,
      "cel": 6898,
      "Chó": 6899,
      "kốp": 6900,
      "gam": 6901,
      "Bật": 6902,
      "quotNgươi": 6903,
      "ghềnh": 6904,
      "Ngươn": 6905,
      "ẠI": 6906,
      "quotCậu": 6907,
      "quotThưa": 6908,
      "amp234": 6909,
      "láy": 6910,
      "bửu": 6911,
      "190": 6912,
      "Xưởng": 6913,
      "Mồ": 6914,
      "ordan": 6915,
      "Sầm": 6916,
      "Ngâm": 6917,
      "đg": 6918,
      "toria": 6919,
      "Dưỡng": 6920,
      "Cút": 6921,
      "Fer": 6922,
      "Xứ": 6923,
      "đọ": 6924,
      "nhái": 6925,
      "52": 6926,
      "Sóng": 6927,
      "trồi": 6928,
      "QUỲNH": 6929,
      "Giảo": 6930,
      "Fa": 6931,
      "mút": 6932,
      "Xử": 6933,
      "đét": 6934,
      "Cảng": 6935,
      "bơm": 6936,
      "sắn": 6937,
      "Tể": 6938,
      "2006": 6939,
      "rem": 6940,
      "mẫm": 6941,
      "Ngãi": 6942,
      "Kiêu": 6943,
      "tler": 6944,
      "Rick": 6945,
      "rịn": 6946,
      "Ven": 6947,
      "ươc": 6948,
      "Bột": 6949,
      "Bùng": 6950,
      ".).": 6951,
      "dẳng": 6952,
      "sột": 6953,
      "đom": 6954,
      "khuê": 6955,
      "lỳ": 6956,
      "mủi": 6957,
      "ngót": 6958,
      "way": 6959,
      "BI": 6960,
      "Viêm": 6961,
      "cher": 6962,
      "amp7845": 6963,
      "nguýt": 6964,
      "rea": 6965,
      "ỉm": 6966,
      "René": 6967,
      "Rút": 6968,
      "vợi": 6969,
      "Julia": 6970,
      "rết": 6971,
      "Flo": 6972,
      "ỵch": 6973,
      "thun": 6974,
      "Matt": 6975,
      "ille": 6976,
      "quotA": 6977,
      "thía": 6978,
      "Tracy": 6979,
      "din": 6980,
      "vượng": 6981,
      "xép": 6982,
      "lạp": 6983,
      "cạp": 6984,
      "quệt": 6985,
      "nes": 6986,
      "mụn": 6987,
      "Cờ": 6988,
      "dó": 6989,
      "mẩy": 6990,
      "MỘ": 6991,
      "Rằng": 6992,
      "Gà": 6993,
      "niêm": 6994,
      "ret": 6995,
      "nhem": 6996,
      "Porthos": 6997,
      "Marx": 6998,
      "Com": 6999,
      "Jordan": 7000,
      "Tránh": 7001,
      "gọt": 7002,
      "Trống": 7003,
      "nis": 7004,
      "Ngốc": 7005,
      "Stan": 7006,
      "Xóm": 7007,
      "jean": 7008,
      "xắc": 7009,
      "lú": 7010,
      "tỏi": 7011,
      "thỏi": 7012,
      "Quanh": 7013,
      "cụp": 7014,
      "ngái": 7015,
      "ât": 7016,
      "siêng": 7017,
      "ngaỵ": 7018,
      "Men": 7019,
      "ÁC": 7020,
      "Chan": 7021,
      "Thát": 7022,
      "Leon": 7023,
      "Dẫn": 7024,
      "igh": 7025,
      "thơi": 7026,
      "Giấc": 7027,
      "chìu": 7028,
      "osa": 7029,
      "amp432amp790": 7030,
      "niu": 7031,
      "cấn": 7032,
      "phím": 7033,
      "môt": 7034,
      "Sher": 7035,
      "chóp": 7036,
      "ngoèo": 7037,
      "đản": 7038,
      "hấn": 7039,
      "Răng": 7040,
      "ngò": 7041,
      "rúp": 7042,
      "pas": 7043,
      "bus": 7044,
      "khiên": 7045,
      "amp7897": 7046,
      "hão": 7047,
      "đóquot": 7048,
      "lồm": 7049,
      "Er": 7050,
      "Stu": 7051,
      "Tem": 7052,
      "quotNó": 7053,
      "Yo": 7054,
      "thều": 7055,
      "79": 7056,
      "thau": 7057,
      "ngắc": 7058,
      "Lưỡi": 7059,
      "chụm": 7060,
      "Nico": 7061,
      "Khóc": 7062,
      "lít": 7063,
      "Will": 7064,
      "Bụng": 7065,
      "Hẹn": 7066,
      "kiết": 7067,
      "Meg": 7068,
      "kềnh": 7069,
      "Phiền": 7070,
      "toáng": 7071,
      "hục": 7072,
      "Giận": 7073,
      "Jer": 7074,
      "mồn": 7075,
      "muốt": 7076,
      "Cò": 7077,
      "gườm": 7078,
      "Saphi": 7079,
      "amp7841": 7080,
      "Xuy": 7081,
      "quotNhững": 7082,
      "xới": 7083,
      "khắt": 7084,
      "Khói": 7085,
      "thúi": 7086,
      "Aramis": 7087,
      "57": 7088,
      "Dấu": 7089,
      "Pas": 7090,
      "hời": 7091,
      "teo": 7092,
      "khoải": 7093,
      "Saphira": 7094,
      "uốm": 7095,
      "xoảng": 7096,
      "Tiềm": 7097,
      "Aur": 7098,
      "quotkhông": 7099,
      "Mãng": 7100,
      "thướt": 7101,
      "eu": 7102,
      "ngợ": 7103,
      "quăn": 7104,
      "tar": 7105,
      "chởm": 7106,
      "tằng": 7107,
      "Nhỡ": 7108,
      "xược": 7109,
      "nải": 7110,
      "phàng": 7111,
      "Chấp": 7112,
      "Hê": 7113,
      "thảnh": 7114,
      "Tạp": 7115,
      "oa": 7116,
      "saỏ": 7117,
      "hử": 7118,
      "quotBà": 7119,
      "Ngục": 7120,
      "phết": 7121,
      "dụm": 7122,
      "Kông": 7123,
      "Mường": 7124,
      "lé": 7125,
      "lốt": 7126,
      "Rạch": 7127,
      "Nhữ": 7128,
      "Bin": 7129,
      "cứt": 7130,
      "Levin": 7131,
      "róc": 7132,
      "lineĐược": 7133,
      "hóm": 7134,
      "meo": 7135,
      "BA": 7136,
      "Ơi": 7137,
      "46": 7138,
      "ampgt": 7139,
      "uya": 7140,
      "NGƯỜI": 7141,
      "Johnny": 7142,
      "Kéo": 7143,
      "Smith": 7144,
      "liệm": 7145,
      "Tệ": 7146,
      "Tốc": 7147,
      "trội": 7148,
      "................": 7149,
      "Bor": 7150,
      "thết": 7151,
      "Chơi": 7152,
      "lất": 7153,
      "ain": 7154,
      "Hề": 7155,
      "trồ": 7156,
      "bịu": 7157,
      "toé": 7158,
      "Jac": 7159,
      "99": 7160,
      "sho": 7161,
      "quại": 7162,
      "Khố": 7163,
      "Khinh": 7164,
      "chuốt": 7165,
      "Emi": 7166,
      "Lung": 7167,
      "Bổng": 7168,
      "Es": 7169,
      "ngoắc": 7170,
      "dov": 7171,
      "Sàigòn": 7172,
      "đấyquot": 7173,
      "khuỵ": 7174,
      "oo": 7175,
      "ilia": 7176,
      "Gin": 7177,
      "gỏng": 7178,
      "ngấu": 7179,
      "bàu": 7180,
      "Joan": 7181,
      "Bra": 7182,
      "rắp": 7183,
      "Cạnh": 7184,
      "lot": 7185,
      "mương": 7186,
      "xồm": 7187,
      "salon": 7188,
      "Gran": 7189,
      "quotHãy": 7190,
      "Ham": 7191,
      "Vượng": 7192,
      "Nầy": 7193,
      "km": 7194,
      "Luôn": 7195,
      "ngưòi": 7196,
      "gor": 7197,
      "tảo": 7198,
      "Ấm": 7199,
      "Sún": 7200,
      "Janet": 7201,
      "thuồng": 7202,
      "Gal": 7203,
      "SS": 7204,
      "Tuất": 7205,
      "Stephan": 7206,
      "quotĐây": 7207,
      "Hoả": 7208,
      "rìa": 7209,
      "hự": 7210,
      "Hog": 7211,
      "quotMẹ": 7212,
      "dặc": 7213,
      "cen": 7214,
      "ev": 7215,
      "quotĐừng": 7216,
      "tâng": 7217,
      "khò": 7218,
      "Noel": 7219,
      "fred": 7220,
      "ww": 7221,
      "Đẩu": 7222,
      "Đàng": 7223,
      "issi": 7224,
      "rystal": 7225,
      "Chút": 7226,
      "Dun": 7227,
      "Mươi": 7228,
      "nhuốm": 7229,
      "lởm": 7230,
      "Sưu": 7231,
      "hởi": 7232,
      "Nắm": 7233,
      "Pau": 7234,
      "gus": 7235,
      "Châm": 7236,
      "nin": 7237,
      "đâyquot": 7238,
      "54": 7239,
      "Los": 7240,
      "Pippi": 7241,
      "xang": 7242,
      "Quặt": 7243,
      "Ôm": 7244,
      "ques": 7245,
      "rợp": 7246,
      "hóng": 7247,
      "ƯỚ": 7248,
      "trớ": 7249,
      "ngưu": 7250,
      "Steve": 7251,
      "Califor": 7252,
      "quotTrong": 7253,
      "quotAi": 7254,
      "rưởi": 7255,
      "phắc": 7256,
      "mành": 7257,
      "xoàng": 7258,
      "Hôi": 7259,
      "Pen": 7260,
      "ser": 7261,
      "Cat": 7262,
      "Luke": 7263,
      "1i": 7264,
      "dơi": 7265,
      "gông": 7266,
      "Thở": 7267,
      "Ellen": 7268,
      "Ừm": 7269,
      "cộp": 7270,
      "thó": 7271,
      "kawa": 7272,
      "xy": 7273,
      "Thiểm": 7274,
      "rit": 7275,
      "trặc": 7276,
      "nịch": 7277,
      "sus": 7278,
      "Làn": 7279,
      "Nhựt": 7280,
      "Min": 7281,
      "sồi": 7282,
      "gặng": 7283,
      "mứt": 7284,
      "nhại": 7285,
      "chơ": 7286,
      "Napol": 7287,
      "lụi": 7288,
      "2000": 7289,
      "xén": 7290,
      "Chơn": 7291,
      "liano": 7292,
      "Gino": 7293,
      "Bão": 7294,
      "bụm": 7295,
      "amp7843": 7296,
      "loãng": 7297,
      "hủi": 7298,
      "Gon": 7299,
      "bấn": 7300,
      "Napoléon": 7301,
      "Kiểu": 7302,
      "bón": 7303,
      "ấỵ": 7304,
      "Clay": 7305,
      "leng": 7306,
      "lèn": 7307,
      "Mur": 7308,
      "bủn": 7309,
      "HỌ": 7310,
      "Bel": 7311,
      "xếch": 7312,
      "tã": 7313,
      "rữa": 7314,
      "quắp": 7315,
      "xẻng": 7316,
      "Áp": 7317,
      "Pho": 7318,
      "..-": 7319,
      "gàn": 7320,
      "rốn": 7321,
      "!!!": 7322,
      "Natasa": 7323,
      "amp244ng": 7324,
      "ir": 7325,
      "ut": 7326,
      "ze": 7327,
      "trệ": 7328,
      "gue": 7329,
      "Liếc": 7330,
      "nong": 7331,
      "đoá": 7332,
      "Black": 7333,
      "Thai": 7334,
      "Sô": 7335,
      "phũ": 7336,
      "Khoát": 7337,
      "mar": 7338,
      "tòi": 7339,
      "vông": 7340,
      "ngs": 7341,
      "ẬT": 7342,
      "Đổ": 7343,
      "quặn": 7344,
      "Giấy": 7345,
      "ĐCSTQ": 7346,
      "gí": 7347,
      "mánh": 7348,
      "thóp": 7349,
      "Lạnh": 7350,
      "Rời": 7351,
      "rớm": 7352,
      "ỵt": 7353,
      "nhàm": 7354,
      "Rosie": 7355,
      "lạo": 7356,
      "Ngà": 7357,
      "rỗ": 7358,
      "quotngười": 7359,
      "húc": 7360,
      "khuỵu": 7361,
      "lõi": 7362,
      "Andrew": 7363,
      "Mảnh": 7364,
      "ges": 7365,
      "Sấm": 7366,
      "Chia": 7367,
      "Spen": 7368,
      "hác": 7369,
      "đung": 7370,
      "đằm": 7371,
      "kie": 7372,
      "!....": 7373,
      "1960": 7374,
      "Crystal": 7375,
      "quotVâng": 7376,
      "xầm": 7377,
      "chác": 7378,
      "Haw": 7379,
      "Đới": 7380,
      "ngạn": 7381,
      "dáo": 7382,
      "bấc": 7383,
      "Đấu": 7384,
      "Kon": 7385,
      "Tẩn": 7386,
      "Vold": 7387,
      "trác": 7388,
      "Fre": 7389,
      "xú": 7390,
      "sượng": 7391,
      "tráp": 7392,
      "Gray": 7393,
      "Jones": 7394,
      "emort": 7395,
      "chớm": 7396,
      "Mệt": 7397,
      "dio": 7398,
      "Lôn": 7399,
      "trờ": 7400,
      "188": 7401,
      "Ter": 7402,
      "gờ": 7403,
      "lèo": 7404,
      "ngẩm": 7405,
      "Andrey": 7406,
      "mond": 7407,
      "tủa": 7408,
      "Voldemort": 7409,
      "ràn": 7410,
      "Vang": 7411,
      "đâuquot": 7412,
      "dale": 7413,
      "cỗi": 7414,
      "pen": 7415,
      "toái": 7416,
      "Alô": 7417,
      "Lụa": 7418,
      "Alfred": 7419,
      "Draco": 7420,
      "kèo": 7421,
      "tằm": 7422,
      "vói": 7423,
      "Thung": 7424,
      "Mas": 7425,
      "amp236": 7426,
      "amp7899": 7427,
      "Sảnh": 7428,
      "Guiliano": 7429,
      "thẹo": 7430,
      "At": 7431,
      "ER": 7432,
      "lảm": 7433,
      "xiềng": 7434,
      "bủa": 7435,
      "California": 7436,
      "nor": 7437,
      "stan": 7438,
      "Táng": 7439,
      "Bầy": 7440,
      "Dani": 7441,
      "ẽo": 7442,
      "đĩnh": 7443,
      "nhiếc": 7444,
      "ima": 7445,
      "trịch": 7446,
      "Siri": 7447,
      "58": 7448,
      "68": 7449,
      "hẵng": 7450,
      "vảng": 7451,
      "Viet": 7452,
      "2007": 7453,
      "Thơm": 7454,
      "lar": 7455,
      "ÂM": 7456,
      "Bỉnh": 7457,
      "khập": 7458,
      "......": 7459,
      "!..": 7460,
      "nấng": 7461,
      "tróc": 7462,
      "1968": 7463,
      "xốn": 7464,
      "lus": 7465,
      "ngòai": 7466,
      "quotĐúng": 7467,
      "xoè": 7468,
      "kẽm": 7469,
      "51": 7470,
      "Xám": 7471,
      "ec": 7472,
      "hùa": 7473,
      "lợt": 7474,
      "quotcon": 7475,
      "Sỹ": 7476,
      "lliver": 7477,
      "Shi": 7478,
      "bot": 7479,
      "Vai": 7480,
      "kes": 7481,
      "oái": 7482,
      "wood": 7483,
      "Spencer": 7484,
      "Rập": 7485,
      "ju": 7486,
      "yo": 7487,
      "nhớp": 7488,
      "Valen": 7489,
      "chạnh": 7490,
      "Chán": 7491,
      "kệch": 7492,
      "thè": 7493,
      "đoái": 7494,
      "chím": 7495,
      "đui": 7496,
      "chùn": 7497,
      "quotTrương": 7498,
      "Quen": 7499,
      "aud": 7500,
      "berg": 7501,
      "Hệ": 7502,
      "Huyệt": 7503,
      "zov": 7504,
      "Gulliver": 7505,
      "OK": 7506,
      "cược": 7507,
      "hóc": 7508,
      "nạng": 7509,
      "nhầy": 7510,
      "mích": 7511,
      "chửng": 7512,
      "rikô": 7513,
      "rạn": 7514,
      "Lắm": 7515,
      "Ghi": 7516,
      "Taran": 7517,
      "tôị": 7518,
      "Say": 7519,
      "69": 7520,
      "tủy": 7521,
      "Ngón": 7522,
      "mìnhquot": 7523,
      "Eden": 7524,
      "Ám": 7525,
      "Nhục": 7526,
      "1972": 7527,
      "trát": 7528,
      "Lũy": 7529,
      "ben": 7530,
      "Nancy": 7531,
      "ouk": 7532,
      "Olivia": 7533,
      "Bona": 7534,
      "Cú": 7535,
      "low": 7536,
      "nhố": 7537,
      "Kệ": 7538,
      "thớ": 7539,
      "quotLàm": 7540,
      "OnlineĐược": 7541,
      "Hứ": 7542,
      "Xê": 7543,
      "Bảng": 7544,
      "vấy": 7545,
      "đảnh": 7546,
      "hoắc": 7547,
      "nghĩnh": 7548,
      "eron": 7549,
      "húi": 7550,
      "rỏi": 7551,
      "vừng": 7552,
      "Cas": 7553,
      "sậm": 7554,
      "NGUY": 7555,
      "Dựa": 7556,
      "lêu": 7557,
      "nhằng": 7558,
      "Phất": 7559,
      "Nôrikô": 7560,
      "Yoshi": 7561,
      "Lee": 7562,
      "Xí": 7563,
      "bel": 7564,
      "sụa": 7565,
      "amp82": 7566,
      "đôla": 7567,
      "Nekh": 7568,
      "Đavư": 7569,
      "Đavưđốp": 7570,
      "Điệu": 7571,
      "cker": 7572,
      "Nekhliu": 7573,
      "TV": 7574,
      "Khảo": 7575,
      "tong": 7576,
      "vót": 7577,
      "đênh": 7578,
      "lou": 7579,
      "Giã": 7580,
      "sậy": 7581,
      "ngấy": 7582,
      "Nhành": 7583,
      "ngoi": 7584,
      "thiếc": 7585,
      "aux": 7586,
      "Kissi": 7587,
      "kins": 7588,
      "sằng": 7589,
      "Thịt": 7590,
      "Ngâu": 7591,
      "Gold": 7592,
      "UNG": 7593,
      "Tuế": 7594,
      "Petro": 7595,
      "chỏ": 7596,
      "ric": 7597,
      "muống": 7598,
      "rd": 7599,
      "Nhượng": 7600,
      "quotChỉ": 7601,
      "Nghề": 7602,
      "xổm": 7603,
      "TA": 7604,
      "bẵng": 7605,
      "máo": 7606,
      "rụi": 7607,
      "Xte": 7608,
      "vích": 7609,
      "đác": 7610,
      "ruổi": 7611,
      "Kissinger": 7612,
      "ÀY": 7613,
      "quotKhi": 7614,
      "Mát": 7615,
      "giun": 7616,
      "Nhảy": 7617,
      "Jessie": 7618,
      "tein": 7619,
      "Loài": 7620,
      "TÔ": 7621,
      "Bun": 7622,
      "Ita": 7623,
      "bửa": 7624,
      "1965": 7625,
      "lda": 7626,
      "garet": 7627,
      "Internet": 7628,
      "khảnh": 7629,
      "67": 7630,
      "bợm": 7631,
      "thặng": 7632,
      "quotCòn": 7633,
      "Rosa": 7634,
      "Mị": 7635,
      "Sẵn": 7636,
      "tày": 7637,
      "Canada": 7638,
      "Nùng": 7639,
      "gáo": 7640,
      "xị": 7641,
      "nhăm": 7642,
      "chày": 7643,
      "Buôn": 7644,
      "Khuông": 7645,
      "tíu": 7646,
      "Ngoạn": 7647,
      "gồ": 7648,
      "xở": 7649,
      "cứa": 7650,
      "dìm": 7651,
      "vậyquot": 7652,
      "nhột": 7653,
      "Plan": 7654,
      "Thả": 7655,
      "phone": 7656,
      "Eu": 7657,
      "bỡ": 7658,
      "dợm": 7659,
      "háy": 7660,
      "ngụt": 7661,
      "loảng": 7662,
      "amp160": 7663,
      "Charlie": 7664,
      "lóa": 7665,
      "quotThật": 7666,
      "nớt": 7667,
      "đì": 7668,
      "Pla": 7669,
      "trũng": 7670,
      "ÁI": 7671,
      "Taylor": 7672,
      "BÀ": 7673,
      "Uẩn": 7674,
      "díu": 7675,
      "ant": 7676,
      "trau": 7677,
      "MỘT": 7678,
      "tơn": 7679,
      "Lật": 7680,
      "dác": 7681,
      "hanouk": 7682,
      "rức": 7683,
      "sãi": 7684,
      "xúp": 7685,
      "tron": 7686,
      "Cra": 7687,
      "Hỗn": 7688,
      "IÊN": 7689,
      "Miếu": 7690,
      "thia": 7691,
      "180": 7692,
      "Lisa": 7693,
      "CN": 7694,
      "ôtô": 7695,
      "quotVì": 7696,
      "Oan": 7697,
      "vồn": 7698,
      "trừu": 7699,
      "Leigh": 7700,
      "nhởn": 7701,
      "Bậc": 7702,
      "rủn": 7703,
      "MA": 7704,
      "tênh": 7705,
      "Bả": 7706,
      "vỏn": 7707,
      "?)": 7708,
      "nằng": 7709,
      "zar": 7710,
      "Xú": 7711,
      "Toby": 7712,
      "quotHai": 7713,
      "dát": 7714,
      "Ted": 7715,
      "sọt": 7716,
      "rey": 7717,
      "amp234n": 7718,
      "vuột": 7719,
      "Ral": 7720,
      "Chốc": 7721,
      "nuông": 7722,
      "ckey": 7723,
      "ấyquot": 7724,
      "Phạn": 7725,
      "quotĐó": 7726,
      "Janna": 7727,
      "Kích": 7728,
      "Thưởng": 7729,
      "ely": 7730,
      "trứ": 7731,
      "Chăm": 7732,
      "ghiếc": 7733,
      "Jos": 7734,
      "ft": 7735,
      "mèm": 7736,
      "gồng": 7737,
      "ers": 7738,
      "Margaret": 7739,
      "amp226": 7740,
      "Ann": 7741,
      "xỉn": 7742,
      "cở": 7743,
      "Ama": 7744,
      "Mịch": 7745,
      "tót": 7746,
      "Whi": 7747,
      "liến": 7748,
      "tau": 7749,
      "Thợ": 7750,
      "aia": 7751,
      "Chồn": 7752,
      "cou": 7753,
      "Tẫn": 7754,
      "kịt": 7755,
      "ngùn": 7756,
      "Giúp": 7757,
      "Stephany": 7758,
      "ỀN": 7759,
      "cock": 7760,
      "Tia": 7761,
      "đựơc": 7762,
      "Đởm": 7763,
      "tè": 7764,
      "Ple": 7765,
      "sượt": 7766,
      "dỏng": 7767,
      "gra": 7768,
      "Cameron": 7769,
      "khạo": 7770,
      "sam": 7771,
      "Liễn": 7772,
      "Tầu": 7773,
      "THỨ": 7774,
      "huơ": 7775,
      "thượt": 7776,
      "Sihanouk": 7777,
      "ngăm": 7778,
      "kiểng": 7779,
      "Phút": 7780,
      "goá": 7781,
      "Sirius": 7782,
      "ních": 7783,
      "Lans": 7784,
      "sạp": 7785,
      "anhquot": 7786,
      "Alek": 7787,
      "1946": 7788,
      "vậỵ": 7789,
      "64": 7790,
      "Gabri": 7791,
      "St": 7792,
      "cưu": 7793,
      "Phen": 7794,
      "lles": 7795,
      "Ray": 7796,
      "mao": 7797,
      "nghẽn": 7798,
      "rus": 7799,
      "Đích": 7800,
      "xiếc": 7801,
      "taỵ": 7802,
      "Phép": 7803,
      "bêu": 7804,
      "gạn": 7805,
      "lọn": 7806,
      "nhựt": 7807,
      "Connor": 7808,
      "phụt": 7809,
      "ngộp": 7810,
      "Athos": 7811,
      "zy": 7812,
      "ald": 7813,
      "Niết": 7814,
      "mão": 7815,
      "Sara": 7816,
      "gảy": 7817,
      "62": 7818,
      "Nekhliudov": 7819,
      "velt": 7820,
      "Khán": 7821,
      "LÀ": 7822,
      "cụi": 7823,
      "ée": 7824,
      "Yan": 7825,
      "Khơ": 7826,
      "trĩ": 7827,
      "Jilly": 7828,
      "Chủng": 7829,
      "Darcy": 7830,
      "cộm": 7831,
      "rs": 7832,
      "xèo": 7833,
      "quotMày": 7834,
      "1973": 7835,
      "Bề": 7836,
      "lf": 7837,
      "ụn": 7838,
      "Lis": 7839,
      "Hoạch": 7840,
      "luỹ": 7841,
      "Abel": 7842,
      "Xoa": 7843,
      "py": 7844,
      "Trải": 7845,
      "Suýt": 7846,
      "EN": 7847,
      "Dai": 7848,
      "Leo": 7849,
      "VII": 7850,
      "tép": 7851,
      "quotĐược": 7852,
      "Vượt": 7853,
      "wen": 7854,
      "bridge": 7855,
      "quotBây": 7856,
      "gổ": 7857,
      "fé": 7858,
      "rụa": 7859,
      "vè": 7860,
      "vre": 7861,
      "gióng": 7862,
      "rov": 7863,
      "field": 7864,
      "khê": 7865,
      "quờ": 7866,
      "Sal": 7867,
      "Nguỵ": 7868,
      "Meggie": 7869,
      "Nền": 7870,
      "Hỏng": 7871,
      "Tù": 7872,
      "quẫn": 7873,
      "quotChị": 7874,
      "Dax": 7875,
      "Karl": 7876,
      "Ngần": 7877,
      "ngợp": 7878,
      "Nhụy": 7879,
      "lock": 7880,
      "mun": 7881,
      "Lãi": 7882,
      "nứa": 7883,
      "Dậy": 7884,
      "IX": 7885,
      "xẩm": 7886,
      "Trứ": 7887,
      "Pô": 7888,
      "Sar": 7889,
      "Za": 7890,
      "cuội": 7891,
      "huỵch": 7892,
      "hên": 7893,
      "lém": 7894,
      "rói": 7895,
      "Non": 7896,
      "huỳnh": 7897,
      "Bos": 7898,
      "!)": 7899,
      "cặm": 7900,
      "tic": 7901,
      "Aliosa": 7902,
      "Gera": 7903,
      "tréo": 7904,
      "Nghỉ": 7905,
      "Toa": 7906,
      "Scott": 7907,
      "Vôn": 7908,
      "tsi": 7909,
      "nhẩu": 7910,
      "Tiệc": 7911,
      "mống": 7912,
      "sse": 7913,
      "Khmer": 7914,
      "bờm": 7915,
      "Chử": 7916,
      "quotLão": 7917,
      "nghiễm": 7918,
      "Vội": 7919,
      "amp7889": 7920,
      "Bụi": 7921,
      "ruồng": 7922,
      "chin": 7923,
      "Pháo": 7924,
      "nhải": 7925,
      "Jê": 7926,
      "Kì": 7927,
      "rik": 7928,
      "Sợi": 7929,
      "Giăng": 7930,
      "sờn": 7931,
      "rence": 7932,
      "Mou": 7933,
      "răm": 7934,
      "more": 7935,
      "arik": 7936,
      "fan": 7937,
      "vằn": 7938,
      "thẩy": 7939,
      "trầy": 7940,
      "nần": 7941,
      "Kat": 7942,
      "Hổng": 7943,
      "đớp": 7944,
      "thếquot": 7945,
      "vy": 7946,
      "ic": 7947,
      "Đồn": 7948,
      "giãi": 7949,
      "bốt": 7950,
      "Giặc": 7951,
      "Shel": 7952,
      "Ralph": 7953,
      "Cống": 7954,
      "sình": 7955,
      "Đuy": 7956,
      "cas": 7957,
      "xand": 7958,
      "quotVà": 7959,
      "CON": 7960,
      "biền": 7961,
      "dấm": 7962,
      "tter": 7963,
      "Cáo": 7964,
      "nôm": 7965,
      "col": 7966,
      "Tựa": 7967,
      "bưởi": 7968,
      "xia": 7969,
      "Phồn": 7970,
      "Đạn": 7971,
      "warts": 7972,
      "FBI": 7973,
      "ngườiquot": 7974,
      "phiá": 7975,
      "Santa": 7976,
      "Sou": 7977,
      "lỏn": 7978,
      "fia": 7979,
      "law": 7980,
      "đưọc": 7981,
      "Ten": 7982,
      "Đống": 7983,
      "61": 7984,
      "Cấu": 7985,
      "súp": 7986,
      "phia": 7987,
      "Thốt": 7988,
      "Roy": 7989,
      "Moan": 7990,
      "emy": 7991,
      "For": 7992,
      "khấp": 7993,
      "ese": 7994,
      "Nặc": 7995,
      "US": 7996,
      "uri": 7997,
      "nhâm": 7998,
      "gna": 7999,
      "mạp": 8000,
      "Nổi": 8001,
      "Giảng": 8002,
      "trảm": 8003,
      "Thiến": 8004,
      "Ngon": 8005,
      "Os": 8006,
      "chạ": 8007,
      "hoắt": 8008,
      "Chiểu": 8009,
      "giẫy": 8010,
      "Ginny": 8011,
      "Hanh": 8012,
      "gẫm": 8013,
      "ÊU": 8014,
      "1950": 8015,
      "oằn": 8016,
      "Đều": 8017,
      "nhéo": 8018,
      "truất": 8019,
      "Luồng": 8020,
      "nhuần": 8021,
      "Loa": 8022,
      "Kern": 8023,
      "quotCháu": 8024,
      "Ci": 8025,
      "khải": 8026,
      "Phê": 8027,
      "quotmột": 8028,
      "Mad": 8029,
      "guộc": 8030,
      "lắmquot": 8031,
      "ễng": 8032,
      "bour": 8033,
      "Arthos": 8034,
      "Kelly": 8035,
      "TO": 8036,
      "phỉnh": 8037,
      "Neville": 8038,
      "Hogwarts": 8039,
      "cta": 8040,
      "THẦN": 8041,
      "Nại": 8042,
      "Đái": 8043,
      "Giu": 8044,
      "nấn": 8045,
      "xk": 8046,
      "Chén": 8047,
      "quotThiên": 8048,
      "eni": 8049,
      "cùm": 8050,
      "Caroline": 8051,
      ",...": 8052,
      "lamp224": 8053,
      "gas": 8054,
      "1974": 8055,
      "VIII": 8056,
      "chàm": 8057,
      "Tuyển": 8058,
      "Thiềm": 8059,
      "lins": 8060,
      "Yếu": 8061,
      "chội": 8062,
      "Abbie": 8063,
      "nơm": 8064,
      "Cúi": 8065,
      "xóc": 8066,
      "Toản": 8067,
      "hớ": 8068,
      "vểnh": 8069,
      "rat": 8070,
      "Bern": 8071,
      "NGÀY": 8072,
      "ac": 8073,
      "Điệt": 8074,
      "Súng": 8075,
      "chun": 8076,
      "Chậm": 8077,
      "Tráng": 8078,
      "bor": 8079,
      "núc": 8080,
      "amin": 8081,
      "Bốp": 8082,
      "1964": 8083,
      "hợt": 8084,
      "khều": 8085,
      "gueri": 8086,
      "Bren": 8087,
      "Há": 8088,
      "dele": 8089,
      "xìu": 8090,
      "Duyệt": 8091,
      "Mạ": 8092,
      "pro": 8093,
      "Pê": 8094,
      "Pai": 8095,
      "ffin": 8096,
      "Temple": 8097,
      "Sto": 8098,
      "Cal": 8099,
      "Hụ": 8100,
      "lúi": 8101,
      "Brown": 8102,
      "Ấp": 8103,
      "háu": 8104,
      "Alexandre": 8105,
      "anô": 8106,
      "rôm": 8107,
      "rướm": 8108,
      "Điếu": 8109,
      "rôn": 8110,
      "rọt": 8111,
      "quet": 8112,
      "Trạm": 8113,
      "loà": 8114,
      "Bru": 8115,
      "nhọ": 8116,
      "lạị": 8117,
      "Lor": 8118,
      "sướt": 8119,
      "Hal": 8120,
      "Sái": 8121,
      "Wen": 8122,
      "tào": 8123,
      "Ráng": 8124,
      "rướn": 8125,
      "sạm": 8126,
      "Đổi": 8127,
      "diết": 8128,
      "Bỉ": 8129,
      "sái": 8130,
      "quotNói": 8131,
      "Kháng": 8132,
      "ess": 8133,
      "Rớt": 8134,
      "Đóng": 8135,
      "ƯỢ": 8136,
      "Khuya": 8137,
      "Carlo": 8138,
      "túa": 8139,
      "150": 8140,
      "Asa": 8141,
      "bậm": 8142,
      "gắm": 8143,
      "val": 8144,
      "wer": 8145,
      "quặt": 8146,
      "hạp": 8147,
      "Anto": 8148,
      "1970": 8149,
      "Margueri": 8150,
      "sica": 8151,
      "thọt": 8152,
      "Hít": 8153,
      "Thâu": 8154,
      "lộp": 8155,
      "Hưu": 8156,
      "ting": 8157,
      "trủy": 8158,
      "vợt": 8159,
      "Daniel": 8160,
      "mọp": 8161,
      "quotChẳng": 8162,
      "Niko": 8163,
      "lụng": 8164,
      "tụm": 8165,
      "eng": 8166,
      "khản": 8167,
      "ans": 8168,
      "Cỗ": 8169,
      "quạu": 8170,
      "Hụê": 8171,
      "thửa": 8172,
      "phấp": 8173,
      "nghệch": 8174,
      "Vla": 8175,
      "cảquot": 8176,
      "zin": 8177,
      "Giàu": 8178,
      "Gry": 8179,
      "Lơ": 8180,
      "tiễu": 8181,
      "Land": 8182,
      "đởm": 8183,
      "khúm": 8184,
      ").-": 8185,
      "yd": 8186,
      "Lucia": 8187,
      "Nhuệ": 8188,
      "ởng": 8189,
      "phình": 8190,
      "Chống": 8191
    },
    "merges": [
      [
        "n",
        "g"
      ],
      [
        "n",
        "h"
      ],
      [
        "c",
        "h"
      ],
      [
        "t",
        "h"
      ],
      [
        "k",
        "h"
      ],
      [
        "t",
        "r"
      ],
      [
        "ô",
        "ng"
      ],
      [
        "ê",
        "n"
      ],
      [
        "ờ",
        "i"
      ],
      [
        "p",
        "h"
      ],
      [
        "l",
        "à"
      ],
      [
        "i",
        "ế"
      ],
      [
        "q",
        "u"
      ],
      [
        "g",
        "i"
      ],
      [
        "kh",
        "ông"
      ],
      [
        "ộ",
        "t"
      ],
      [
        "v",
        "à"
      ],
      [
        "ô",
        "i"
      ],
      [
        "ạ",
        "i"
      ],
      [
        "ư",
        "ời"
      ],
      [
        "m",
        "ột"
      ],
      [
        "c",
        "ó"
      ],
      [
        "ớ",
        "i"
      ],
      [
        "ủ",
        "a"
      ],
      [
        "c",
        "ủa"
      ],
      [
        "u",
        "y"
      ],
      [
        "ấ",
        "y"
      ],
      [
        "i",
        "ệ"
      ],
      [
        "n",
        "ó"
      ],
      [
        "t",
        "a"
      ],
      [
        "T",
        "h"
      ],
      [
        "ư",
        "ợ"
      ],
      [
        "a",
        "nh"
      ],
      [
        "â",
        "n"
      ],
      [
        "n",
        "à"
      ],
      [
        "o",
        "ng"
      ],
      [
        "ấ",
        "t"
      ],
      [
        "ư",
        "ơ"
      ],
      [
        "nh",
        "ư"
      ],
      [
        "ng",
        "ười"
      ],
      [
        "ì",
        "nh"
      ],
      [
        "a",
        "i"
      ],
      [
        "c",
        "á"
      ],
      [
        "đ",
        "i"
      ],
      [
        "r",
        "a"
      ],
      [
        "đ",
        "ã"
      ],
      [
        "a",
        "o"
      ],
      [
        "nó",
        "i"
      ],
      [
        "ư",
        "ớ"
      ],
      [
        "ượ",
        "c"
      ],
      [
        "l",
        "ại"
      ],
      [
        "ch",
        "o"
      ],
      [
        "ươ",
        "ng"
      ],
      [
        "t",
        "ôi"
      ],
      [
        "u",
        "ố"
      ],
      [
        "a",
        "y"
      ],
      [
        "ả",
        "i"
      ],
      [
        "ồ",
        "i"
      ],
      [
        "ầ",
        "n"
      ],
      [
        "ng",
        "h"
      ],
      [
        "C",
        "h"
      ],
      [
        "a",
        "ng"
      ],
      [
        "à",
        "ng"
      ],
      [
        "đ",
        "ược"
      ],
      [
        "m",
        "à"
      ],
      [
        "o",
        "n"
      ],
      [
        "ế",
        "n"
      ],
      [
        "i",
        "ên"
      ],
      [
        "a",
        "n"
      ],
      [
        "iế",
        "t"
      ],
      [
        "â",
        "y"
      ],
      [
        "ũ",
        "ng"
      ],
      [
        "ướ",
        "c"
      ],
      [
        "tr",
        "ong"
      ],
      [
        "ữ",
        "ng"
      ],
      [
        "N",
        "g"
      ],
      [
        "i",
        "nh"
      ],
      [
        "c",
        "ũng"
      ],
      [
        "v",
        "ới"
      ],
      [
        "ề",
        "u"
      ],
      [
        "đ",
        "ó"
      ],
      [
        "ậ",
        "t"
      ],
      [
        ".",
        "."
      ],
      [
        "đ",
        "ến"
      ],
      [
        "a",
        "u"
      ],
      [
        "N",
        "h"
      ],
      [
        "â",
        "u"
      ],
      [
        "th",
        "ì"
      ],
      [
        "T",
        "r"
      ],
      [
        "ế",
        "t"
      ],
      [
        "ầ",
        "u"
      ],
      [
        "ph",
        "ải"
      ],
      [
        "c",
        "ả"
      ],
      [
        "là",
        "m"
      ],
      [
        "à",
        "n"
      ],
      [
        "ư",
        "ờ"
      ],
      [
        "nh",
        "ững"
      ],
      [
        "và",
        "o"
      ],
      [
        "ò",
        "n"
      ],
      [
        "á",
        "c"
      ],
      [
        "ú",
        "ng"
      ],
      [
        "ườ",
        "ng"
      ],
      [
        "c",
        "on"
      ],
      [
        "e",
        "m"
      ],
      [
        "á",
        "i"
      ],
      [
        "à",
        "i"
      ],
      [
        "P",
        "h"
      ],
      [
        "nà",
        "y"
      ],
      [
        "ắ",
        "t"
      ],
      [
        "ù",
        "ng"
      ],
      [
        "r",
        "ồi"
      ],
      [
        "l",
        "ên"
      ],
      [
        "o",
        "t"
      ],
      [
        "g",
        "ì"
      ],
      [
        "ú",
        "c"
      ],
      [
        "ề",
        "n"
      ],
      [
        "i",
        "ể"
      ],
      [
        "qu",
        "ot"
      ],
      [
        "ư",
        "a"
      ],
      [
        "đ",
        "ể"
      ],
      [
        "t",
        "iế"
      ],
      [
        "ậ",
        "n"
      ],
      [
        "ằ",
        "ng"
      ],
      [
        "th",
        "ấy"
      ],
      [
        "v",
        "ề"
      ],
      [
        "c",
        "ô"
      ],
      [
        "b",
        "iết"
      ],
      [
        "à",
        "nh"
      ],
      [
        "ặ",
        "t"
      ],
      [
        "m",
        "ình"
      ],
      [
        "K",
        "h"
      ],
      [
        "c",
        "òn"
      ],
      [
        "ê",
        "u"
      ],
      [
        "ă",
        "n"
      ],
      [
        "ứ",
        "c"
      ],
      [
        "á",
        "t"
      ],
      [
        "ơ",
        "n"
      ],
      [
        "u",
        "ng"
      ],
      [
        "th",
        "ế"
      ],
      [
        "ố",
        "i"
      ],
      [
        "ậ",
        "y"
      ],
      [
        "uy",
        "ệ"
      ],
      [
        "h",
        "ọ"
      ],
      [
        "ỏ",
        "i"
      ],
      [
        "ắ",
        "c"
      ],
      [
        "ch",
        "ỉ"
      ],
      [
        "ò",
        "ng"
      ],
      [
        "đ",
        "á"
      ],
      [
        "ữ",
        "a"
      ],
      [
        "nà",
        "o"
      ],
      [
        "ừ",
        "ng"
      ],
      [
        "ồ",
        "ng"
      ],
      [
        "cá",
        "i"
      ],
      [
        "â",
        "m"
      ],
      [
        "ộ",
        "i"
      ],
      [
        "h",
        "ai"
      ],
      [
        "đ",
        "ầu"
      ],
      [
        "h",
        "o"
      ],
      [
        "th",
        "ể"
      ],
      [
        "ta",
        "y"
      ],
      [
        "ô",
        "n"
      ],
      [
        "ă",
        "m"
      ],
      [
        "iể",
        "u"
      ],
      [
        "kh",
        "i"
      ],
      [
        "ạ",
        "n"
      ],
      [
        "ì",
        "n"
      ],
      [
        "iệ",
        "n"
      ],
      [
        "ơ",
        "i"
      ],
      [
        "í",
        "nh"
      ],
      [
        "ự",
        "c"
      ],
      [
        "ố",
        "ng"
      ],
      [
        "nh",
        "à"
      ],
      [
        "á",
        "o"
      ],
      [
        "ộ",
        "c"
      ],
      [
        "t",
        "i"
      ],
      [
        "như",
        "ng"
      ],
      [
        "s",
        "ẽ"
      ],
      [
        "ẫ",
        "n"
      ],
      [
        "s",
        "ao"
      ],
      [
        "nh",
        "ìn"
      ],
      [
        "ắ",
        "n"
      ],
      [
        "uyệ",
        "n"
      ],
      [
        "b",
        "ị"
      ],
      [
        "ụ",
        "c"
      ],
      [
        "à",
        "y"
      ],
      [
        "m",
        "ặt"
      ],
      [
        "e",
        "o"
      ],
      [
        "i",
        "ều"
      ],
      [
        "ư",
        "ng"
      ],
      [
        "cá",
        "c"
      ],
      [
        "a",
        "m"
      ],
      [
        "ch",
        "úng"
      ],
      [
        "ẳ",
        "ng"
      ],
      [
        "ổ",
        "i"
      ],
      [
        "uố",
        "n"
      ],
      [
        "ả",
        "o"
      ],
      [
        "tr",
        "ên"
      ],
      [
        "á",
        "ng"
      ],
      [
        "ừ",
        "a"
      ],
      [
        "uố",
        "ng"
      ],
      [
        "t",
        "ừ"
      ],
      [
        "á",
        "ch"
      ],
      [
        "á",
        "n"
      ],
      [
        "ă",
        "ng"
      ],
      [
        "iế",
        "n"
      ],
      [
        "v",
        "ậy"
      ],
      [
        "ã",
        "o"
      ],
      [
        "ộ",
        "ng"
      ],
      [
        "gi",
        "ờ"
      ],
      [
        "T",
        "ôi"
      ],
      [
        "ầ",
        "m"
      ],
      [
        "ngh",
        "ĩ"
      ],
      [
        "đ",
        "ây"
      ],
      [
        "..",
        "."
      ],
      [
        "c",
        "ông"
      ],
      [
        "s",
        "ự"
      ],
      [
        "v",
        "ì"
      ],
      [
        "c",
        "ười"
      ],
      [
        "n",
        "ữa"
      ],
      [
        "tiế",
        "ng"
      ],
      [
        "ọ",
        "ng"
      ],
      [
        "m",
        "ắt"
      ],
      [
        "ứ",
        "ng"
      ],
      [
        "b",
        "à"
      ],
      [
        "n",
        "ên"
      ],
      [
        "tr",
        "ước"
      ],
      [
        "ê",
        "m"
      ],
      [
        "ử",
        "a"
      ],
      [
        "s",
        "au"
      ],
      [
        "ươ",
        "i"
      ],
      [
        "m",
        "ới"
      ],
      [
        "h",
        "ỏi"
      ],
      [
        "đ",
        "ang"
      ],
      [
        "iệ",
        "c"
      ],
      [
        "m",
        "uốn"
      ],
      [
        "nà",
        "ng"
      ],
      [
        "Q",
        "u"
      ],
      [
        "í",
        "ch"
      ],
      [
        "ế",
        "u"
      ],
      [
        "l",
        "úc"
      ],
      [
        "ậ",
        "p"
      ],
      [
        "ạ",
        "nh"
      ],
      [
        "nh",
        "ân"
      ],
      [
        "ngh",
        "e"
      ],
      [
        "A",
        "nh"
      ],
      [
        "ọ",
        "i"
      ],
      [
        "e",
        "n"
      ],
      [
        "ắ",
        "m"
      ],
      [
        "ư",
        "ở"
      ],
      [
        "t",
        "ới"
      ],
      [
        "đ",
        "âu"
      ],
      [
        "á",
        "nh"
      ],
      [
        "ưở",
        "ng"
      ],
      [
        "ả",
        "n"
      ],
      [
        "r",
        "ất"
      ],
      [
        "v",
        "iệc"
      ],
      [
        "ch",
        "ị"
      ],
      [
        "đ",
        "ị"
      ],
      [
        "ch",
        "uyện"
      ],
      [
        "c",
        "ùng"
      ],
      [
        "ch",
        "àng"
      ],
      [
        "t",
        "o"
      ],
      [
        "th",
        "eo"
      ],
      [
        "ọ",
        "n"
      ],
      [
        "x",
        "uống"
      ],
      [
        "v",
        "ừa"
      ],
      [
        "qu",
        "a"
      ],
      [
        "ạ",
        "c"
      ],
      [
        "v",
        "ẫn"
      ],
      [
        "th",
        "ành"
      ],
      [
        "iệ",
        "t"
      ],
      [
        "i",
        "a"
      ],
      [
        "ượ",
        "ng"
      ],
      [
        "ng",
        "ày"
      ],
      [
        "h",
        "ơn"
      ],
      [
        "ạ",
        "o"
      ],
      [
        "H",
        "o"
      ],
      [
        "i",
        "n"
      ],
      [
        "ú",
        "t"
      ],
      [
        "ồ",
        "n"
      ],
      [
        "ọ",
        "c"
      ],
      [
        "ầ",
        "y"
      ],
      [
        "c",
        "ứ"
      ],
      [
        "l",
        "o"
      ],
      [
        "l",
        "ời"
      ],
      [
        "á",
        "m"
      ],
      [
        "uy",
        "ên"
      ],
      [
        "th",
        "ật"
      ],
      [
        "ắ",
        "ng"
      ],
      [
        "u",
        "ộc"
      ],
      [
        "ặ",
        "c"
      ],
      [
        "à",
        "o"
      ],
      [
        "n",
        "ăm"
      ],
      [
        "ng",
        "o"
      ],
      [
        "l",
        "ão"
      ],
      [
        "ch",
        "ẳng"
      ],
      [
        "Nh",
        "ưng"
      ],
      [
        "b",
        "a"
      ],
      [
        "i",
        "ền"
      ],
      [
        "n",
        "ước"
      ],
      [
        "b",
        "ên"
      ],
      [
        "ch",
        "ưa"
      ],
      [
        "cá",
        "ch"
      ],
      [
        "ậ",
        "u"
      ],
      [
        "ấ",
        "n"
      ],
      [
        "r",
        "ằng"
      ],
      [
        "nh",
        "iên"
      ],
      [
        "ỗ",
        "i"
      ],
      [
        "i",
        "êu"
      ],
      [
        "nh",
        "iều"
      ],
      [
        "kh",
        "ác"
      ],
      [
        "h",
        "ay"
      ],
      [
        "l",
        "u"
      ],
      [
        "G",
        "i"
      ],
      [
        "á",
        "u"
      ],
      [
        "l",
        "ấy"
      ],
      [
        "t",
        "ình"
      ],
      [
        "i",
        "m"
      ],
      [
        "t",
        "ự"
      ],
      [
        "iế",
        "u"
      ],
      [
        "ạ",
        "t"
      ],
      [
        "đ",
        "ộng"
      ],
      [
        "ố",
        "t"
      ],
      [
        "ó",
        "c"
      ],
      [
        "ố",
        "c"
      ],
      [
        "h",
        "ết"
      ],
      [
        "l",
        "ớ"
      ],
      [
        "iệ",
        "u"
      ],
      [
        "l",
        "òng"
      ],
      [
        "qu",
        "á"
      ],
      [
        "qu",
        "an"
      ],
      [
        "nh",
        "ất"
      ],
      [
        "ấ",
        "u"
      ],
      [
        "th",
        "ân"
      ],
      [
        "nh",
        "au"
      ],
      [
        "đi",
        "ều"
      ],
      [
        "ạ",
        "ch"
      ],
      [
        "đ",
        "ại"
      ],
      [
        "đ",
        "ường"
      ],
      [
        "ố",
        "n"
      ],
      [
        "ô",
        "m"
      ],
      [
        "Kh",
        "ông"
      ],
      [
        "t",
        "u"
      ],
      [
        "iế",
        "m"
      ],
      [
        "cả",
        "m"
      ],
      [
        "ấ",
        "p"
      ],
      [
        "ặ",
        "p"
      ],
      [
        "qu",
        "y"
      ],
      [
        "b",
        "ao"
      ],
      [
        "b",
        "u"
      ],
      [
        "h",
        "ạ"
      ],
      [
        "iế",
        "c"
      ],
      [
        "ạ",
        "y"
      ],
      [
        "b",
        "ằng"
      ],
      [
        ".",
        "-"
      ],
      [
        "đ",
        "ều"
      ],
      [
        "ch",
        "ết"
      ],
      [
        "th",
        "u"
      ],
      [
        "n",
        "ay"
      ],
      [
        "đ",
        "ứng"
      ],
      [
        "ả",
        "y"
      ],
      [
        "ì",
        "m"
      ],
      [
        "á",
        "p"
      ],
      [
        "đị",
        "nh"
      ],
      [
        "h",
        "ắn"
      ],
      [
        "ả",
        "ng"
      ],
      [
        "ch",
        "ủ"
      ],
      [
        "m",
        "ẹ"
      ],
      [
        "ch",
        "ính"
      ],
      [
        "t",
        "ại"
      ],
      [
        "ng",
        "ươi"
      ],
      [
        "b",
        "ảo"
      ],
      [
        "ướ",
        "ng"
      ],
      [
        "C",
        "ô"
      ],
      [
        "đ",
        "ưa"
      ],
      [
        "tr",
        "ở"
      ],
      [
        "nh",
        "ận"
      ],
      [
        "ó",
        "ng"
      ],
      [
        "l",
        "ần"
      ],
      [
        "ng",
        "ồi"
      ],
      [
        "t",
        "ử"
      ],
      [
        "lớ",
        "n"
      ],
      [
        "é",
        "t"
      ],
      [
        "kh",
        "o"
      ],
      [
        "họ",
        "c"
      ],
      [
        "gi",
        "a"
      ],
      [
        "t",
        "âm"
      ],
      [
        "b",
        "ạn"
      ],
      [
        "tiế",
        "p"
      ],
      [
        "ặ",
        "ng"
      ],
      [
        "c",
        "ửa"
      ],
      [
        "v",
        "u"
      ],
      [
        "s",
        "ống"
      ],
      [
        "ch",
        "ân"
      ],
      [
        "Ô",
        "ng"
      ],
      [
        "ng",
        "ay"
      ],
      [
        "v",
        "ị"
      ],
      [
        "t",
        "ìm"
      ],
      [
        "ụ",
        "ng"
      ],
      [
        "t",
        "ên"
      ],
      [
        "b",
        "ước"
      ],
      [
        "đ",
        "ối"
      ],
      [
        "v",
        "ô"
      ],
      [
        "í",
        "a"
      ],
      [
        "ợ",
        "i"
      ],
      [
        "ệ",
        "nh"
      ],
      [
        "đ",
        "ồng"
      ],
      [
        "ph",
        "òng"
      ],
      [
        "m",
        "ấy"
      ],
      [
        "đ",
        "o"
      ],
      [
        "ã",
        "i"
      ],
      [
        "ngo",
        "ài"
      ],
      [
        "C",
        "ó"
      ],
      [
        "h",
        "iểu"
      ],
      [
        "c",
        "ần"
      ],
      [
        "y",
        "êu"
      ],
      [
        "l",
        "ắm"
      ],
      [
        "nh",
        "ỏ"
      ],
      [
        "g",
        "ặp"
      ],
      [
        "ti",
        "n"
      ],
      [
        "b",
        "ắt"
      ],
      [
        "th",
        "ứ"
      ],
      [
        "qu",
        "ân"
      ],
      [
        "b",
        "ất"
      ],
      [
        "th",
        "ôi"
      ],
      [
        "th",
        "ời"
      ],
      [
        "uy",
        "ền"
      ],
      [
        "đá",
        "nh"
      ],
      [
        "c",
        "ao"
      ],
      [
        "ch",
        "iếc"
      ],
      [
        "th",
        "o"
      ],
      [
        "ã",
        "y"
      ],
      [
        "ạ",
        "ng"
      ],
      [
        "d",
        "o"
      ],
      [
        "h",
        "iện"
      ],
      [
        "g",
        "h"
      ],
      [
        "ư",
        "ới"
      ],
      [
        "ễ",
        "n"
      ],
      [
        "ch",
        "ứ"
      ],
      [
        "ấ",
        "m"
      ],
      [
        "th",
        "ủ"
      ],
      [
        "ẩ",
        "n"
      ],
      [
        "h",
        "ình"
      ],
      [
        "v",
        "ẻ"
      ],
      [
        "ị",
        "ch"
      ],
      [
        "iệ",
        "p"
      ],
      [
        "th",
        "ường"
      ],
      [
        "ắ",
        "p"
      ],
      [
        "k",
        "ia"
      ],
      [
        "n",
        "ếu"
      ],
      [
        "kh",
        "ỏi"
      ],
      [
        "s",
        "ợ"
      ],
      [
        "n",
        "ơi"
      ],
      [
        "ph",
        "ía"
      ],
      [
        "x",
        "e"
      ],
      [
        "s",
        "inh"
      ],
      [
        "s",
        "ư"
      ],
      [
        "c",
        "uộc"
      ],
      [
        "ch",
        "ạy"
      ],
      [
        "ch",
        "ú"
      ],
      [
        "M",
        "ột"
      ],
      [
        "b",
        "ỏ"
      ],
      [
        "đ",
        "ời"
      ],
      [
        "x",
        "u"
      ],
      [
        "T",
        "iểu"
      ],
      [
        "ó",
        "i"
      ],
      [
        "th",
        "ương"
      ],
      [
        "x",
        "em"
      ],
      [
        "b",
        "ộ"
      ],
      [
        "m",
        "ọi"
      ],
      [
        "ú",
        "i"
      ],
      [
        "ứ",
        "a"
      ],
      [
        "a",
        "r"
      ],
      [
        "h",
        "ành"
      ],
      [
        "g",
        "ái"
      ],
      [
        "b",
        "àn"
      ],
      [
        "l",
        "ẽ"
      ],
      [
        "Th",
        "iên"
      ],
      [
        "s",
        "áng"
      ],
      [
        "c",
        "ơ"
      ],
      [
        "N",
        "ếu"
      ],
      [
        "b",
        "ọn"
      ],
      [
        "đá",
        "p"
      ],
      [
        "c",
        "âu"
      ],
      [
        "m",
        "ất"
      ],
      [
        "g",
        "ọi"
      ],
      [
        "e",
        "r"
      ],
      [
        "k",
        "iếm"
      ],
      [
        "x",
        "a"
      ],
      [
        "ả",
        "nh"
      ],
      [
        "chị",
        "u"
      ],
      [
        "í",
        "t"
      ],
      [
        "ư",
        "u"
      ],
      [
        "Ng",
        "ười"
      ],
      [
        "uố",
        "c"
      ],
      [
        "r",
        "õ"
      ],
      [
        "th",
        "ần"
      ],
      [
        "đ",
        "ất"
      ],
      [
        "ằ",
        "m"
      ],
      [
        "d",
        "ài"
      ],
      [
        "uyệ",
        "t"
      ],
      [
        "ti",
        "ền"
      ],
      [
        "E",
        "m"
      ],
      [
        "m",
        "u"
      ],
      [
        "s",
        "ố"
      ],
      [
        "qu",
        "ay"
      ],
      [
        "ở",
        "i"
      ],
      [
        "N",
        "am"
      ],
      [
        "t",
        "ất"
      ],
      [
        "ẹ",
        "p"
      ],
      [
        "k",
        "inh"
      ],
      [
        "ch",
        "ỗ"
      ],
      [
        "uố",
        "i"
      ],
      [
        "ỉ",
        "nh"
      ],
      [
        "th",
        "ực"
      ],
      [
        "kh",
        "ó"
      ],
      [
        "h",
        "àng"
      ],
      [
        "đ",
        "àn"
      ],
      [
        "á",
        "y"
      ],
      [
        "é",
        "o"
      ],
      [
        "tr",
        "ời"
      ],
      [
        "đ",
        "ấy"
      ],
      [
        "th",
        "ích"
      ],
      [
        "h",
        "ôm"
      ],
      [
        "to",
        "àn"
      ],
      [
        "x",
        "in"
      ],
      [
        "l",
        "âu"
      ],
      [
        "t",
        "ức"
      ],
      [
        "uy",
        "ết"
      ],
      [
        "o",
        "i"
      ],
      [
        "ổ",
        "ng"
      ],
      [
        "Th",
        "anh"
      ],
      [
        "l",
        "ực"
      ],
      [
        "s",
        "ĩ"
      ],
      [
        "iệ",
        "m"
      ],
      [
        "Tr",
        "ong"
      ],
      [
        "ạ",
        "m"
      ],
      [
        "n",
        "ữ"
      ],
      [
        "c",
        "àng"
      ],
      [
        "Th",
        "ế"
      ],
      [
        "k",
        "ẻ"
      ],
      [
        "th",
        "êm"
      ],
      [
        "ĩ",
        "nh"
      ],
      [
        "nh",
        "ớ"
      ],
      [
        "gi",
        "ọng"
      ],
      [
        "g",
        "ần"
      ],
      [
        "c",
        "ố"
      ],
      [
        "n",
        "ổi"
      ],
      [
        "Ng",
        "h"
      ],
      [
        "c",
        "ây"
      ],
      [
        "é",
        "p"
      ],
      [
        "tr",
        "ả"
      ],
      [
        "d",
        "ùng"
      ],
      [
        "d",
        "ưới"
      ],
      [
        "gi",
        "an"
      ],
      [
        "v",
        "ật"
      ],
      [
        "ự",
        "a"
      ],
      [
        "t",
        "ưởng"
      ],
      [
        "đ",
        "ạo"
      ],
      [
        "ch",
        "ắc"
      ],
      [
        "H",
        "ai"
      ],
      [
        "ph",
        "át"
      ],
      [
        "B",
        "à"
      ],
      [
        "t",
        "ính"
      ],
      [
        "b",
        "é"
      ],
      [
        "ẩ",
        "m"
      ],
      [
        "đ",
        "ôi"
      ],
      [
        "c",
        "ậu"
      ],
      [
        "l",
        "ý"
      ],
      [
        "đ",
        "úng"
      ],
      [
        "t",
        "ừng"
      ],
      [
        "s",
        "ức"
      ],
      [
        "l",
        "iền"
      ],
      [
        "ngh",
        "i"
      ],
      [
        "C",
        "on"
      ],
      [
        "vu",
        "i"
      ],
      [
        "iể",
        "n"
      ],
      [
        "ph",
        "ụ"
      ],
      [
        "T",
        "ử"
      ],
      [
        "d",
        "ân"
      ],
      [
        "m",
        "ở"
      ],
      [
        "v",
        "ợ"
      ],
      [
        "h",
        "uy"
      ],
      [
        "mà",
        "y"
      ],
      [
        "lu",
        "ôn"
      ],
      [
        "đ",
        "êm"
      ],
      [
        "ch",
        "út"
      ],
      [
        "ch",
        "u"
      ],
      [
        "r",
        "i"
      ],
      [
        "è",
        "n"
      ],
      [
        "tr",
        "ường"
      ],
      [
        "k",
        "ỳ"
      ],
      [
        "x",
        "ong"
      ],
      [
        "Ho",
        "a"
      ],
      [
        "th",
        "anh"
      ],
      [
        "b",
        "áo"
      ],
      [
        "ch",
        "iến"
      ],
      [
        "ể",
        "n"
      ],
      [
        "L",
        "ong"
      ],
      [
        "gi",
        "ữa"
      ],
      [
        "đ",
        "ệ"
      ],
      [
        "ỗ",
        "ng"
      ],
      [
        "t",
        "iểu"
      ],
      [
        "gi",
        "à"
      ],
      [
        "ch",
        "a"
      ],
      [
        "qu",
        "ả"
      ],
      [
        "kh",
        "í"
      ],
      [
        "t",
        "iên"
      ],
      [
        "s",
        "ang"
      ],
      [
        "h",
        "ồ"
      ],
      [
        "v",
        "iên"
      ],
      [
        "b",
        "ản"
      ],
      [
        "gi",
        "ải"
      ],
      [
        "ú",
        "p"
      ],
      [
        "đ",
        "ủ"
      ],
      [
        "tr",
        "ọng"
      ],
      [
        "th",
        "ị"
      ],
      [
        "b",
        "ình"
      ],
      [
        "quy",
        "ết"
      ],
      [
        "s",
        "át"
      ],
      [
        "d",
        "ù"
      ],
      [
        "đ",
        "ẹp"
      ],
      [
        "d",
        "ám"
      ],
      [
        "ù",
        "a"
      ],
      [
        "y",
        "ên"
      ],
      [
        "m",
        "ang"
      ],
      [
        "D",
        "ương"
      ],
      [
        "Ng",
        "ọc"
      ],
      [
        "L",
        "ão"
      ],
      [
        "N",
        "àng"
      ],
      [
        "ch",
        "áu"
      ],
      [
        "g",
        "ã"
      ],
      [
        "gi",
        "ả"
      ],
      [
        "ậ",
        "m"
      ],
      [
        "kh",
        "u"
      ],
      [
        "Đ",
        "ại"
      ],
      [
        "kh",
        "ách"
      ],
      [
        "th",
        "ư"
      ],
      [
        "d",
        "i"
      ],
      [
        "ph",
        "u"
      ],
      [
        "th",
        "ức"
      ],
      [
        "ê",
        "ng"
      ],
      [
        "n",
        "ằm"
      ],
      [
        "ch",
        "í"
      ],
      [
        "Ph",
        "ong"
      ],
      [
        "Kh",
        "i"
      ],
      [
        "đ",
        "ầy"
      ],
      [
        "Ch",
        "àng"
      ],
      [
        "c",
        "a"
      ],
      [
        "v",
        "ội"
      ],
      [
        "Ch",
        "úng"
      ],
      [
        "t",
        "ối"
      ],
      [
        "?",
        "-"
      ],
      [
        "b",
        "ây"
      ],
      [
        "h",
        "ơi"
      ],
      [
        "cả",
        "nh"
      ],
      [
        "ng",
        "ờ"
      ],
      [
        "uố",
        "t"
      ],
      [
        "đ",
        "au"
      ],
      [
        "đ",
        "ứa"
      ],
      [
        "Ho",
        "àng"
      ],
      [
        "K",
        "im"
      ],
      [
        "đ",
        "ề"
      ],
      [
        "gi",
        "áo"
      ],
      [
        "ch",
        "ồng"
      ],
      [
        "xu",
        "ất"
      ],
      [
        "iệ",
        "ng"
      ],
      [
        "đ",
        "ộ"
      ],
      [
        "th",
        "áng"
      ],
      [
        "T",
        "ừ"
      ],
      [
        "T",
        "a"
      ],
      [
        "nghĩ",
        "a"
      ],
      [
        "đ",
        "ừng"
      ],
      [
        "ng",
        "ủ"
      ],
      [
        "l",
        "ập"
      ],
      [
        "h",
        "ãy"
      ],
      [
        "ch",
        "i"
      ],
      [
        "ù",
        "i"
      ],
      [
        "kh",
        "iến"
      ],
      [
        "h",
        "ội"
      ],
      [
        "gi",
        "ữ"
      ],
      [
        "m",
        "ạnh"
      ],
      [
        "th",
        "ở"
      ],
      [
        "L",
        "ý"
      ],
      [
        "r",
        "u"
      ],
      [
        "ho",
        "a"
      ],
      [
        "V",
        "ân"
      ],
      [
        "Nh",
        "ững"
      ],
      [
        "tu",
        "ổi"
      ],
      [
        "t",
        "ài"
      ],
      [
        "ph",
        "ương"
      ],
      [
        "M",
        "inh"
      ],
      [
        "t",
        "ốt"
      ],
      [
        "m",
        "ặc"
      ],
      [
        "đ",
        "ồ"
      ],
      [
        "ợ",
        "p"
      ],
      [
        "ch",
        "ờ"
      ],
      [
        "nh",
        "anh"
      ],
      [
        "V",
        "ũ"
      ],
      [
        "bu",
        "ồn"
      ],
      [
        "k",
        "ể"
      ],
      [
        "l",
        "ạnh"
      ],
      [
        "V",
        "à"
      ],
      [
        "m",
        "iệng"
      ],
      [
        "l",
        "ạ"
      ],
      [
        "v",
        "õ"
      ],
      [
        "ph",
        "ục"
      ],
      [
        "k",
        "êu"
      ],
      [
        "V",
        "ương"
      ],
      [
        "ợ",
        "t"
      ],
      [
        "ph",
        "ần"
      ],
      [
        "đá",
        "ng"
      ],
      [
        "m",
        "ỗi"
      ],
      [
        "th",
        "iếu"
      ],
      [
        "b",
        "iến"
      ],
      [
        "ò",
        "a"
      ],
      [
        "ư",
        "ỡ"
      ],
      [
        "iế",
        "p"
      ],
      [
        "và",
        "ng"
      ],
      [
        "Tr",
        "ung"
      ],
      [
        "l",
        "ặng"
      ],
      [
        "đ",
        "em"
      ],
      [
        "v",
        "ụ"
      ],
      [
        "V",
        "ăn"
      ],
      [
        "ứ",
        "t"
      ],
      [
        "ph",
        "áp"
      ],
      [
        "b",
        "ác"
      ],
      [
        "tr",
        "ẻ"
      ],
      [
        "đ",
        "ặt"
      ],
      [
        "d",
        "ậy"
      ],
      [
        "à",
        "m"
      ],
      [
        "huy",
        "nh"
      ],
      [
        "ho",
        "àn"
      ],
      [
        "l",
        "e"
      ],
      [
        "c",
        "ầu"
      ],
      [
        "B",
        "a"
      ],
      [
        "d",
        "ự"
      ],
      [
        "nh",
        "ẹ"
      ],
      [
        "C",
        "òn"
      ],
      [
        "c",
        "ầm"
      ],
      [
        "b",
        "ay"
      ],
      [
        "c",
        "ổ"
      ],
      [
        "ị",
        "p"
      ],
      [
        "th",
        "ay"
      ],
      [
        "th",
        "ằng"
      ],
      [
        "m",
        "ười"
      ],
      [
        "h",
        "ồi"
      ],
      [
        "v",
        "ọng"
      ],
      [
        "b",
        "óng"
      ],
      [
        "Ch",
        "ỉ"
      ],
      [
        "l",
        "a"
      ],
      [
        "đ",
        "ộc"
      ],
      [
        "gi",
        "ận"
      ],
      [
        "gi",
        "úp"
      ],
      [
        "t",
        "ư"
      ],
      [
        "b",
        "ốn"
      ],
      [
        "gi",
        "ới"
      ],
      [
        "l",
        "ộ"
      ],
      [
        "S",
        "ơn"
      ],
      [
        "S",
        "au"
      ],
      [
        "l",
        "i"
      ],
      [
        "g",
        "iết"
      ],
      [
        "c",
        "oi"
      ],
      [
        "đ",
        "ình"
      ],
      [
        "n",
        "ương"
      ],
      [
        "t",
        "ướng"
      ],
      [
        "Th",
        "u"
      ],
      [
        "h",
        "ợp"
      ],
      [
        "k",
        "éo"
      ],
      [
        "c",
        "uối"
      ],
      [
        "r",
        "ượ"
      ],
      [
        "đ",
        "ổi"
      ],
      [
        "tiế",
        "n"
      ],
      [
        "qu",
        "anh"
      ],
      [
        "kh",
        "ổ"
      ],
      [
        "Ph",
        "ương"
      ],
      [
        "s",
        "ách"
      ],
      [
        "v",
        "ăn"
      ],
      [
        "ã",
        "nh"
      ],
      [
        "ẩ",
        "y"
      ],
      [
        "V",
        "iệt"
      ],
      [
        "tr",
        "ang"
      ],
      [
        "và",
        "i"
      ],
      [
        "th",
        "ông"
      ],
      [
        "tr",
        "ông"
      ],
      [
        "th",
        "ẳng"
      ],
      [
        "â",
        "ng"
      ],
      [
        "tr",
        "ái"
      ],
      [
        "s",
        "ắc"
      ],
      [
        "cá",
        "nh"
      ],
      [
        "ã",
        "n"
      ],
      [
        "Ph",
        "i"
      ],
      [
        "B",
        "ình"
      ],
      [
        "ể",
        "m"
      ],
      [
        "N",
        "ó"
      ],
      [
        "ề",
        "m"
      ],
      [
        "Th",
        "ái"
      ],
      [
        "ọ",
        "t"
      ],
      [
        "b",
        "ỗng"
      ],
      [
        "iế",
        "ng"
      ],
      [
        "ng",
        "ựa"
      ],
      [
        "th",
        "ơ"
      ],
      [
        "C",
        "ái"
      ],
      [
        "B",
        "ạch"
      ],
      [
        "ch",
        "ơi"
      ],
      [
        "cứ",
        "u"
      ],
      [
        "L",
        "inh"
      ],
      [
        "quy",
        "ền"
      ],
      [
        "í",
        "n"
      ],
      [
        "đi",
        "ểm"
      ],
      [
        "K",
        "ỳ"
      ],
      [
        "Ng",
        "uyên"
      ],
      [
        "H",
        "à"
      ],
      [
        "tr",
        "ung"
      ],
      [
        "T",
        "ại"
      ],
      [
        "th",
        "uốc"
      ],
      [
        "Nh",
        "ư"
      ],
      [
        "đ",
        "en"
      ],
      [
        "gi",
        "ống"
      ],
      [
        "đ",
        "u"
      ],
      [
        "ch",
        "uy"
      ],
      [
        "tr",
        "í"
      ],
      [
        "rượ",
        "u"
      ],
      [
        "tr",
        "ai"
      ],
      [
        "t",
        "ội"
      ],
      [
        "C",
        "ác"
      ],
      [
        "tr",
        "ắng"
      ],
      [
        "A",
        "n"
      ],
      [
        "tr",
        "ưởng"
      ],
      [
        "L",
        "úc"
      ],
      [
        "V",
        "ậy"
      ],
      [
        "gi",
        "ác"
      ],
      [
        "mà",
        "u"
      ],
      [
        "C",
        "ông"
      ],
      [
        "s",
        "ai"
      ],
      [
        "t",
        "uy"
      ],
      [
        "b",
        "iệt"
      ],
      [
        "t",
        "ập"
      ],
      [
        "ho",
        "ặc"
      ],
      [
        "m",
        "a"
      ],
      [
        "k",
        "ết"
      ],
      [
        "ch",
        "ớ"
      ],
      [
        "ị",
        "nh"
      ],
      [
        "d",
        "anh"
      ],
      [
        "d",
        "ễ"
      ],
      [
        "l",
        "iên"
      ],
      [
        "v",
        "iết"
      ],
      [
        "n",
        "ỗi"
      ],
      [
        "ả",
        "m"
      ],
      [
        "m",
        "áy"
      ],
      [
        "tr",
        "anh"
      ],
      [
        "g",
        "ật"
      ],
      [
        "ó",
        "n"
      ],
      [
        "th",
        "iên"
      ],
      [
        "t",
        "inh"
      ],
      [
        "ú",
        "a"
      ],
      [
        "uy",
        "ễn"
      ],
      [
        "d",
        "ụng"
      ],
      [
        "b",
        "ệnh"
      ],
      [
        "H",
        "ồng"
      ],
      [
        "V",
        "ì"
      ],
      [
        "l",
        "ệnh"
      ],
      [
        "đ",
        "ỏ"
      ],
      [
        "R",
        "ồi"
      ],
      [
        "ó",
        "t"
      ],
      [
        "th",
        "ầy"
      ],
      [
        "b",
        "ố"
      ],
      [
        "gi",
        "á"
      ],
      [
        "v",
        "i"
      ],
      [
        "t",
        "ỏ"
      ],
      [
        "M",
        "a"
      ],
      [
        "m",
        "ạng"
      ],
      [
        "n",
        "úi"
      ],
      [
        "é",
        "m"
      ],
      [
        "l",
        "ưng"
      ],
      [
        "đ",
        "iện"
      ],
      [
        "th",
        "ầm"
      ],
      [
        "iể",
        "m"
      ],
      [
        "m",
        "ôn"
      ],
      [
        "ph",
        "ong"
      ],
      [
        "t",
        "uyệt"
      ],
      [
        "th",
        "ái"
      ],
      [
        "L",
        "âm"
      ],
      [
        "m",
        "ươi"
      ],
      [
        "ta",
        "i"
      ],
      [
        "ho",
        "àng"
      ],
      [
        "b",
        "ài"
      ],
      [
        "H",
        "ọ"
      ],
      [
        "kh",
        "óc"
      ],
      [
        "t",
        "ác"
      ],
      [
        "đ",
        "ội"
      ],
      [
        "Ng",
        "uyễn"
      ],
      [
        "Qu",
        "ân"
      ],
      [
        "b",
        "inh"
      ],
      [
        "c",
        "ạnh"
      ],
      [
        "m",
        "ũ"
      ],
      [
        "v",
        "ai"
      ],
      [
        "T",
        "ây"
      ],
      [
        "t",
        "ục"
      ],
      [
        "ó",
        "a"
      ],
      [
        "Đ",
        "ông"
      ],
      [
        "t",
        "ỉnh"
      ],
      [
        "qu",
        "en"
      ],
      [
        "đ",
        "ọc"
      ],
      [
        "u",
        "ân"
      ],
      [
        "Th",
        "iếu"
      ],
      [
        "đá",
        "m"
      ],
      [
        "th",
        "uộc"
      ],
      [
        "S",
        "ao"
      ],
      [
        "đ",
        "ợi"
      ],
      [
        "th",
        "i"
      ],
      [
        "ệ",
        "t"
      ],
      [
        "ữ",
        "u"
      ],
      [
        "m",
        "ừng"
      ],
      [
        "ẳ",
        "n"
      ],
      [
        "ng",
        "ạc"
      ],
      [
        "tr",
        "ị"
      ],
      [
        "M",
        "ai"
      ],
      [
        "d",
        "ẫn"
      ],
      [
        "ượ",
        "t"
      ],
      [
        "c",
        "ung"
      ],
      [
        "ặ",
        "n"
      ],
      [
        "M",
        "ỹ"
      ],
      [
        "th",
        "ất"
      ],
      [
        "qu",
        "ần"
      ],
      [
        "t",
        "ượng"
      ],
      [
        "d",
        "a"
      ],
      [
        "x",
        "anh"
      ],
      [
        "è",
        "o"
      ],
      [
        "ụ",
        "i"
      ],
      [
        "ch",
        "ung"
      ],
      [
        "h",
        "ộ"
      ],
      [
        "v",
        "òng"
      ],
      [
        "am",
        "p"
      ],
      [
        "N",
        "ói"
      ],
      [
        "qu",
        "ên"
      ],
      [
        "ph",
        "ủ"
      ],
      [
        "ạ",
        "p"
      ],
      [
        "é",
        "n"
      ],
      [
        "Tr",
        "ần"
      ],
      [
        "tr",
        "ận"
      ],
      [
        "s",
        "o"
      ],
[...]
