{
  "version": "1.0",
  "truncation": null,
  "padding": null,
  "added_tokens": [
    {
      "id": 0,
      "content": "[UNK]",
      "single_word": false,
      "lstrip": false,
      "rstrip": false,
      "normalized": false,
      "special": true
    },
    {
      "id": 1,
      "content": "[START_ID]",
      "single_word": false,
      "lstrip": false,
      "rstrip": false,
      "normalized": false,
      "special": true
    },
    {
      "id": 2,
      "content": "[END_ID]",
      "single_word": false,
      "lstrip": false,
      "rstrip": false,
      "normalized": false,
      "special": true
    },
    {
      "id": 3,
      "content": "[EOT]",
      "single_word": false,
      "lstrip": false,
      "rstrip": false,
      "normalized": false,
      "special": true
    },
    {
      "id": 4,
      "content": "[MASK]",
      "single_word": false,
      "lstrip": false,
      "rstrip": false,
      "normalized": false,
      "special": true
    },
    {
      "id": 5,
      "content": "[BOS]",
      "single_word": false,
      "lstrip": false,
      "rstrip": false,
      "normalized": false,
      "special": true
    },
    {
      "id": 6,
      "content": "[EOS]",
      "single_word": false,
      "lstrip": false,
      "rstrip": false,
      "normalized": false,
      "special": true
    }
  ],
  "normalizer": null,
  "pre_tokenizer": {
    "type": "Whitespace"
  },
  "post_processor": null,
  "decoder": null,
  "model": {
    "type": "BPE",
    "dropout": null,
    "unk_token": "[UNK]",
    "continuing_subword_prefix": null,
    "end_of_word_suffix": null,
    "fuse_unk": false,
    "byte_fallback": false,
    "ignore_merges": false,
    "vocab": {
      "[UNK]": 0,
      "[START_ID]": 1,
      "[END_ID]": 2,
      "[EOT]": 3,
      "[MASK]": 4,
      "[BOS]": 5,
      "[EOS]": 6,
      "!": 7,
      "#": 8,
      "$": 9,
      "%": 10,
      "&": 11,
      "(": 12,
      ")": 13,
      "*": 14,
      "+": 15,
      ",": 16,
      "-": 17,
      ".": 18,
      "/": 19,
      "0": 20,
      "1": 21,
      "2": 22,
      "3": 23,
      "4": 24,
      "5": 25,
      "6": 26,
      "7": 27,
      "8": 28,
      "9": 29,
      ":": 30,
      ";": 31,
      "=": 32,
      "?": 33,
      "@": 34,
      "A": 35,
      "B": 36,
      "C": 37,
      "D": 38,
      "E": 39,
      "F": 40,
      "G": 41,
      "H": 42,
      "I": 43,
      "J": 44,
      "K": 45,
      "L": 46,
      "M": 47,
      "N": 48,
      "O": 49,
      "P": 50,
      "Q": 51,
      "R": 52,
      "S": 53,
      "T": 54,
      "U": 55,
      "V": 56,
      "W": 57,
      "X": 58,
      "Y": 59,
      "Z": 60,
      "[": 61,
      "\\": 62,
      "]": 63,
      "^": 64,
      "_": 65,
      "`": 66,
      "a": 67,
      "b": 68,
      "c": 69,
      "d": 70,
      "e": 71,
      "f": 72,
      "g": 73,
      "h": 74,
      "i": 75,
      "j": 76,
      "k": 77,
      "l": 78,
      "m": 79,
      "n": 80,
      "o": 81,
      "p": 82,
      "q": 83,
      "r": 84,
      "s": 85,
      "t": 86,
      "u": 87,
      "v": 88,
      "w": 89,
      "x": 90,
      "y": 91,
      "z": 92,
      "{": 93,
      "|": 94,
      "}": 95,
      "~": 96,
      "": 97,
      "¡": 98,
      "¢": 99,
      "£": 100,
      "¤": 101,
      "¥": 102,
      "¦": 103,
      "§": 104,
      "¨": 105,
      "©": 106,
      "ª": 107,
      "«": 108,
      "¬": 109,
      "­": 110,
      "®": 111,
      "¯": 112,
      "°": 113,
      "±": 114,
      "²": 115,
      "³": 116,
      "´": 117,
      "µ": 118,
      "¶": 119,
      "·": 120,
      "¸": 121,
      "¹": 122,
      "º": 123,
      "»": 124,
      "¼": 125,
      "½": 126,
      "¾": 127,
      "¿": 128,
      "À": 129,
      "Á": 130,
      "Â": 131,
      "Ã": 132,
      "Ä": 133,
      "Å": 134,
      "Æ": 135,
      "Ç": 136,
      "È": 137,
      "É": 138,
      "Ê": 139,
      "Ë": 140,
      "Ì": 141,
      "Í": 142,
      "Î": 143,
      "Ï": 144,
      "Ð": 145,
      "Ñ": 146,
      "Ò": 147,
      "Ó": 148,
      "Ô": 149,
      "Õ": 150,
      "Ö": 151,
      "×": 152,
      "Ø": 153,
      "Ù": 154,
      "Ú": 155,
      "Û": 156,
      "Ü": 157,
      "Ý": 158,
      "Þ": 159,
      "ß": 160,
      "à": 161,
      "á": 162,
      "â": 163,
      "ã": 164,
      "ä": 165,
      "å": 166,
      "æ": 167,
      "ç": 168,
      "è": 169,
      "é": 170,
      "ê": 171,
      "ë": 172,
      "ì": 173,
      "í": 174,
      "î": 175,
      "ï": 176,
      "ð": 177,
      "ñ": 178,
      "ò": 179,
      "ó": 180,
      "ô": 181,
      "õ": 182,
      "ö": 183,
      "÷": 184,
      "ø": 185,
      "ù": 186,
      "ú": 187,
      "û": 188,
      "ü": 189,
      "ý": 190,
      "þ": 191,
      "ÿ": 192,
      "Ā": 193,
      "ā": 194,
      "Ă": 195,
      "ă": 196,
      "ą": 197,
      "ć": 198,
      "Ċ": 199,
      "Đ": 200,
      "đ": 201,
      "ę": 202,
      "ě": 203,
      "Ĩ": 204,
      "ĩ": 205,
      "ī": 206,
      "ĭ": 207,
      "ĺ": 208,
      "ļ": 209,
      "Ŀ": 210,
      "ł": 211,
      "ň": 212,
      "Ō": 213,
      "ō": 214,
      "ő": 215,
      "Œ": 216,
      "œ": 217,
      "ŕ": 218,
      "ś": 219,
      "Š": 220,
      "š": 221,
      "Ũ": 222,
      "ũ": 223,
      "ū": 224,
      "Ů": 225,
      "ů": 226,
      "Ű": 227,
      "ű": 228,
      "Ÿ": 229,
      "Ž": 230,
      "ž": 231,
      "Ɗ": 232,
      "ƒ": 233,
      "Ơ": 234,
      "ơ": 235,
      "Ư": 236,
      "ư": 237,
      "Ǎ": 238,
      "ǎ": 239,
      "ʮ": 240,
      "ʺ": 241,
      "ˆ": 242,
      "ˇ": 243,
      "˚": 244,
      "˛": 245,
      "˜": 246,
      "̀": 247,
      "́": 248,
      "̃": 249,
      "̉": 250,
      "̐": 251,
      "̗": 252,
      "̣": 253,
      "ͣ": 254,
      "Ή": 255,
      "Λ": 256,
      "Π": 257,
      "Ρ": 258,
      "Σ": 259,
      "Φ": 260,
      "Ω": 261,
      "α": 262,
      "β": 263,
      "γ": 264,
      "δ": 265,
      "ε": 266,
      "η": 267,
      "θ": 268,
      "λ": 269,
      "μ": 270,
      "ο": 271,
      "π": 272,
      "ρ": 273,
      "ς": 274,
      "τ": 275,
      "ψ": 276,
      "ω": 277,
      "ϊ": 278,
      "Ї": 279,
      "А": 280,
      "Б": 281,
      "В": 282,
      "Г": 283,
      "Е": 284,
      "Ж": 285,
      "З": 286,
      "К": 287,
      "Л": 288,
      "М": 289,
      "Н": 290,
      "О": 291,
      "П": 292,
      "Р": 293,
      "С": 294,
      "Т": 295,
      "У": 296,
      "Ц": 297,
      "Ь": 298,
      "Я": 299,
      "а": 300,
      "б": 301,
      "в": 302,
      "г": 303,
      "д": 304,
      "е": 305,
      "ж": 306,
      "з": 307,
      "и": 308,
      "й": 309,
      "к": 310,
      "л": 311,
      "м": 312,
      "н": 313,
      "о": 314,
      "п": 315,
      "р": 316,
      "с": 317,
      "т": 318,
      "у": 319,
      "ф": 320,
      "х": 321,
      "ц": 322,
      "ч": 323,
      "ш": 324,
      "ъ": 325,
      "ы": 326,
      "ь": 327,
      "э": 328,
      "ю": 329,
      "я": 330,
      "נ": 331,
      "٭": 332,
      "ٮ": 333,
      "ٱ": 334,
      "ڣ": 335,
      "۠": 336,
      "ࠦ": 337,
      "࠰": 338,
      "ࡠ": 339,
      "஦": 340,
      "஧": 341,
      "က": 342,
      "ኙ": 343,
      "ኛ": 344,
      "ኡ": 345,
      "ኣ": 346,
      "እ": 347,
      "ኧ": 348,
      "ክ": 349,
      "ኯ": 350,
      "኱": 351,
      "ኳ": 352,
      "ኹ": 353,
      "኿": 354,
      "ᣠ": 355,
      "᥹": 356,
      "᪆": 357,
      "ᮠ": 358,
      "ᴠ": 359,
      "Ḁ": 360,
      "Ṁ": 361,
      "ṁ": 362,
      "ṃ": 363,
      "Ṡ": 364,
      "Ẉ": 365,
      "Ẋ": 366,
      "Ạ": 367,
      "ạ": 368,
      "Ả": 369,
      "ả": 370,
      "Ấ": 371,
      "ấ": 372,
      "Ầ": 373,
      "ầ": 374,
      "Ẩ": 375,
      "ẩ": 376,
      "Ẫ": 377,
      "ẫ": 378,
      "Ậ": 379,
      "ậ": 380,
      "Ắ": 381,
      "ắ": 382,
      "Ằ": 383,
      "ằ": 384,
      "Ẳ": 385,
      "ẳ": 386,
      "Ẵ": 387,
      "ẵ": 388,
      "Ặ": 389,
      "ặ": 390,
      "Ẹ": 391,
      "ẹ": 392,
      "Ẻ": 393,
      "ẻ": 394,
      "Ẽ": 395,
      "ẽ": 396,
      "Ế": 397,
      "ế": 398,
      "Ề": 399,
      "ề": 400,
      "Ể": 401,
      "ể": 402,
      "Ễ": 403,
      "ễ": 404,
      "Ệ": 405,
      "ệ": 406,
      "Ỉ": 407,
      "ỉ": 408,
      "Ị": 409,
      "ị": 410,
      "Ọ": 411,
      "ọ": 412,
      "Ỏ": 413,
      "ỏ": 414,
      "Ố": 415,
      "ố": 416,
      "Ồ": 417,
      "ồ": 418,
      "Ổ": 419,
      "ổ": 420,
      "Ỗ": 421,
      "ỗ": 422,
      "Ộ": 423,
      "ộ": 424,
      "Ớ": 425,
      "ớ": 426,
      "Ờ": 427,
      "ờ": 428,
      "Ở": 429,
      "ở": 430,
      "Ỡ": 431,
      "ỡ": 432,
      "Ợ": 433,
      "ợ": 434,
      "Ụ": 435,
      "ụ": 436,
      "Ủ": 437,
      "ủ": 438,
      "Ứ": 439,
      "ứ": 440,
      "Ừ": 441,
      "ừ": 442,
      "Ử": 443,
      "ử": 444,
      "Ữ": 445,
      "ữ": 446,
      "Ự": 447,
      "ự": 448,
      "Ỳ": 449,
      "ỳ": 450,
      "Ỵ": 451,
      "ỵ": 452,
      "Ỷ": 453,
      "ỷ": 454,
      "Ỹ": 455,
      "ỹ": 456,
      "ἢ": 457,
      "Ἡ": 458,
      "‎": 459,
      "‐": 460,
      "–": 461,
      "—": 462,
      "―": 463,
      "‖": 464,
      "‘": 465,
      "’": 466,
      "‚": 467,
      "“": 468,
      "”": 469,
      "„": 470,
      "†": 471,
      "‡": 472,
      "•": 473,
      "…": 474,
      "‰": 475,
      "′": 476,
      "″": 477,
      "‹": 478,
      "›": 479,
      "※": 480,
      "€": 481,
      "№": 482,
      "™": 483,
      "Ω": 484,
      "→": 485,
      "∆": 486,
      "−": 487,
      "∞": 488,
      "≈": 489,
      "≤": 490,
      "≥": 491,
      "〈": 492,
      "─": 493,
      "■": 494,
      "▪": 495,
      "▲": 496,
      "►": 497,
      "◄": 498,
      "●": 499,
      "◘": 500,
      "◙": 501,
      "◦": 502,
      "☰": 503,
      "☲": 504,
      "☵": 505,
      "☷": 506,
      "☹": 507,
      "☺": 508,
      "☻": 509,
      "☼": 510,
      "♠": 511,
      "♣": 512,
      "♥": 513,
      "♦": 514,
      "♫": 515,
      "⩠": 516,
      "⩡": 517,
      "⭠": 518,
      "⭬": 519,
      "⮠": 520,
      "⮧": 521,
      "ⵠ": 522,
      "、": 523,
      "。": 524,
      "《": 525,
      "》": 526,
      "「": 527,
      "」": 528,
      "ㄕ": 529,
      "ㄟ": 530,
      "ㄢ": 531,
      "ㄨ": 532,
      "㐱": 533,
      "㠦": 534,
      "㦣": 535,
      "㩠": 536,
      "䛟": 537,
      "䴍": 538,
      "䴠": 539,
      "䷀": 540,
      "䷁": 541,
      "䷂": 542,
      "䷃": 543,
      "䷄": 544,
      "䷅": 545,
      "䷆": 546,
      "䷇": 547,
      "䷈": 548,
      "䷉": 549,
      "䷊": 550,
      "䷋": 551,
      "䷌": 552,
      "䷍": 553,
      "䷎": 554,
      "䷏": 555,
      "䷐": 556,
      "䷑": 557,
      "䷒": 558,
      "䷓": 559,
      "䷔": 560,
      "䷕": 561,
      "䷖": 562,
      "䷗": 563,
      "䷘": 564,
      "䷙": 565,
      "䷚": 566,
      "䷛": 567,
      "䷜": 568,
      "䷝": 569,
      "䷞": 570,
      "䷟": 571,
      "䷠": 572,
      "䷡": 573,
      "䷢": 574,
      "䷣": 575,
      "䷤": 576,
      "䷥": 577,
      "䷦": 578,
      "䷧": 579,
      "䷨": 580,
      "䷩": 581,
      "䷪": 582,
      "䷫": 583,
      "䷬": 584,
      "䷭": 585,
      "䷮": 586,
      "䷯": 587,
      "䷰": 588,
      "䷱": 589,
      "䷲": 590,
      "䷳": 591,
      "䷴": 592,
      "䷵": 593,
      "䷶": 594,
      "䷷": 595,
      "䷸": 596,
      "䷹": 597,
      "䷺": 598,
      "䷻": 599,
      "䷼": 600,
      "䷽": 601,
      "䷾": 602,
      "䷿": 603,
      "一": 604,
      "丁": 605,
      "七": 606,
      "万": 607,
      "丈": 608,
      "三": 609,
      "上": 610,
      "下": 611,
      "不": 612,
      "与": 613,
      "丐": 614,
      "丑": 615,
      "且": 616,
      "丕": 617,
      "世": 618,
      "丗": 619,
      "丘": 620,
      "丙": 621,
      "东": 622,
      "丠": 623,
      "两": 624,
      "並": 625,
      "个": 626,
      "中": 627,
      "串": 628,
      "临": 629,
      "丸": 630,
      "丹": 631,
      "为": 632,
      "主": 633,
      "丽": 634,
      "举": 635,
      "丿": 636,
      "乂": 637,
      "乃": 638,
      "乄": 639,
      "久": 640,
      "乆": 641,
      "么": 642,
      "义": 643,
      "乊": 644,
      "之": 645,
      "乍": 646,
      "乎": 647,
      "乏": 648,
      "乑": 649,
      "乖": 650,
      "乘": 651,
      "乙": 652,
      "九": 653,
      "乞": 654,
      "也": 655,
      "乨": 656,
      "乭": 657,
      "乯": 658,
      "乱": 659,
      "乴": 660,
      "乶": 661,
      "乸": 662,
      "乾": 663,
      "亁": 664,
      "亂": 665,
      "了": 666,
      "予": 667,
      "争": 668,
      "事": 669,
      "二": 670,
      "于": 671,
      "云": 672,
      "互": 673,
      "五": 674,
      "井": 675,
      "亖": 676,
      "些": 677,
      "亞": 678,
      "亡": 679,
      "亢": 680,
      "交": 681,
      "亥": 682,
      "亦": 683,
      "产": 684,
      "亨": 685,
      "享": 686,
      "京": 687,
      "亭": 688,
      "亮": 689,
      "人": 690,
      "亻": 691,
      "亼": 692,
      "什": 693,
      "仁": 694,
      "仇": 695,
      "今": 696,
      "介": 697,
      "仌": 698,
      "仍": 699,
      "从": 700,
      "仔": 701,
      "仕": 702,
      "他": 703,
      "付": 704,
      "仙": 705,
      "仞": 706,
      "代": 707,
      "令": 708,
      "以": 709,
      "仦": 710,
      "仰": 711,
      "仲": 712,
      "价": 713,
      "仺": 714,
      "任": 715,
      "仼": 716,
      "份": 717,
      "企": 718,
      "伊": 719,
      "伍": 720,
      "伎": 721,
      "伏": 722,
      "伐": 723,
      "休": 724,
      "传": 725,
      "伤": 726,
      "伪": 727,
      "伯": 728,
      "估": 729,
      "伴": 730,
      "伶": 731,
      "伸": 732,
      "伺": 733,
      "似": 734,
      "佂": 735,
      "但": 736,
      "佇": 737,
      "佊": 738,
      "位": 739,
      "低": 740,
      "住": 741,
      "佐": 742,
      "佑": 743,
      "体": 744,
      "佔": 745,
      "何": 746,
      "余": 747,
      "佚": 748,
      "佛": 749,
      "作": 750,
      "佞": 751,
      "你": 752,
      "佩": 753,
      "佳": 754,
      "使": 755,
      "來": 756,
      "侈": 757,
      "侊": 758,
      "例": 759,
      "侍": 760,
      "侙": 761,
      "供": 762,
      "依": 763,
      "侟": 764,
      "侬": 765,
      "侮": 766,
      "侯": 767,
      "侵": 768,
      "侼": 769,
      "便": 770,
      "係": 771,
      "促": 772,
      "俊": 773,
      "俌": 774,
      "俎": 775,
      "俗": 776,
      "俛": 777,
      "保": 778,
      "俟": 779,
      "俠": 780,
      "信": 781,
      "俩": 782,
      "修": 783,
      "俯": 784,
      "俱": 785,
      "俸": 786,
      "俹": 787,
      "俼": 788,
      "俾": 789,
      "倂": 790,
      "倈": 791,
      "倉": 792,
      "個": 793,
      "倍": 794,
      "們": 795,
      "倒": 796,
      "倖": 797,
      "倘": 798,
      "候": 799,
      "倚": 800,
      "借": 801,
      "倣": 802,
      "倦": 803,
      "倨": 804,
      "倩": 805,
      "倪": 806,
      "倫": 807,
      "倭": 808,
      "值": 809,
      "倿": 810,
      "偃": 811,
      "假": 812,
      "偈": 813,
      "偉": 814,
      "偏": 815,
      "偕": 816,
      "做": 817,
      "停": 818,
      "健": 819,
      "偪": 820,
      "側": 821,
      "偶": 822,
      "偷": 823,
      "偽": 824,
      "傅": 825,
      "傉": 826,
      "傑": 827,
      "傘": 828,
      "備": 829,
      "傥": 830,
      "催": 831,
      "傲": 832,
      "傳": 833,
      "債": 834,
      "傷": 835,
      "傾": 836,
      "僂": 837,
      "僅": 838,
      "像": 839,
      "僑": 840,
      "僕": 841,
      "僘": 842,
      "僞": 843,
      "僟": 844,
      "僧": 845,
      "僮": 846,
      "僲": 847,
      "僵": 848,
      "價": 849,
      "儀": 850,
      "儂": 851,
      "億": 852,
      "儅": 853,
      "儈": 854,
      "儉": 855,
      "儋": 856,
      "儍": 857,
      "儒": 858,
      "儖": 859,
      "償": 860,
      "優": 861,
      "儲": 862,
      "儼": 863,
      "儽": 864,
      "兀": 865,
      "允": 866,
      "元": 867,
      "兄": 868,
      "充": 869,
      "兆": 870,
      "兇": 871,
      "先": 872,
      "光": 873,
      "克": 874,
      "兌": 875,
      "免": 876,
      "兒": 877,
      "兔": 878,
      "兕": 879,
      "党": 880,
      "兜": 881,
      "兢": 882,
      "入": 883,
      "內": 884,
      "全": 885,
      "兩": 886,
      "八": 887,
      "公": 888,
      "六": 889,
      "兮": 890,
      "共": 891,
      "兵": 892,
      "其": 893,
      "具": 894,
      "典": 895,
      "养": 896,
      "兼": 897,
      "内": 898,
      "円": 899,
      "冊": 900,
      "再": 901,
      "冒": 902,
      "冠": 903,
      "冣": 904,
      "冤": 905,
      "冥": 906,
      "冬": 907,
      "冰": 908,
      "决": 909,
      "况": 910,
      "冷": 911,
      "净": 912,
      "凄": 913,
      "准": 914,
      "凉": 915,
      "凌": 916,
      "凍": 917,
      "凒": 918,
      "凘": 919,
      "凜": 920,
      "凝": 921,
      "几": 922,
      "凡": 923,
      "処": 924,
      "凨": 925,
      "凩": 926,
      "凭": 927,
      "凰": 928,
      "凱": 929,
      "凶": 930,
      "出": 931,
      "函": 932,
      "刀": 933,
      "刁": 934,
      "刃": 935,
      "分": 936,
      "切": 937,
      "刈": 938,
      "刊": 939,
      "刎": 940,
      "刑": 941,
      "划": 942,
      "刖": 943,
      "列": 944,
      "则": 945,
      "创": 946,
      "初": 947,
      "別": 948,
      "刧": 949,
      "刨": 950,
      "利": 951,
      "刪": 952,
      "别": 953,
      "刬": 954,
      "刮": 955,
      "到": 956,
      "刲": 957,
      "刳": 958,
      "制": 959,
      "券": 960,
      "刺": 961,
      "刻": 962,
      "刼": 963,
      "則": 964,
      "剈": 965,
      "削": 966,
      "剋": 967,
      "前": 968,
      "剖": 969,
      "剗": 970,
      "剛": 971,
      "剝": 972,
      "剨": 973,
      "剩": 974,
      "剪": 975,
      "副": 976,
      "剰": 977,
      "割": 978,
      "創": 979,
      "剶": 980,
      "剹": 981,
      "剾": 982,
      "剿": 983,
      "劂": 984,
      "劃": 985,
      "劇": 986,
      "劉": 987,
      "劌": 988,
      "劍": 989,
      "劓": 990,
      "力": 991,
      "功": 992,
      "加": 993,
      "劥": 994,
      "助": 995,
      "努": 996,
      "劫": 997,
      "劬": 998,
      "劳": 999,
      "劸": 1000,
      "効": 1001,
      "劺": 1002,
      "势": 1003,
      "勁": 1004,
      "勅": 1005,
      "勇": 1006,
      "勉": 1007,
      "勌": 1008,
      "勑": 1009,
      "勒": 1010,
      "動": 1011,
      "務": 1012,
      "勚": 1013,
      "勜": 1014,
      "勝": 1015,
      "勞": 1016,
      "勠": 1017,
      "勢": 1018,
      "勤": 1019,
      "勳": 1020,
      "勵": 1021,
      "勸": 1022,
      "勾": 1023,
      "勿": 1024,
      "包": 1025,
      "匇": 1026,
      "匏": 1027,
      "匕": 1028,
      "化": 1029,
      "北": 1030,
      "匠": 1031,
      "匡": 1032,
      "匪": 1033,
      "匳": 1034,
      "匵": 1035,
      "匹": 1036,
      "区": 1037,
      "區": 1038,
      "十": 1039,
      "千": 1040,
      "升": 1041,
      "午": 1042,
      "半": 1043,
      "卍": 1044,
      "华": 1045,
      "卐": 1046,
      "卑": 1047,
      "卒": 1048,
      "卓": 1049,
      "協": 1050,
      "南": 1051,
      "博": 1052,
      "卜": 1053,
      "占": 1054,
      "卢": 1055,
      "卥": 1056,
      "卧": 1057,
      "卯": 1058,
      "印": 1059,
      "危": 1060,
      "即": 1061,
      "却": 1062,
      "卷": 1063,
      "卻": 1064,
      "卼": 1065,
      "卽": 1066,
      "卿": 1067,
      "厂": 1068,
      "厚": 1069,
      "原": 1070,
      "厠": 1071,
      "厥": 1072,
      "厭": 1073,
      "厰": 1074,
      "厲": 1075,
      "厳": 1076,
      "厶": 1077,
      "去": 1078,
      "厼": 1079,
      "參": 1080,
      "又": 1081,
      "叉": 1082,
      "及": 1083,
      "友": 1084,
      "双": 1085,
      "反": 1086,
      "发": 1087,
      "叔": 1088,
      "取": 1089,
      "受": 1090,
      "变": 1091,
      "叛": 1092,
      "叢": 1093,
      "口": 1094,
      "古": 1095,
      "句": 1096,
      "另": 1097,
      "叨": 1098,
      "叩": 1099,
      "只": 1100,
      "叫": 1101,
      "召": 1102,
      "叭": 1103,
      "叮": 1104,
      "可": 1105,
      "台": 1106,
      "史": 1107,
      "右": 1108,
      "叶": 1109,
      "司": 1110,
      "叿": 1111,
      "吁": 1112,
      "吃": 1113,
      "各": 1114,
      "合": 1115,
      "吉": 1116,
      "吊": 1117,
      "同": 1118,
      "名": 1119,
      "后": 1120,
      "吏": 1121,
      "吐": 1122,
      "向": 1123,
      "吒": 1124,
      "君": 1125,
      "吝": 1126,
      "吞": 1127,
      "吟": 1128,
      "吢": 1129,
      "否": 1130,
      "吨": 1131,
      "含": 1132,
      "听": 1133,
      "吮": 1134,
      "吳": 1135,
      "吴": 1136,
      "吶": 1137,
      "吸": 1138,
      "吹": 1139,
      "吻": 1140,
      "吾": 1141,
      "吿": 1142,
      "呂": 1143,
      "呈": 1144,
      "告": 1145,
      "呍": 1146,
      "周": 1147,
      "味": 1148,
      "呵": 1149,
      "呸": 1150,
      "呼": 1151,
      "命": 1152,
      "咅": 1153,
      "和": 1154,
      "咎": 1155,
      "咒": 1156,
      "咜": 1157,
      "咥": 1158,
      "咨": 1159,
      "咫": 1160,
      "咱": 1161,
      "咷": 1162,
      "咸": 1163,
      "咽": 1164,
      "咿": 1165,
      "哀": 1166,
      "品": 1167,
      "哈": 1168,
      "哉": 1169,
      "响": 1170,
      "哛": 1171,
      "員": 1172,
      "哥": 1173,
      "哦": 1174,
      "哪": 1175,
      "哫": 1176,
      "哭": 1177,
      "哰": 1178,
      "哲": 1179,
      "哺": 1180,
      "哼": 1181,
      "哾": 1182,
      "唅": 1183,
      "唆": 1184,
      "唉": 1185,
      "唏": 1186,
      "唐": 1187,
      "唕": 1188,
      "唩": 1189,
      "售": 1190,
      "唯": 1191,
      "唱": 1192,
      "唷": 1193,
      "商": 1194,
      "問": 1195,
      "啓": 1196,
      "啔": 1197,
      "啖": 1198,
      "啚": 1199,
      "啞": 1200,
      "啯": 1201,
      "啴": 1202,
      "啻": 1203,
      "啼": 1204,
      "喂": 1205,
      "善": 1206,
      "喇": 1207,
      "喉": 1208,
      "喊": 1209,
      "喔": 1210,
      "喚": 1211,
      "喜": 1212,
      "喝": 1213,
      "喟": 1214,
      "喧": 1215,
      "喪": 1216,
      "喫": 1217,
      "喬": 1218,
      "單": 1219,
      "喻": 1220,
      "喼": 1221,
      "嗁": 1222,
      "嗃": 1223,
      "嗄": 1224,
      "嗇": 1225,
      "嗑": 1226,
      "嗔": 1227,
      "嗗": 1228,
      "嗚": 1229,
      "嗜": 1230,
      "嗟": 1231,
      "嗣": 1232,
      "嘆": 1233,
      "嘉": 1234,
      "嘏": 1235,
      "嘑": 1236,
      "嘗": 1237,
      "嘥": 1238,
      "嘫": 1239,
      "嘯": 1240,
      "嘲": 1241,
      "嘹": 1242,
      "嘺": 1243,
      "嘻": 1244,
      "噖": 1245,
      "器": 1246,
      "噫": 1247,
      "噬": 1248,
      "噲": 1249,
      "噹": 1250,
      "噺": 1251,
      "噽": 1252,
      "嚀": 1253,
      "嚨": 1254,
      "嚮": 1255,
      "嚴": 1256,
      "囀": 1257,
      "囂": 1258,
      "囊": 1259,
      "囎": 1260,
      "囐": 1261,
      "囘": 1262,
      "囚": 1263,
      "四": 1264,
      "回": 1265,
      "因": 1266,
      "团": 1267,
      "囧": 1268,
      "园": 1269,
      "困": 1270,
      "囹": 1271,
      "固": 1272,
      "国": 1273,
      "图": 1274,
      "囿": 1275,
      "圅": 1276,
      "圆": 1277,
      "圈": 1278,
      "圉": 1279,
      "國": 1280,
      "圍": 1281,
      "園": 1282,
      "圓": 1283,
      "圖": 1284,
      "團": 1285,
      "圜": 1286,
      "土": 1287,
      "圣": 1288,
      "圤": 1289,
      "圥": 1290,
      "在": 1291,
      "圩": 1292,
      "圭": 1293,
      "地": 1294,
      "场": 1295,
      "圻": 1296,
      "址": 1297,
      "均": 1298,
      "坊": 1299,
      "坎": 1300,
      "坐": 1301,
      "坑": 1302,
      "块": 1303,
      "坘": 1304,
      "坙": 1305,
      "坚": 1306,
      "坞": 1307,
      "坡": 1308,
      "坤": 1309,
      "坦": 1310,
      "坷": 1311,
      "坺": 1312,
      "坻": 1313,
      "垂": 1314,
      "垄": 1315,
      "型": 1316,
      "垠": 1317,
      "垢": 1318,
      "垣": 1319,
      "垨": 1320,
      "垪": 1321,
      "垯": 1322,
      "垰": 1323,
      "埃": 1324,
      "埄": 1325,
      "埊": 1326,
      "埋": 1327,
      "城": 1328,
      "埏": 1329,
      "域": 1330,
      "埴": 1331,
      "執": 1332,
      "培": 1333,
      "基": 1334,
      "堂": 1335,
      "堅": 1336,
      "堆": 1337,
      "堇": 1338,
      "堏": 1339,
      "堖": 1340,
      "堚": 1341,
      "堤": 1342,
      "堪": 1343,
      "堯": 1344,
      "報": 1345,
      "場": 1346,
      "塁": 1347,
      "塊": 1348,
      "塑": 1349,
      "塔": 1350,
      "塗": 1351,
      "塘": 1352,
      "塚": 1353,
      "塞": 1354,
      "塢": 1355,
      "塩": 1356,
      "塮": 1357,
      "塵": 1358,
      "塷": 1359,
      "塹": 1360,
      "境": 1361,
      "墉": 1362,
      "墊": 1363,
      "墓": 1364,
      "墖": 1365,
      "墙": 1366,
      "墜": 1367,
      "增": 1368,
      "墨": 1369,
      "墯": 1370,
      "墳": 1371,
      "墹": 1372,
      "墻": 1373,
      "墾": 1374,
      "壁": 1375,
      "壅": 1376,
      "壇": 1377,
      "壊": 1378,
      "壋": 1379,
      "壑": 1380,
      "壓": 1381,
      "壗": 1382,
      "壘": 1383,
      "壞": 1384,
      "壦": 1385,
      "士": 1386,
      "壬": 1387,
      "壮": 1388,
      "壯": 1389,
      "声": 1390,
      "壹": 1391,
      "壺": 1392,
      "壽": 1393,
      "处": 1394,
      "复": 1395,
      "夏": 1396,
      "夔": 1397,
      "夕": 1398,
      "外": 1399,
      "夙": 1400,
      "多": 1401,
      "夛": 1402,
      "夜": 1403,
      "夝": 1404,
      "夢": 1405,
      "夤": 1406,
      "大": 1407,
      "天": 1408,
      "太": 1409,
      "夫": 1410,
      "夬": 1411,
      "夭": 1412,
      "央": 1413,
      "失": 1414,
      "夲": 1415,
      "夳": 1416,
      "头": 1417,
      "夷": 1418,
      "夸": 1419,
      "夺": 1420,
      "夾": 1421,
      "奇": 1422,
      "奈": 1423,
      "奉": 1424,
      "奋": 1425,
      "奍": 1426,
      "奏": 1427,
      "契": 1428,
      "奔": 1429,
      "奕": 1430,
      "奘": 1431,
      "奚": 1432,
      "奛": 1433,
      "奠": 1434,
      "奢": 1435,
      "奧": 1436,
      "奪": 1437,
      "奮": 1438,
      "女": 1439,
      "奴": 1440,
      "奵": 1441,
      "奸": 1442,
      "她": 1443,
      "好": 1444,
      "如": 1445,
      "妃": 1446,
      "妄": 1447,
      "妉": 1448,
      "妒": 1449,
      "妖": 1450,
      "妙": 1451,
      "妝": 1452,
      "妣": 1453,
      "妥": 1454,
      "妨": 1455,
      "妹": 1456,
      "妻": 1457,
      "妾": 1458,
      "姅": 1459,
      "姆": 1460,
      "姊": 1461,
      "始": 1462,
      "姑": 1463,
      "姒": 1464,
      "姓": 1465,
      "委": 1466,
      "姚": 1467,
      "姜": 1468,
      "姟": 1469,
      "姣": 1470,
      "姤": 1471,
      "姦": 1472,
      "姬": 1473,
      "姮": 1474,
      "姻": 1475,
      "姿": 1476,
      "威": 1477,
      "娂": 1478,
      "娋": 1479,
      "娎": 1480,
      "娘": 1481,
      "娛": 1482,
      "娟": 1483,
      "娣": 1484,
      "娥": 1485,
      "婅": 1486,
      "婚": 1487,
      "婦": 1488,
      "婿": 1489,
      "媑": 1490,
      "媣": 1491,
      "媫": 1492,
      "媭": 1493,
      "媮": 1494,
      "媽": 1495,
      "媾": 1496,
      "嫁": 1497,
      "嫌": 1498,
      "嫕": 1499,
      "嫖": 1500,
      "嫡": 1501,
      "嫩": 1502,
      "嬋": 1503,
      "嬠": 1504,
      "嬪": 1505,
      "嬰": 1506,
      "嬶": 1507,
      "子": 1508,
      "孑": 1509,
      "孔": 1510,
      "孕": 1511,
      "字": 1512,
      "存": 1513,
      "孚": 1514,
      "孛": 1515,
      "孜": 1516,
      "孝": 1517,
      "孟": 1518,
      "季": 1519,
      "孤": 1520,
      "孥": 1521,
      "学": 1522,
      "孧": 1523,
      "孩": 1524,
      "孫": 1525,
      "孰": 1526,
      "學": 1527,
      "孺": 1528,
      "孽": 1529,
      "宀": 1530,
      "宁": 1531,
      "它": 1532,
      "宅": 1533,
      "宇": 1534,
      "守": 1535,
      "安": 1536,
      "宋": 1537,
      "完": 1538,
      "宏": 1539,
      "宕": 1540,
      "宗": 1541,
      "官": 1542,
      "宙": 1543,
      "定": 1544,
      "宛": 1545,
      "宜": 1546,
      "宝": 1547,
      "实": 1548,
      "宠": 1549,
      "审": 1550,
      "客": 1551,
      "宣": 1552,
      "室": 1553,
      "宨": 1554,
      "宮": 1555,
      "宰": 1556,
      "害": 1557,
      "宴": 1558,
      "宵": 1559,
      "家": 1560,
      "宸": 1561,
      "容": 1562,
      "宼": 1563,
      "宿": 1564,
      "寂": 1565,
      "寄": 1566,
      "寅": 1567,
      "密": 1568,
      "寇": 1569,
      "富": 1570,
      "寐": 1571,
      "寒": 1572,
      "寓": 1573,
      "寔": 1574,
      "寗": 1575,
      "寘": 1576,
      "寝": 1577,
      "寞": 1578,
      "察": 1579,
      "寡": 1580,
      "寢": 1581,
      "寤": 1582,
      "寥": 1583,
      "實": 1584,
      "寧": 1585,
      "寨": 1586,
      "審": 1587,
      "寫": 1588,
      "寬": 1589,
      "寵": 1590,
      "寶": 1591,
      "寸": 1592,
      "对": 1593,
      "寺": 1594,
      "寻": 1595,
      "导": 1596,
      "封": 1597,
      "射": 1598,
      "将": 1599,
      "將": 1600,
      "專": 1601,
      "尊": 1602,
      "尋": 1603,
      "對": 1604,
      "小": 1605,
      "少": 1606,
      "尖": 1607,
      "尙": 1608,
      "尚": 1609,
      "尝": 1610,
      "尤": 1611,
      "尧": 1612,
      "就": 1613,
      "尸": 1614,
      "尹": 1615,
      "尺": 1616,
      "尼": 1617,
      "尽": 1618,
      "尾": 1619,
      "局": 1620,
      "居": 1621,
      "屆": 1622,
      "屈": 1623,
      "屋": 1624,
      "屍": 1625,
      "屏": 1626,
      "展": 1627,
      "屠": 1628,
      "屢": 1629,
      "層": 1630,
      "履": 1631,
      "屧": 1632,
      "屨": 1633,
      "屬": 1634,
      "屯": 1635,
      "山": 1636,
      "屹": 1637,
      "岁": 1638,
      "岃": 1639,
      "岌": 1640,
      "岐": 1641,
      "岑": 1642,
      "岞": 1643,
      "岡": 1644,
      "岩": 1645,
      "岭": 1646,
      "岱": 1647,
      "岲": 1648,
      "岳": 1649,
      "岸": 1650,
      "岹": 1651,
      "岺": 1652,
      "峃": 1653,
      "峅": 1654,
      "峙": 1655,
      "峢": 1656,
      "峦": 1657,
      "峭": 1658,
      "峰": 1659,
      "峳": 1660,
      "島": 1661,
      "峺": 1662,
      "峻": 1663,
      "峼": 1664,
      "峾": 1665,
      "崆": 1666,
      "崇": 1667,
      "崎": 1668,
      "崐": 1669,
      "崔": 1670,
      "崖": 1671,
      "崘": 1672,
      "崛": 1673,
      "崜": 1674,
      "崩": 1675,
      "嵇": 1676,
      "嵎": 1677,
      "嵐": 1678,
      "嵦": 1679,
      "嵩": 1680,
      "嵬": 1681,
      "嶇": 1682,
      "嶏": 1683,
      "嶦": 1684,
      "嶺": 1685,
      "嶽": 1686,
      "巄": 1687,
      "巍": 1688,
      "巒": 1689,
      "川": 1690,
      "州": 1691,
      "巡": 1692,
      "巢": 1693,
      "巣": 1694,
      "工": 1695,
      "左": 1696,
      "巧": 1697,
      "巨": 1698,
      "巫": 1699,
      "差": 1700,
      "己": 1701,
      "已": 1702,
      "巴": 1703,
      "巵": 1704,
      "巷": 1705,
      "巽": 1706,
      "巾": 1707,
      "巿": 1708,
      "帀": 1709,
      "市": 1710,
      "布": 1711,
      "帆": 1712,
      "师": 1713,
      "希": 1714,
      "帕": 1715,
      "帘": 1716,
      "帛": 1717,
      "帝": 1718,
      "帞": 1719,
      "帥": 1720,
      "師": 1721,
      "席": 1722,
      "帳": 1723,
      "帶": 1724,
      "帷": 1725,
      "常": 1726,
      "帽": 1727,
      "幃": 1728,
      "幄": 1729,
      "幕": 1730,
      "幢": 1731,
      "幣": 1732,
      "幫": 1733,
      "幬": 1734,
      "干": 1735,
      "平": 1736,
      "年": 1737,
      "并": 1738,
      "幸": 1739,
      "幹": 1740,
      "幻": 1741,
      "幼": 1742,
      "幽": 1743,
      "幾": 1744,
      "庄": 1745,
      "庆": 1746,
      "庇": 1747,
      "床": 1748,
      "序": 1749,
      "庒": 1750,
      "应": 1751,
      "底": 1752,
      "店": 1753,
      "庙": 1754,
      "庚": 1755,
      "府": 1756,
      "度": 1757,
      "座": 1758,
      "庫": 1759,
      "庭": 1760,
      "庵": 1761,
      "庶": 1762,
      "康": 1763,
      "庸": 1764,
      "廁": 1765,
      "廂": 1766,
      "廉": 1767,
      "廊": 1768,
      "廌": 1769,
      "廏": 1770,
      "廓": 1771,
      "廕": 1772,
      "廖": 1773,
      "廚": 1774,
      "廛": 1775,
      "廟": 1776,
      "廠": 1777,
      "廢": 1778,
      "廣": 1779,
      "廨": 1780,
      "廩": 1781,
      "廬": 1782,
      "廳": 1783,
      "廵": 1784,
      "延": 1785,
      "廷": 1786,
      "廸": 1787,
      "建": 1788,
      "开": 1789,
      "异": 1790,
      "弄": 1791,
      "弈": 1792,
      "弊": 1793,
      "弋": 1794,
      "弍": 1795,
      "式": 1796,
      "弒": 1797,
      "弓": 1798,
      "弔": 1799,
      "引": 1800,
      "弗": 1801,
      "弘": 1802,
      "弛": 1803,
      "弟": 1804,
      "张": 1805,
      "弥": 1806,
      "弦": 1807,
      "弧": 1808,
      "弩": 1809,
      "弱": 1810,
      "張": 1811,
      "強": 1812,
      "强": 1813,
      "弼": 1814,
      "彀": 1815,
      "彅": 1816,
      "彈": 1817,
      "彊": 1818,
      "彌": 1819,
      "归": 1820,
      "当": 1821,
      "彖": 1822,
      "彙": 1823,
      "形": 1824,
      "彣": 1825,
      "彦": 1826,
      "彩": 1827,
      "彭": 1828,
      "彮": 1829,
      "彰": 1830,
      "影": 1831,
      "彶": 1832,
      "彷": 1833,
      "役": 1834,
      "彼": 1835,
      "彿": 1836,
      "往": 1837,
      "征": 1838,
      "徂": 1839,
      "徃": 1840,
      "待": 1841,
      "徇": 1842,
      "很": 1843,
      "徊": 1844,
      "律": 1845,
      "後": 1846,
      "徐": 1847,
      "徑": 1848,
      "徒": 1849,
      "得": 1850,
      "徘": 1851,
      "徙": 1852,
      "徚": 1853,
      "從": 1854,
      "御": 1855,
      "復": 1856,
      "循": 1857,
      "徭": 1858,
      "微": 1859,
      "徳": 1860,
      "徴": 1861,
      "徵": 1862,
      "德": 1863,
      "徸": 1864,
      "徹": 1865,
      "徼": 1866,
      "心": 1867,
      "必": 1868,
      "忌": 1869,
      "忍": 1870,
      "忒": 1871,
      "志": 1872,
      "忘": 1873,
      "忙": 1874,
      "忛": 1875,
      "忠": 1876,
      "忡": 1877,
      "快": 1878,
      "忭": 1879,
      "忱": 1880,
      "念": 1881,
      "忽": 1882,
      "忿": 1883,
      "态": 1884,
      "怍": 1885,
      "怒": 1886,
      "怕": 1887,
      "怜": 1888,
      "思": 1889,
      "怠": 1890,
      "怡": 1891,
      "急": 1892,
      "性": 1893,
      "怨": 1894,
      "怪": 1895,
      "怯": 1896,
      "怶": 1897,
      "怺": 1898,
      "总": 1899,
      "怽": 1900,
      "怾": 1901,
      "恃": 1902,
      "恆": 1903,
      "恍": 1904,
      "恐": 1905,
      "恒": 1906,
      "恕": 1907,
      "恙": 1908,
      "恢": 1909,
      "恣": 1910,
      "恤": 1911,
      "恥": 1912,
      "恨": 1913,
      "恩": 1914,
      "恪": 1915,
      "恫": 1916,
      "恬": 1917,
      "恭": 1918,
      "息": 1919,
      "恱": 1920,
      "悃": 1921,
      "悄": 1922,
      "悅": 1923,
      "悉": 1924,
      "悌": 1925,
      "悔": 1926,
      "悖": 1927,
      "悟": 1928,
      "悠": 1929,
      "患": 1930,
      "您": 1931,
      "悪": 1932,
      "悲": 1933,
      "悴": 1934,
      "悶": 1935,
      "悼": 1936,
      "惄": 1937,
      "情": 1938,
      "惊": 1939,
      "惑": 1940,
      "惕": 1941,
      "惘": 1942,
      "惚": 1943,
      "惛": 1944,
      "惜": 1945,
      "惟": 1946,
      "惠": 1947,
      "惡": 1948,
      "惣": 1949,
      "惰": 1950,
      "惱": 1951,
      "想": 1952,
      "惶": 1953,
      "惻": 1954,
      "愁": 1955,
      "愆": 1956,
      "愈": 1957,
      "愌": 1958,
      "意": 1959,
      "愚": 1960,
      "愛": 1961,
      "感": 1962,
      "愧": 1963,
      "愨": 1964,
      "愬": 1965,
      "愷": 1966,
      "愼": 1967,
      "愿": 1968,
      "慄": 1969,
      "慇": 1970,
      "慈": 1971,
      "態": 1972,
      "慍": 1973,
      "慎": 1974,
      "慕": 1975,
      "慘": 1976,
      "慚": 1977,
      "慜": 1978,
      "慝": 1979,
      "慢": 1980,
      "慣": 1981,
      "慧": 1982,
      "慨": 1983,
      "慮": 1984,
      "慳": 1985,
      "慵": 1986,
      "慶": 1987,
      "慷": 1988,
      "慾": 1989,
      "憂": 1990,
      "憊": 1991,
      "憎": 1992,
      "憐": 1993,
      "憑": 1994,
      "憔": 1995,
      "憤": 1996,
      "憥": 1997,
      "憧": 1998,
      "憫": 1999,
      "憬": 2000,
      "憲": 2001,
      "憶": 2002,
      "憹": 2003,
      "憻": 2004,
      "憽": 2005,
      "懃": 2006,
      "懇": 2007,
      "應": 2008,
      "懋": 2009,
      "懎": 2010,
      "懐": 2011,
      "懦": 2012,
      "懯": 2013,
      "懲": 2014,
      "懵": 2015,
      "懶": 2016,
      "懷": 2017,
      "懸": 2018,
      "懼": 2019,
      "懿": 2020,
      "戀": 2021,
      "戈": 2022,
      "戊": 2023,
      "戌": 2024,
      "戍": 2025,
      "戎": 2026,
      "戏": 2027,
      "成": 2028,
      "我": 2029,
      "戒": 2030,
      "戔": 2031,
      "戕": 2032,
      "或": 2033,
      "战": 2034,
      "戚": 2035,
      "戛": 2036,
      "戞": 2037,
      "戟": 2038,
      "截": 2039,
      "戮": 2040,
      "戰": 2041,
      "戲": 2042,
      "戴": 2043,
      "戶": 2044,
      "户": 2045,
      "戼": 2046,
      "戾": 2047,
      "房": 2048,
      "所": 2049,
      "扄": 2050,
      "扅": 2051,
      "扇": 2052,
      "手": 2053,
      "扌": 2054,
      "才": 2055,
      "扒": 2056,
      "打": 2057,
      "扔": 2058,
      "托": 2059,
      "扝": 2060,
      "扟": 2061,
      "扣": 2062,
      "执": 2063,
      "扨": 2064,
      "扱": 2065,
      "扶": 2066,
      "批": 2067,
      "扼": 2068,
      "找": 2069,
      "承": 2070,
      "技": 2071,
      "把": 2072,
      "抑": 2073,
      "抒": 2074,
      "投": 2075,
      "抗": 2076,
      "折": 2077,
      "抛": 2078,
      "抜": 2079,
      "报": 2080,
      "披": 2081,
      "抱": 2082,
      "抵": 2083,
      "拂": 2084,
      "担": 2085,
      "拇": 2086,
      "拉": 2087,
      "拊": 2088,
      "拋": 2089,
      "拏": 2090,
      "拒": 2091,
      "拔": 2092,
      "拘": 2093,
      "拙": 2094,
      "招": 2095,
      "拜": 2096,
      "择": 2097,
      "括": 2098,
      "拮": 2099,
      "拯": 2100,
      "拱": 2101,
      "拳": 2102,
      "拼": 2103,
      "拾": 2104,
      "持": 2105,
      "挆": 2106,
      "指": 2107,
      "按": 2108,
      "挊": 2109,
      "挑": 2110,
      "挧": 2111,
      "挫": 2112,
      "振": 2113,
      "挺": 2114,
      "挼": 2115,
      "挽": 2116,
      "挾": 2117,
      "捍": 2118,
      "捏": 2119,
      "捐": 2120,
      "捧": 2121,
      "捨": 2122,
      "捲": 2123,
      "捷": 2124,
      "捻": 2125,
      "捽": 2126,
      "掃": 2127,
      "授": 2128,
      "掉": 2129,
      "掌": 2130,
      "掏": 2131,
      "排": 2132,
      "掘": 2133,
      "掛": 2134,
      "採": 2135,
      "探": 2136,
      "掣": 2137,
      "接": 2138,
      "控": 2139,
      "推": 2140,
      "掩": 2141,
      "措": 2142,
      "揆": 2143,
      "提": 2144,
      "插": 2145,
      "揚": 2146,
      "換": 2147,
      "握": 2148,
      "揣": 2149,
      "揦": 2150,
      "揫": 2151,
      "揭": 2152,
      "揮": 2153,
      "援": 2154,
      "揼": 2155,
      "搆": 2156,
      "損": 2157,
      "搏": 2158,
      "搓": 2159,
      "搔": 2160,
      "搖": 2161,
      "搗": 2162,
      "搜": 2163,
      "搥": 2164,
      "搩": 2165,
      "携": 2166,
      "摂": 2167,
      "摘": 2168,
      "摧": 2169,
      "摩": 2170,
      "摳": 2171,
      "摼": 2172,
      "撅": 2173,
      "撈": 2174,
      "撊": 2175,
      "撓": 2176,
      "撘": 2177,
      "撝": 2178,
      "撤": 2179,
      "撨": 2180,
      "撩": 2181,
      "撪": 2182,
      "撫": 2183,
      "播": 2184,
      "撰": 2185,
      "撻": 2186,
      "擁": 2187,
      "擅": 2188,
      "擇": 2189,
      "擊": 2190,
      "操": 2191,
      "擒": 2192,
      "擓": 2193,
      "據": 2194,
      "擧": 2195,
      "擬": 2196,
      "擯": 2197,
      "擱": 2198,
      "擲": 2199,
      "擼": 2200,
      "擾": 2201,
      "攘": 2202,
      "攜": 2203,
      "攝": 2204,
      "攣": 2205,
      "攤": 2206,
      "攨": 2207,
      "攫": 2208,
      "攬": 2209,
      "支": 2210,
      "攲": 2211,
      "收": 2212,
      "攸": 2213,
      "改": 2214,
      "攻": 2215,
      "放": 2216,
      "政": 2217,
      "故": 2218,
      "效": 2219,
      "敌": 2220,
      "敎": 2221,
      "敏": 2222,
      "救": 2223,
      "敕": 2224,
      "敗": 2225,
      "敘": 2226,
      "教": 2227,
      "敝": 2228,
      "敢": 2229,
      "散": 2230,
      "敦": 2231,
      "敬": 2232,
      "数": 2233,
      "敱": 2234,
      "敲": 2235,
      "整": 2236,
      "敵": 2237,
      "敷": 2238,
      "數": 2239,
      "敻": 2240,
      "斂": 2241,
      "斅": 2242,
      "文": 2243,
      "斌": 2244,
      "斎": 2245,
      "斑": 2246,
      "斗": 2247,
      "料": 2248,
      "斜": 2249,
      "斟": 2250,
      "斧": 2251,
      "斫": 2252,
      "斬": 2253,
      "断": 2254,
      "斯": 2255,
      "新": 2256,
      "斵": 2257,
      "斷": 2258,
      "方": 2259,
      "於": 2260,
      "施": 2261,
      "旁": 2262,
      "旃": 2263,
      "旅": 2264,
      "旆": 2265,
      "旋": 2266,
      "旌": 2267,
      "旎": 2268,
      "族": 2269,
      "旖": 2270,
      "旗": 2271,
      "旘": 2272,
      "无": 2273,
      "既": 2274,
      "日": 2275,
      "旦": 2276,
      "旨": 2277,
      "早": 2278,
      "旬": 2279,
      "旭": 2280,
      "旱": 2281,
      "时": 2282,
      "旺": 2283,
      "昂": 2284,
      "昃": 2285,
      "昆": 2286,
      "昇": 2287,
      "昊": 2288,
      "昌": 2289,
      "明": 2290,
      "昏": 2291,
      "易": 2292,
      "昔": 2293,
      "昕": 2294,
      "昚": 2295,
      "星": 2296,
      "映": 2297,
      "春": 2298,
      "昧": 2299,
      "昨": 2300,
      "昭": 2301,
      "是": 2302,
      "昰": 2303,
      "昿": 2304,
      "時": 2305,
      "晉": 2306,
      "晏": 2307,
      "晓": 2308,
      "晖": 2309,
      "晚": 2310,
      "晝": 2311,
      "晞": 2312,
      "晟": 2313,
      "晤": 2314,
      "晦": 2315,
      "晨": 2316,
      "晫": 2317,
      "晭": 2318,
      "普": 2319,
      "景": 2320,
      "晰": 2321,
      "晴": 2322,
      "晶": 2323,
      "智": 2324,
      "暄": 2325,
      "暈": 2326,
      "暉": 2327,
      "暑": 2328,
      "暖": 2329,
      "暗": 2330,
      "暢": 2331,
      "暨": 2332,
      "暫": 2333,
      "暮": 2334,
      "暴": 2335,
      "暹": 2336,
      "曇": 2337,
      "曉": 2338,
      "曕": 2339,
      "曠": 2340,
      "曢": 2341,
      "曥": 2342,
      "曰": 2343,
      "曲": 2344,
      "曳": 2345,
      "更": 2346,
      "曷": 2347,
      "書": 2348,
      "曹": 2349,
      "曾": 2350,
      "替": 2351,
      "最": 2352,
      "會": 2353,
      "月": 2354,
      "有": 2355,
      "朋": 2356,
      "服": 2357,
      "朔": 2358,
      "朕": 2359,
      "朗": 2360,
      "朘": 2361,
      "望": 2362,
      "朝": 2363,
      "期": 2364,
      "朦": 2365,
      "朧": 2366,
      "木": 2367,
      "朩": 2368,
      "未": 2369,
      "末": 2370,
      "本": 2371,
      "札": 2372,
      "朱": 2373,
      "朴": 2374,
      "朵": 2375,
      "机": 2376,
      "朽": 2377,
      "杁": 2378,
      "权": 2379,
      "杆": 2380,
      "李": 2381,
      "材": 2382,
      "村": 2383,
      "杓": 2384,
      "杖": 2385,
      "杘": 2386,
      "杜": 2387,
      "杞": 2388,
      "束": 2389,
      "条": 2390,
      "来": 2391,
      "杨": 2392,
      "杭": 2393,
      "杯": 2394,
      "杰": 2395,
      "東": 2396,
      "杲": 2397,
      "杵": 2398,
      "杼": 2399,
      "松": 2400,
      "板": 2401,
      "极": 2402,
      "枉": 2403,
      "枋": 2404,
      "枕": 2405,
      "林": 2406,
      "枚": 2407,
      "果": 2408,
      "枝": 2409,
      "枯": 2410,
      "架": 2411,
      "枸": 2412,
      "枾": 2413,
      "柄": 2414,
      "柅": 2415,
      "柏": 2416,
      "某": 2417,
      "染": 2418,
      "柔": 2419,
      "柚": 2420,
      "柢": 2421,
      "查": 2422,
      "柯": 2423,
      "柱": 2424,
      "柳": 2425,
      "柴": 2426,
      "标": 2427,
      "栗": 2428,
      "校": 2429,
      "株": 2430,
      "栴": 2431,
      "根": 2432,
      "格": 2433,
      "栽": 2434,
      "桀": 2435,
      "桂": 2436,
      "桃": 2437,
      "桅": 2438,
      "案": 2439,
      "桎": 2440,
      "桐": 2441,
      "桑": 2442,
      "桓": 2443,
      "桚": 2444,
      "桰": 2445,
      "桷": 2446,
      "梁": 2447,
      "梄": 2448,
      "梅": 2449,
      "梏": 2450,
      "梓": 2451,
      "梗": 2452,
      "梚": 2453,
      "條": 2454,
      "梟": 2455,
      "梦": 2456,
      "梧": 2457,
      "梨": 2458,
      "梭": 2459,
      "梯": 2460,
      "械": 2461,
      "梳": 2462,
      "棄": 2463,
      "棊": 2464,
      "棋": 2465,
      "棘": 2466,
      "棟": 2467,
      "棣": 2468,
      "棧": 2469,
      "森": 2470,
      "棱": 2471,
      "棲": 2472,
      "棹": 2473,
      "棺": 2474,
      "椁": 2475,
      "椅": 2476,
      "植": 2477,
      "椒": 2478,
      "椖": 2479,
      "検": 2480,
      "椨": 2481,
      "椽": 2482,
      "楊": 2483,
      "楗": 2484,
      "楚": 2485,
      "楫": 2486,
      "業": 2487,
      "極": 2488,
      "楷": 2489,
      "楸": 2490,
      "楹": 2491,
      "楼": 2492,
      "概": 2493,
      "榆": 2494,
      "榋": 2495,
      "榤": 2496,
      "榮": 2497,
      "榺": 2498,
      "槃": 2499,
      "槊": 2500,
      "槌": 2501,
      "槐": 2502,
      "槒": 2503,
      "様": 2504,
      "槣": 2505,
      "槩": 2506,
      "樂": 2507,
      "樑": 2508,
      "樓": 2509,
      "樗": 2510,
      "標": 2511,
      "樚": 2512,
      "模": 2513,
      "樣": 2514,
      "樨": 2515,
      "横": 2516,
      "樵": 2517,
      "樸": 2518,
      "樹": 2519,
      "樽": 2520,
      "橂": 2521,
      "橈": 2522,
      "橋": 2523,
      "橐": 2524,
      "橘": 2525,
      "機": 2526,
      "橫": 2527,
      "橮": 2528,
      "橯": 2529,
      "檀": 2530,
      "檄": 2531,
      "檑": 2532,
      "檔": 2533,
      "檜": 2534,
      "檝": 2535,
      "檟": 2536,
      "櫀": 2537,
      "櫛": 2538,
      "櫟": 2539,
      "櫲": 2540,
      "櫳": 2541,
      "欄": 2542,
      "權": 2543,
      "欕": 2544,
      "欠": 2545,
      "次": 2546,
      "欢": 2547,
      "欣": 2548,
      "欦": 2549,
      "欮": 2550,
      "欲": 2551,
      "欺": 2552,
      "欽": 2553,
      "款": 2554,
      "歄": 2555,
      "歆": 2556,
      "歇": 2557,
      "歈": 2558,
      "歉": 2559,
      "歌": 2560,
      "歎": 2561,
      "歐": 2562,
      "歔": 2563,
      "歙": 2564,
      "歛": 2565,
      "歟": 2566,
      "歡": 2567,
      "止": 2568,
      "正": 2569,
      "此": 2570,
      "步": 2571,
      "武": 2572,
      "歯": 2573,
      "歰": 2574,
      "歲": 2575,
      "歳": 2576,
      "歷": 2577,
      "歸": 2578,
      "死": 2579,
      "殃": 2580,
      "殄": 2581,
      "殆": 2582,
      "殊": 2583,
      "殘": 2584,
      "殤": 2585,
      "殪": 2586,
      "段": 2587,
      "殷": 2588,
      "殺": 2589,
      "殿": 2590,
      "毀": 2591,
      "毁": 2592,
      "毅": 2593,
      "毋": 2594,
      "母": 2595,
      "每": 2596,
      "毒": 2597,
      "比": 2598,
      "毛": 2599,
      "毡": 2600,
      "毫": 2601,
      "毬": 2602,
      "氂": 2603,
      "氈": 2604,
      "氊": 2605,
      "氏": 2606,
      "民": 2607,
      "氓": 2608,
      "气": 2609,
      "氜": 2610,
      "氣": 2611,
      "水": 2612,
      "永": 2613,
      "氾": 2614,
      "汁": 2615,
      "求": 2616,
      "汆": 2617,
      "汋": 2618,
      "汎": 2619,
      "汔": 2620,
      "汖": 2621,
      "汗": 2622,
      "汝": 2623,
      "江": 2624,
      "池": 2625,
      "污": 2626,
      "汪": 2627,
      "汰": 2628,
      "汲": 2629,
      "決": 2630,
      "沁": 2631,
      "沂": 2632,
      "沃": 2633,
      "沅": 2634,
      "沈": 2635,
      "沉": 2636,
      "沌": 2637,
      "沐": 2638,
      "沒": 2639,
      "沓": 2640,
      "沔": 2641,
      "沖": 2642,
      "沙": 2643,
      "沚": 2644,
      "沛": 2645,
      "沟": 2646,
      "没": 2647,
      "沫": 2648,
      "沬": 2649,
      "沮": 2650,
      "沱": 2651,
      "河": 2652,
      "油": 2653,
      "治": 2654,
      "沼": 2655,
      "況": 2656,
      "泉": 2657,
      "泊": 2658,
      "法": 2659,
      "泗": 2660,
      "泘": 2661,
      "泚": 2662,
      "泛": 2663,
      "波": 2664,
      "泣": 2665,
      "泥": 2666,
      "注": 2667,
      "泮": 2668,
      "泯": 2669,
      "泰": 2670,
      "泽": 2671,
      "洄": 2672,
      "洋": 2673,
      "洌": 2674,
      "洒": 2675,
      "洗": 2676,
      "洛": 2677,
      "洞": 2678,
      "洟": 2679,
      "津": 2680,
      "洪": 2681,
      "洫": 2682,
      "洱": 2683,
      "洲": 2684,
      "活": 2685,
      "洽": 2686,
      "派": 2687,
      "流": 2688,
      "浌": 2689,
      "济": 2690,
      "浑": 2691,
      "浚": 2692,
      "浦": 2693,
      "浩": 2694,
      "浪": 2695,
      "浮": 2696,
      "浴": 2697,
      "海": 2698,
      "浹": 2699,
      "涅": 2700,
      "涇": 2701,
      "消": 2702,
      "涉": 2703,
      "涎": 2704,
      "涓": 2705,
      "涕": 2706,
      "涘": 2707,
      "涯": 2708,
      "液": 2709,
      "涼": 2710,
      "淁": 2711,
      "淄": 2712,
      "淇": 2713,
      "淋": 2714,
      "淑": 2715,
      "淒": 2716,
      "淘": 2717,
      "淚": 2718,
      "淝": 2719,
      "淡": 2720,
      "淥": 2721,
      "淨": 2722,
      "淪": 2723,
      "淫": 2724,
      "淮": 2725,
      "深": 2726,
      "淵": 2727,
      "淶": 2728,
      "混": 2729,
      "淹": 2730,
      "淺": 2731,
      "添": 2732,
      "清": 2733,
      "渉": 2734,
      "渊": 2735,
      "渕": 2736,
      "渙": 2737,
      "渚": 2738,
      "減": 2739,
      "渝": 2740,
      "渡": 2741,
      "渤": 2742,
      "渥": 2743,
      "渫": 2744,
      "渭": 2745,
      "渴": 2746,
      "游": 2747,
      "渺": 2748,
      "渻": 2749,
      "渾": 2750,
      "湄": 2751,
      "湍": 2752,
      "湎": 2753,
      "湔": 2754,
      "湖": 2755,
      "湘": 2756,
      "湛": 2757,
      "湯": 2758,
      "湶": 2759,
      "溅": 2760,
      "源": 2761,
      "準": 2762,
      "溝": 2763,
      "溟": 2764,
      "溥": 2765,
      "溪": 2766,
      "溫": 2767,
      "溯": 2768,
      "溶": 2769,
      "溷": 2770,
      "溺": 2771,
      "滂": 2772,
      "滄": 2773,
      "滅": 2774,
      "滋": 2775,
      "滌": 2776,
      "滑": 2777,
      "滔": 2778,
      "满": 2779,
      "滯": 2780,
      "滴": 2781,
      "滸": 2782,
      "滺": 2783,
      "滾": 2784,
      "滿": 2785,
      "漁": 2786,
      "漂": 2787,
      "漉": 2788,
      "漏": 2789,
      "漑": 2790,
      "演": 2791,
      "漠": 2792,
      "漢": 2793,
      "漣": 2794,
      "漫": 2795,
      "漸": 2796,
      "潂": 2797,
      "潄": 2798,
      "潔": 2799,
      "潘": 2800,
      "潛": 2801,
      "潤": 2802,
      "潭": 2803,
      "潮": 2804,
      "潯": 2805,
      "潰": 2806,
      "澃": 2807,
      "澄": 2808,
      "澈": 2809,
      "澣": 2810,
      "澤": 2811,
      "澮": 2812,
      "澳": 2813,
      "澹": 2814,
      "激": 2815,
      "濁": 2816,
      "濃": 2817,
      "濊": 2818,
      "濕": 2819,
      "濛": 2820,
      "濟": 2821,
      "濡": 2822,
      "濤": 2823,
      "濬": 2824,
      "濯": 2825,
      "濰": 2826,
      "濱": 2827,
      "濽": 2828,
      "瀂": 2829,
      "瀆": 2830,
      "瀉": 2831,
      "瀋": 2832,
      "瀐": 2833,
      "瀓": 2834,
      "瀘": 2835,
      "瀚": 2836,
      "瀛": 2837,
      "瀝": 2838,
      "瀟": 2839,
      "瀨": 2840,
      "瀾": 2841,
      "灘": 2842,
      "灜": 2843,
      "火": 2844,
      "灰": 2845,
      "灵": 2846,
      "灶": 2847,
      "灼": 2848,
      "災": 2849,
      "炉": 2850,
      "炎": 2851,
      "炗": 2852,
      "炙": 2853,
      "炞": 2854,
      "炤": 2855,
      "炥": 2856,
      "炦": 2857,
      "炧": 2858,
      "炬": 2859,
      "炭": 2860,
      "炮": 2861,
      "炳": 2862,
      "炷": 2863,
      "炸": 2864,
      "点": 2865,
      "為": 2866,
      "烈": 2867,
      "烏": 2868,
      "烘": 2869,
      "烜": 2870,
      "烟": 2871,
      "烬": 2872,
      "热": 2873,
      "烹": 2874,
      "烽": 2875,
      "焈": 2876,
      "焉": 2877,
      "焔": 2878,
      "焚": 2879,
      "無": 2880,
      "焮": 2881,
      "焰": 2882,
      "焵": 2883,
      "然": 2884,
      "煇": 2885,
      "煈": 2886,
      "煉": 2887,
      "煌": 2888,
      "煎": 2889,
      "煏": 2890,
      "煑": 2891,
      "煖": 2892,
      "煙": 2893,
      "煜": 2894,
      "煞": 2895,
      "煥": 2896,
      "煦": 2897,
      "照": 2898,
      "煩": 2899,
      "煮": 2900,
      "煵": 2901,
      "煶": 2902,
      "熊": 2903,
      "熏": 2904,
      "熙": 2905,
      "熟": 2906,
      "熬": 2907,
      "熱": 2908,
      "燁": 2909,
      "燃": 2910,
      "燈": 2911,
      "燒": 2912,
      "燕": 2913,
      "營": 2914,
      "燺": 2915,
      "爐": 2916,
      "爑": 2917,
      "爛": 2918,
      "爪": 2919,
      "爭": 2920,
      "爯": 2921,
      "爰": 2922,
      "爱": 2923,
      "爲": 2924,
      "爵": 2925,
      "父": 2926,
      "爹": 2927,
      "爺": 2928,
      "爽": 2929,
      "爾": 2930,
      "牅": 2931,
      "牆": 2932,
      "片": 2933,
      "版": 2934,
      "牋": 2935,
      "牌": 2936,
      "牐": 2937,
      "牖": 2938,
      "牙": 2939,
      "牛": 2940,
      "牝": 2941,
      "牟": 2942,
      "牡": 2943,
      "牢": 2944,
      "牧": 2945,
      "物": 2946,
      "牲": 2947,
      "特": 2948,
      "牺": 2949,
      "牽": 2950,
      "牿": 2951,
      "犁": 2952,
      "犬": 2953,
      "犭": 2954,
      "犯": 2955,
      "犹": 2956,
      "狀": 2957,
      "狂": 2958,
      "狄": 2959,
      "狎": 2960,
      "狐": 2961,
      "狗": 2962,
      "狡": 2963,
      "狩": 2964,
      "独": 2965,
      "狰": 2966,
      "狷": 2967,
      "狹": 2968,
      "狺": 2969,
      "狼": 2970,
      "猎": 2971,
      "猗": 2972,
      "猛": 2973,
      "猝": 2974,
      "猠": 2975,
      "猢": 2976,
      "猪": 2977,
      "献": 2978,
      "猶": 2979,
      "猷": 2980,
      "獄": 2981,
      "獅": 2982,
      "獍": 2983,
      "獕": 2984,
      "獗": 2985,
      "獨": 2986,
      "獰": 2987,
      "獲": 2988,
      "獵": 2989,
      "獸": 2990,
      "獻": 2991,
      "玄": 2992,
      "玆": 2993,
      "率": 2994,
      "玉": 2995,
      "王": 2996,
      "玌": 2997,
      "玩": 2998,
      "玲": 2999,
      "玻": 3000,
      "珄": 3001,
      "珊": 3002,
      "珍": 3003,
      "珕": 3004,
      "珞": 3005,
      "珠": 3006,
      "珥": 3007,
      "班": 3008,
      "珮": 3009,
      "珷": 3010,
      "現": 3011,
      "球": 3012,
      "琅": 3013,
      "理": 3014,
      "琉": 3015,
      "琘": 3016,
      "琛": 3017,
      "琟": 3018,
      "琢": 3019,
      "琥": 3020,
      "琨": 3021,
      "琬": 3022,
      "琭": 3023,
      "琱": 3024,
      "琴": 3025,
      "琵": 3026,
      "琶": 3027,
      "琾": 3028,
      "瑇": 3029,
      "瑈": 3030,
      "瑕": 3031,
      "瑛": 3032,
      "瑞": 3033,
      "瑟": 3034,
      "瑣": 3035,
      "瑤": 3036,
      "瑨": 3037,
      "瑯": 3038,
      "瑰": 3039,
      "瑳": 3040,
      "瑾": 3041,
      "璃": 3042,
      "璌": 3043,
      "璏": 3044,
      "璘": 3045,
      "璜": 3046,
      "璞": 3047,
      "璠": 3048,
      "璡": 3049,
      "璣": 3050,
      "璧": 3051,
      "璫": 3052,
      "環": 3053,
      "璳": 3054,
      "璽": 3055,
      "瓊": 3056,
      "瓜": 3057,
      "瓠": 3058,
      "瓦": 3059,
      "瓯": 3060,
      "瓶": 3061,
      "甃": 3062,
      "甌": 3063,
      "甕": 3064,
      "甘": 3065,
      "甚": 3066,
      "生": 3067,
      "產": 3068,
      "甧": 3069,
      "用": 3070,
      "甫": 3071,
      "甯": 3072,
      "田": 3073,
      "由": 3074,
      "甲": 3075,
      "申": 3076,
      "电": 3077,
      "男": 3078,
      "甸": 3079,
      "画": 3080,
      "畂": 3081,
      "畋": 3082,
      "界": 3083,
      "畏": 3084,
      "畔": 3085,
      "畕": 3086,
      "留": 3087,
      "畜": 3088,
      "畝": 3089,
      "畢": 3090,
      "略": 3091,
      "番": 3092,
      "畫": 3093,
      "畬": 3094,
      "異": 3095,
      "畱": 3096,
      "當": 3097,
      "畹": 3098,
      "疆": 3099,
      "疇": 3100,
      "疊": 3101,
      "疏": 3102,
      "疑": 3103,
      "疚": 3104,
      "疜": 3105,
      "疩": 3106,
      "疵": 3107,
      "疾": 3108,
      "病": 3109,
      "痆": 3110,
      "痊": 3111,
      "痍": 3112,
      "痛": 3113,
      "痡": 3114,
      "痥": 3115,
      "瘄": 3116,
      "瘏": 3117,
      "瘡": 3118,
      "瘦": 3119,
      "瘴": 3120,
      "瘼": 3121,
      "癄": 3122,
      "癈": 3123,
      "癘": 3124,
      "癡": 3125,
      "癩": 3126,
      "癴": 3127,
      "癸": 3128,
      "登": 3129,
      "發": 3130,
      "白": 3131,
      "百": 3132,
      "的": 3133,
      "皆": 3134,
      "皇": 3135,
      "皖": 3136,
      "皤": 3137,
      "皦": 3138,
      "皮": 3139,
      "皷": 3140,
      "盃": 3141,
      "盅": 3142,
      "盆": 3143,
      "盈": 3144,
      "益": 3145,
      "盍": 3146,
      "盎": 3147,
      "盐": 3148,
      "盗": 3149,
      "盛": 3150,
      "盜": 3151,
      "盞": 3152,
      "盟": 3153,
      "盡": 3154,
      "監": 3155,
      "盤": 3156,
      "盥": 3157,
      "盧": 3158,
      "目": 3159,
      "盱": 3160,
      "盲": 3161,
      "直": 3162,
      "相": 3163,
      "盼": 3164,
      "省": 3165,
      "眇": 3166,
      "眈": 3167,
      "眉": 3168,
      "看": 3169,
      "眚": 3170,
      "眞": 3171,
      "真": 3172,
      "眠": 3173,
      "眥": 3174,
      "眫": 3175,
      "眷": 3176,
      "眸": 3177,
      "眼": 3178,
      "眾": 3179,
      "着": 3180,
      "睚": 3181,
      "睡": 3182,
      "督": 3183,
      "睹": 3184,
      "睽": 3185,
      "睿": 3186,
      "瞀": 3187,
      "瞆": 3188,
      "瞞": 3189,
      "瞭": 3190,
      "瞻": 3191,
      "瞿": 3192,
      "矍": 3193,
      "矜": 3194,
      "矢": 3195,
      "矣": 3196,
      "知": 3197,
      "矧": 3198,
      "矩": 3199,
      "短": 3200,
      "矯": 3201,
      "石": 3202,
      "研": 3203,
      "砠": 3204,
      "砥": 3205,
      "砧": 3206,
      "破": 3207,
      "硃": 3208,
      "硦": 3209,
      "硬": 3210,
      "硯": 3211,
      "碍": 3212,
      "碎": 3213,
      "碑": 3214,
      "碒": 3215,
      "碗": 3216,
      "碧": 3217,
      "碩": 3218,
      "磊": 3219,
      "磋": 3220,
      "磐": 3221,
      "磕": 3222,
      "磘": 3223,
      "磚": 3224,
      "磨": 3225,
      "磬": 3226,
      "磸": 3227,
      "礊": 3228,
      "礎": 3229,
      "礙": 3230,
      "礦": 3231,
      "示": 3232,
      "礼": 3233,
      "社": 3234,
      "祀": 3235,
      "祁": 3236,
      "祇": 3237,
      "祈": 3238,
      "祉": 3239,
      "祐": 3240,
      "祔": 3241,
      "祖": 3242,
      "祗": 3243,
      "祚": 3244,
      "祝": 3245,
      "神": 3246,
      "祥": 3247,
      "祭": 3248,
      "祿": 3249,
      "禁": 3250,
      "禃": 3251,
      "禄": 3252,
      "禅": 3253,
      "禊": 3254,
      "禍": 3255,
      "福": 3256,
      "禥": 3257,
      "禦": 3258,
      "禪": 3259,
      "禮": 3260,
      "禱": 3261,
      "禴": 3262,
      "禹": 3263,
      "离": 3264,
      "禽": 3265,
      "禾": 3266,
      "秀": 3267,
      "私": 3268,
      "秋": 3269,
      "种": 3270,
      "科": 3271,
      "秘": 3272,
      "秦": 3273,
      "积": 3274,
      "称": 3275,
      "移": 3276,
      "稀": 3277,
      "稅": 3278,
      "稊": 3279,
      "程": 3280,
      "稔": 3281,
      "稗": 3282,
      "稜": 3283,
      "稟": 3284,
      "稠": 3285,
      "種": 3286,
      "稱": 3287,
      "稷": 3288,
      "稼": 3289,
      "稽": 3290,
      "稿": 3291,
      "穀": 3292,
      "穆": 3293,
      "穌": 3294,
      "積": 3295,
      "穡": 3296,
      "穩": 3297,
      "穫": 3298,
      "穰": 3299,
      "穴": 3300,
      "究": 3301,
      "穷": 3302,
      "空": 3303,
      "穿": 3304,
      "突": 3305,
      "窃": 3306,
      "窄": 3307,
      "窅": 3308,
      "窈": 3309,
      "窒": 3310,
      "窕": 3311,
      "窖": 3312,
      "窗": 3313,
      "窞": 3314,
      "窟": 3315,
      "窣": 3316,
      "窪": 3317,
      "窬": 3318,
      "窮": 3319,
      "窺": 3320,
      "窻": 3321,
      "竆": 3322,
      "竇": 3323,
      "竊": 3324,
      "立": 3325,
      "竌": 3326,
      "站": 3327,
      "竚": 3328,
      "竟": 3329,
      "章": 3330,
      "童": 3331,
      "竭": 3332,
      "端": 3333,
      "竳": 3334,
      "競": 3335,
      "竹": 3336,
      "竺": 3337,
      "竽": 3338,
      "竿": 3339,
      "笄": 3340,
      "笌": 3341,
      "笏": 3342,
      "笑": 3343,
      "笖": 3344,
      "笙": 3345,
      "笛": 3346,
      "笠": 3347,
      "符": 3348,
      "第": 3349,
      "笹": 3350,
      "笽": 3351,
      "筃": 3352,
      "筆": 3353,
      "等": 3354,
      "筋": 3355,
      "筐": 3356,
      "筒": 3357,
      "答": 3358,
      "策": 3359,
      "筨": 3360,
      "筮": 3361,
      "筲": 3362,
      "筳": 3363,
      "筹": 3364,
      "箋": 3365,
      "箏": 3366,
      "箕": 3367,
      "算": 3368,
      "管": 3369,
      "箭": 3370,
      "箱": 3371,
      "箳": 3372,
      "箼": 3373,
      "節": 3374,
      "範": 3375,
      "篇": 3376,
      "築": 3377,
      "篍": 3378,
      "篡": 3379,
      "篤": 3380,
      "篦": 3381,
      "篭": 3382,
      "簋": 3383,
      "簕": 3384,
      "簡": 3385,
      "簪": 3386,
      "簫": 3387,
      "簾": 3388,
      "籌": 3389,
      "籍": 3390,
      "籑": 3391,
      "籒": 3392,
      "籠": 3393,
      "籬": 3394,
      "籲": 3395,
      "米": 3396,
      "籶": 3397,
      "类": 3398,
      "粇": 3399,
      "粉": 3400,
      "粒": 3401,
      "粗": 3402,
      "粟": 3403,
      "粥": 3404,
      "粧": 3405,
      "粮": 3406,
      "粰": 3407,
      "粵": 3408,
      "精": 3409,
      "糊": 3410,
      "糞": 3411,
      "糧": 3412,
      "系": 3413,
      "紀": 3414,
      "紂": 3415,
      "約": 3416,
      "紅": 3417,
      "紈": 3418,
      "納": 3419,
      "純": 3420,
      "紗": 3421,
      "紙": 3422,
      "級": 3423,
      "紛": 3424,
      "素": 3425,
      "索": 3426,
      "紤": 3427,
      "紫": 3428,
      "累": 3429,
      "細": 3430,
      "紱": 3431,
      "紹": 3432,
      "絀": 3433,
      "終": 3434,
      "絃": 3435,
      "組": 3436,
      "結": 3437,
      "絕": 3438,
      "絞": 3439,
      "絡": 3440,
      "絤": 3441,
      "給": 3442,
      "絮": 3443,
      "統": 3444,
      "絲": 3445,
      "綁": 3446,
      "綋": 3447,
      "綏": 3448,
      "經": 3449,
      "綠": 3450,
      "綦": 3451,
      "綨": 3452,
      "維": 3453,
      "綱": 3454,
      "網": 3455,
      "綴": 3456,
      "綵": 3457,
      "綽": 3458,
      "綿": 3459,
      "緈": 3460,
      "緊": 3461,
      "緘": 3462,
      "緙": 3463,
      "線": 3464,
      "緝": 3465,
      "緣": 3466,
      "緦": 3467,
      "編": 3468,
      "緪": 3469,
      "緫": 3470,
      "緬": 3471,
      "緯": 3472,
      "練": 3473,
      "縆": 3474,
      "縙": 3475,
      "縛": 3476,
      "縣": 3477,
      "縮": 3478,
      "縱": 3479,
      "縵": 3480,
      "縷": 3481,
      "縻": 3482,
      "總": 3483,
      "繁": 3484,
      "繆": 3485,
      "繒": 3486,
      "織": 3487,
      "繕": 3488,
      "繘": 3489,
      "繞": 3490,
      "繟": 3491,
      "繡": 3492,
      "繤": 3493,
      "繩": 3494,
      "繪": 3495,
      "繫": 3496,
      "繱": 3497,
      "繳": 3498,
      "繻": 3499,
      "繼": 3500,
      "纅": 3501,
      "纆": 3502,
      "纇": 3503,
      "纊": 3504,
      "續": 3505,
      "纏": 3506,
      "纓": 3507,
      "纔": 3508,
      "纖": 3509,
      "纪": 3510,
      "纯": 3511,
      "终": 3512,
      "经": 3513,
      "绑": 3514,
      "绕": 3515,
      "绖": 3516,
      "给": 3517,
      "绝": 3518,
      "绳": 3519,
      "缊": 3520,
      "缐": 3521,
      "缕": 3522,
      "编": 3523,
      "缘": 3524,
      "缝": 3525,
      "缭": 3526,
      "缶": 3527,
      "缷": 3528,
      "缺": 3529,
      "罀": 3530,
      "罄": 3531,
      "罍": 3532,
      "罒": 3533,
      "罔": 3534,
      "罕": 3535,
      "罗": 3536,
      "罡": 3537,
      "罣": 3538,
      "罪": 3539,
      "置": 3540,
      "罰": 3541,
      "罵": 3542,
      "罷": 3543,
      "羅": 3544,
      "羈": 3545,
      "羊": 3546,
      "美": 3547,
      "羕": 3548,
      "羝": 3549,
      "羞": 3550,
      "羡": 3551,
      "群": 3552,
      "羨": 3553,
      "義": 3554,
      "羲": 3555,
      "羸": 3556,
      "羹": 3557,
      "羽": 3558,
      "羿": 3559,
      "翁": 3560,
      "翅": 3561,
      "習": 3562,
      "翓": 3563,
      "翕": 3564,
      "翘": 3565,
      "翚": 3566,
      "翝": 3567,
      "翠": 3568,
      "翩": 3569,
      "翰": 3570,
      "翹": 3571,
      "翻": 3572,
      "翼": 3573,
      "耀": 3574,
      "老": 3575,
      "考": 3576,
      "者": 3577,
      "耆": 3578,
      "耉": 3579,
      "耋": 3580,
      "而": 3581,
      "耐": 3582,
      "耒": 3583,
      "耕": 3584,
      "耗": 3585,
      "耯": 3586,
      "耳": 3587,
      "耶": 3588,
      "耻": 3589,
      "耼": 3590,
      "耽": 3591,
      "聃": 3592,
      "聆": 3593,
      "聊": 3594,
      "聖": 3595,
      "聚": 3596,
      "聞": 3597,
      "聮": 3598,
      "聯": 3599,
      "聲": 3600,
      "聴": 3601,
      "職": 3602,
      "聽": 3603,
      "聾": 3604,
      "肁": 3605,
      "肅": 3606,
      "肆": 3607,
      "肇": 3608,
      "肉": 3609,
      "肋": 3610,
      "肑": 3611,
      "肖": 3612,
      "肚": 3613,
      "肝": 3614,
      "股": 3615,
      "肥": 3616,
      "肦": 3617,
      "肩": 3618,
      "肯": 3619,
      "肱": 3620,
      "育": 3621,
      "肹": 3622,
      "胆": 3623,
      "背": 3624,
      "胏": 3625,
      "胖": 3626,
      "胜": 3627,
      "胝": 3628,
      "胞": 3629,
      "胡": 3630,
      "胥": 3631,
      "胶": 3632,
      "胸": 3633,
      "能": 3634,
      "胾": 3635,
      "脂": 3636,
      "脆": 3637,
      "脈": 3638,
      "脉": 3639,
      "脚": 3640,
      "脛": 3641,
      "脢": 3642,
      "脣": 3643,
      "脧": 3644,
      "脩": 3645,
      "脫": 3646,
      "脱": 3647,
      "腊": 3648,
      "腋": 3649,
      "腐": 3650,
      "腑": 3651,
      "腓": 3652,
      "腥": 3653,
      "腬": 3654,
      "腰": 3655,
      "腸": 3656,
      "腹": 3657,
      "膎": 3658,
      "膏": 3659,
      "膚": 3660,
      "膝": 3661,
      "膠": 3662,
      "膺": 3663,
      "膽": 3664,
      "臀": 3665,
      "臂": 3666,
      "臉": 3667,
      "臘": 3668,
      "臙": 3669,
      "臞": 3670,
      "臣": 3671,
      "臥": 3672,
      "臧": 3673,
      "臨": 3674,
      "自": 3675,
      "臭": 3676,
      "臲": 3677,
      "至": 3678,
      "致": 3679,
      "臺": 3680,
      "臾": 3681,
      "舂": 3682,
      "與": 3683,
      "興": 3684,
      "舉": 3685,
      "舊": 3686,
      "舌": 3687,
      "舍": 3688,
      "舎": 3689,
      "舒": 3690,
      "舖": 3691,
      "舜": 3692,
      "舞": 3693,
      "舟": 3694,
      "航": 3695,
      "般": 3696,
      "舳": 3697,
      "舷": 3698,
      "船": 3699,
      "艘": 3700,
      "艚": 3701,
      "艦": 3702,
      "艫": 3703,
      "艮": 3704,
      "良": 3705,
      "艱": 3706,
      "色": 3707,
      "艳": 3708,
      "艶": 3709,
      "艸": 3710,
      "艾": 3711,
      "芁": 3712,
      "节": 3713,
      "芒": 3714,
      "芙": 3715,
      "芦": 3716,
      "芭": 3717,
      "花": 3718,
      "芳": 3719,
      "芸": 3720,
      "芹": 3721,
      "芻": 3722,
      "芼": 3723,
      "芾": 3724,
      "苉": 3725,
      "苍": 3726,
      "苑": 3727,
      "苓": 3728,
      "苔": 3729,
      "苕": 3730,
      "苗": 3731,
      "苛": 3732,
      "苞": 3733,
      "苟": 3734,
      "若": 3735,
      "苦": 3736,
      "英": 3737,
      "苴": 3738,
      "苻": 3739,
      "茀": 3740,
      "茂": 3741,
      "范": 3742,
      "茅": 3743,
      "茋": 3744,
      "茎": 3745,
      "茜": 3746,
      "茫": 3747,
      "茲": 3748,
      "茶": 3749,
      "茹": 3750,
      "荀": 3751,
      "荄": 3752,
      "荇": 3753,
      "草": 3754,
      "荊": 3755,
      "荐": 3756,
      "荑": 3757,
      "荒": 3758,
      "荗": 3759,
      "荫": 3760,
      "荳": 3761,
      "荷": 3762,
      "荻": 3763,
      "莊": 3764,
      "莧": 3765,
      "莪": 3766,
      "莫": 3767,
      "莲": 3768,
      "莽": 3769,
      "菊": 3770,
      "菑": 3771,
      "菜": 3772,
      "菟": 3773,
      "菩": 3774,
      "華": 3775,
      "菱": 3776,
      "菴": 3777,
      "萁": 3778,
      "萃": 3779,
      "萄": 3780,
      "萊": 3781,
      "萌": 3782,
      "萍": 3783,
      "萩": 3784,
      "萬": 3785,
      "萱": 3786,
      "落": 3787,
      "葉": 3788,
      "著": 3789,
      "葛": 3790,
      "葠": 3791,
      "葡": 3792,
      "葭": 3793,
      "葯": 3794,
      "葵": 3795,
      "蒂": 3796,
      "蒙": 3797,
      "蒞": 3798,
      "蒯": 3799,
      "蒲": 3800,
      "蒹": 3801,
      "蒺": 3802,
      "蒼": 3803,
      "蒿": 3804,
      "蓂": 3805,
      "蓉": 3806,
      "蓊": 3807,
      "蓋": 3808,
      "蓘": 3809,
      "蓣": 3810,
      "蓬": 3811,
      "蓮": 3812,
      "蓼": 3813,
      "蔀": 3814,
      "蔑": 3815,
      "蔔": 3816,
      "蔛": 3817,
      "蔞": 3818,
      "蔢": 3819,
      "蔣": 3820,
      "蔭": 3821,
      "蔻": 3822,
      "蔽": 3823,
      "蔾": 3824,
      "蕃": 3825,
      "蕆": 3826,
      "蕉": 3827,
      "蕊": 3828,
      "蕢": 3829,
      "蕩": 3830,
      "蕪": 3831,
      "蕭": 3832,
      "蕴": 3833,
      "薄": 3834,
      "薇": 3835,
      "薦": 3836,
      "薩": 3837,
      "薪": 3838,
      "薰": 3839,
      "薺": 3840,
      "藉": 3841,
      "藍": 3842,
      "藏": 3843,
      "藕": 3844,
      "藜": 3845,
      "藝": 3846,
      "藟": 3847,
      "藤": 3848,
      "藥": 3849,
      "藩": 3850,
      "藪": 3851,
      "藹": 3852,
      "藻": 3853,
      "蘅": 3854,
      "蘆": 3855,
      "蘇": 3856,
      "蘋": 3857,
      "蘍": 3858,
      "蘝": 3859,
      "蘭": 3860,
      "蘸": 3861,
      "蘿": 3862,
      "虀": 3863,
      "虎": 3864,
      "虐": 3865,
      "虑": 3866,
      "虔": 3867,
      "處": 3868,
      "虚": 3869,
      "虛": 3870,
      "虜": 3871,
      "虞": 3872,
      "號": 3873,
      "虧": 3874,
      "虩": 3875,
      "虫": 3876,
      "虬": 3877,
      "虱": 3878,
      "虹": 3879,
      "虺": 3880,
      "虽": 3881,
      "蚌": 3882,
      "蚕": 3883,
      "蚪": 3884,
      "蛇": 3885,
      "蛙": 3886,
      "蛛": 3887,
      "蛟": 3888,
      "蛧": 3889,
      "蛩": 3890,
      "蛾": 3891,
      "蜀": 3892,
      "蜂": 3893,
      "蜆": 3894,
      "蜍": 3895,
      "蜐": 3896,
      "蜘": 3897,
      "蜜": 3898,
      "蜞": 3899,
      "蜫": 3900,
      "蝊": 3901,
      "蝌": 3902,
      "蝟": 3903,
      "蝦": 3904,
      "蝶": 3905,
      "螃": 3906,
      "螘": 3907,
      "螙": 3908,
      "螫": 3909,
      "螾": 3910,
      "蟀": 3911,
      "蟆": 3912,
      "蟋": 3913,
      "蟒": 3914,
      "蟛": 3915,
      "蟠": 3916,
      "蟨": 3917,
      "蟬": 3918,
      "蟯": 3919,
      "蟲": 3920,
      "蟹": 3921,
      "蟻": 3922,
      "蟾": 3923,
      "蠅": 3924,
      "蠑": 3925,
      "蠟": 3926,
      "蠱": 3927,
      "蠶": 3928,
      "蠹": 3929,
      "蠺": 3930,
      "蠻": 3931,
      "血": 3932,
      "衅": 3933,
      "衆": 3934,
      "行": 3935,
      "衎": 3936,
      "術": 3937,
      "街": 3938,
      "衛": 3939,
      "衝": 3940,
      "衡": 3941,
      "衢": 3942,
      "衣": 3943,
      "表": 3944,
      "衲": 3945,
      "衷": 3946,
      "衽": 3947,
      "衾": 3948,
      "衿": 3949,
      "袁": 3950,
      "袂": 3951,
      "袄": 3952,
      "袋": 3953,
      "袍": 3954,
      "袖": 3955,
      "被": 3956,
      "袽": 3957,
      "裁": 3958,
      "裂": 3959,
      "裈": 3960,
      "裊": 3961,
      "裏": 3962,
      "裕": 3963,
      "裙": 3964,
      "補": 3965,
      "裝": 3966,
      "裡": 3967,
      "裨": 3968,
      "裳": 3969,
      "裴": 3970,
      "裵": 3971,
      "裹": 3972,
      "製": 3973,
      "裿": 3974,
      "褂": 3975,
      "褐": 3976,
      "褥": 3977,
      "褪": 3978,
      "褫": 3979,
      "襖": 3980,
      "襦": 3981,
      "襲": 3982,
      "西": 3983,
      "要": 3984,
      "覃": 3985,
      "覆": 3986,
      "見": 3987,
      "規": 3988,
      "覓": 3989,
      "視": 3990,
      "覘": 3991,
      "覥": 3992,
      "親": 3993,
      "覯": 3994,
      "覰": 3995,
      "覲": 3996,
      "覺": 3997,
      "覻": 3998,
      "覽": 3999,
      "覿": 4000,
      "觀": 4001,
      "见": 4002,
      "规": 4003,
      "视": 4004,
      "觉": 4005,
      "角": 4006,
      "觔": 4007,
      "觚": 4008,
      "解": 4009,
      "觥": 4010,
      "觴": 4011,
      "觸": 4012,
      "言": 4013,
      "訂": 4014,
      "計": 4015,
      "訊": 4016,
      "訌": 4017,
      "討": 4018,
      "訓": 4019,
      "訖": 4020,
      "託": 4021,
      "記": 4022,
      "訟": 4023,
      "訣": 4024,
      "訥": 4025,
      "訨": 4026,
      "訪": 4027,
      "設": 4028,
      "許": 4029,
      "訳": 4030,
      "訴": 4031,
      "訶": 4032,
      "訸": 4033,
      "証": 4034,
      "訾": 4035,
      "詃": 4036,
      "詎": 4037,
      "詐": 4038,
      "詒": 4039,
      "詔": 4040,
      "評": 4041,
      "詘": 4042,
      "詞": 4043,
      "詟": 4044,
      "詠": 4045,
      "詢": 4046,
      "詣": 4047,
      "試": 4048,
      "詩": 4049,
      "詫": 4050,
      "詭": 4051,
      "詰": 4052,
      "話": 4053,
      "該": 4054,
      "詳": 4055,
      "詸": 4056,
      "詹": 4057,
      "誅": 4058,
      "誇": 4059,
      "誉": 4060,
      "認": 4061,
      "誓": 4062,
      "誕": 4063,
      "誘": 4064,
      "誚": 4065,
      "語": 4066,
      "誠": 4067,
      "誣": 4068,
      "誤": 4069,
      "誥": 4070,
      "誦": 4071,
      "誨": 4072,
      "說": 4073,
      "説": 4074,
      "誰": 4075,
      "課": 4076,
      "調": 4077,
      "諄": 4078,
      "談": 4079,
      "諉": 4080,
      "請": 4081,
      "諏": 4082,
      "諑": 4083,
      "諒": 4084,
      "論": 4085,
      "諜": 4086,
      "諧": 4087,
      "諫": 4088,
      "諭": 4089,
      "諱": 4090,
      "諳": 4091,
      "諷": 4092,
      "諸": 4093,
      "諺": 4094,
      "諾": 4095,
      "謀": 4096,
      "謁": 4097,
      "謂": 4098,
      "謐": 4099,
      "謗": 4100,
      "謙": 4101,
      "謚": 4102,
      "講": 4103,
      "謝": 4104,
      "謠": 4105,
      "謨": 4106,
      "謩": 4107,
      "謫": 4108,
      "謭": 4109,
      "謹": 4110,
      "譃": 4111,
      "證": 4112,
      "譍": 4113,
      "識": 4114,
      "譙": 4115,
      "譜": 4116,
      "譤": 4117,
      "警": 4118,
      "譬": 4119,
      "議": 4120,
      "護": 4121,
      "譽": 4122,
      "讀": 4123,
      "讁": 4124,
      "變": 4125,
      "讎": 4126,
      "讐": 4127,
      "讒": 4128,
      "讓": 4129,
      "讘": 4130,
      "讚": 4131,
      "讠": 4132,
      "记": 4133,
      "讱": 4134,
      "设": 4135,
      "诈": 4136,
      "词": 4137,
      "诚": 4138,
      "说": 4139,
      "诵": 4140,
      "诸": 4141,
      "谁": 4142,
      "调": 4143,
      "谓": 4144,
      "谷": 4145,
      "谿": 4146,
      "豁": 4147,
      "豆": 4148,
      "豈": 4149,
      "豉": 4150,
      "豊": 4151,
      "豎": 4152,
      "豐": 4153,
      "豕": 4154,
      "豚": 4155,
      "象": 4156,
      "豪": 4157,
      "豫": 4158,
      "豶": 4159,
      "豹": 4160,
      "貂": 4161,
      "貅": 4162,
      "貆": 4163,
      "貌": 4164,
      "貓": 4165,
      "貔": 4166,
      "貝": 4167,
      "貞": 4168,
      "負": 4169,
      "財": 4170,
      "貢": 4171,
      "貧": 4172,
      "貨": 4173,
      "貪": 4174,
      "貫": 4175,
      "責": 4176,
      "貰": 4177,
      "貳": 4178,
      "貴": 4179,
      "買": 4180,
      "貸": 4181,
      "費": 4182,
      "貽": 4183,
      "賀": 4184,
      "賁": 4185,
      "資": 4186,
      "賈": 4187,
      "賊": 4188,
      "賒": 4189,
      "賓": 4190,
      "賚": 4191,
      "賜": 4192,
      "賞": 4193,
      "賡": 4194,
      "賢": 4195,
      "賣": 4196,
      "賤": 4197,
      "賦": 4198,
      "質": 4199,
      "賭": 4200,
      "賮": 4201,
      "賴": 4202,
      "購": 4203,
      "贅": 4204,
      "贈": 4205,
      "贊": 4206,
      "贏": 4207,
      "贑": 4208,
      "贖": 4209,
      "贛": 4210,
      "责": 4211,
      "败": 4212,
      "贱": 4213,
      "费": 4214,
      "赛": 4215,
      "赠": 4216,
      "赤": 4217,
      "赦": 4218,
      "赫": 4219,
      "走": 4220,
      "赴": 4221,
      "起": 4222,
      "超": 4223,
      "越": 4224,
      "趙": 4225,
      "趣": 4226,
      "趨": 4227,
      "足": 4228,
      "趾": 4229,
      "跋": 4230,
      "跌": 4231,
      "跑": 4232,
      "跛": 4233,
      "距": 4234,
      "跟": 4235,
      "跡": 4236,
      "跨": 4237,
      "路": 4238,
      "跻": 4239,
      "踏": 4240,
      "踐": 4241,
      "踞": 4242,
      "踨": 4243,
      "踰": 4244,
      "踲": 4245,
      "踴": 4246,
      "踵": 4247,
      "蹄": 4248,
      "蹇": 4249,
      "蹈": 4250,
      "蹙": 4251,
      "蹢": 4252,
      "蹤": 4253,
      "蹱": 4254,
      "蹶": 4255,
      "蹷": 4256,
      "躁": 4257,
      "躅": 4258,
      "躋": 4259,
      "躍": 4260,
      "躔": 4261,
      "躡": 4262,
      "躪": 4263,
      "身": 4264,
      "躬": 4265,
      "軀": 4266,
      "車": 4267,
      "軌": 4268,
      "軍": 4269,
      "軐": 4270,
      "軒": 4271,
      "軛": 4272,
      "軟": 4273,
      "軫": 4274,
      "軸": 4275,
      "輀": 4276,
      "輅": 4277,
      "載": 4278,
      "輒": 4279,
      "輔": 4280,
      "輕": 4281,
      "輜": 4282,
      "輝": 4283,
      "輟": 4284,
      "輦": 4285,
      "輪": 4286,
      "輯": 4287,
      "輱": 4288,
      "輳": 4289,
      "輸": 4290,
      "輹": 4291,
      "輻": 4292,
      "輾": 4293,
      "輿": 4294,
      "轂": 4295,
      "轅": 4296,
      "轉": 4297,
      "轍": 4298,
      "轔": 4299,
      "轟": 4300,
      "车": 4301,
      "转": 4302,
      "轻": 4303,
      "辀": 4304,
      "辛": 4305,
      "辜": 4306,
      "辞": 4307,
      "辟": 4308,
      "辣": 4309,
      "辦": 4310,
      "辨": 4311,
      "辩": 4312,
      "辭": 4313,
      "辯": 4314,
      "辰": 4315,
      "辱": 4316,
      "農": 4317,
      "辸": 4318,
      "边": 4319,
      "辻": 4320,
      "达": 4321,
      "迀": 4322,
      "迄": 4323,
      "迅": 4324,
      "迆": 4325,
      "过": 4326,
      "迍": 4327,
      "迎": 4328,
      "近": 4329,
      "返": 4330,
      "还": 4331,
      "这": 4332,
      "远": 4333,
      "迟": 4334,
      "迢": 4335,
      "迥": 4336,
      "迦": 4337,
      "迨": 4338,
      "迭": 4339,
      "述": 4340,
      "迴": 4341,
      "迷": 4342,
      "迹": 4343,
      "迺": 4344,
      "追": 4345,
      "退": 4346,
      "送": 4347,
      "逄": 4348,
      "逆": 4349,
      "逈": 4350,
      "选": 4351,
      "逋": 4352,
      "逍": 4353,
      "逐": 4354,
      "逑": 4355,
      "途": 4356,
      "逖": 4357,
      "這": 4358,
      "通": 4359,
      "逝": 4360,
      "速": 4361,
      "造": 4362,
      "逢": 4363,
      "連": 4364,
      "逥": 4365,
      "逨": 4366,
      "逮": 4367,
      "進": 4368,
      "逵": 4369,
      "逸": 4370,
      "逾": 4371,
      "遁": 4372,
      "遂": 4373,
      "遄": 4374,
      "遇": 4375,
      "遊": 4376,
      "運": 4377,
      "遍": 4378,
      "過": 4379,
      "遏": 4380,
      "遐": 4381,
      "遑": 4382,
      "道": 4383,
      "達": 4384,
      "違": 4385,
      "遗": 4386,
      "遙": 4387,
      "遞": 4388,
      "遠": 4389,
      "遣": 4390,
      "遥": 4391,
      "適": 4392,
      "遭": 4393,
      "遯": 4394,
      "遲": 4395,
      "遵": 4396,
      "遷": 4397,
      "選": 4398,
      "遺": 4399,
      "遼": 4400,
      "遽": 4401,
      "避": 4402,
      "邀": 4403,
      "邁": 4404,
      "還": 4405,
      "邅": 4406,
      "邇": 4407,
      "邈": 4408,
      "邊": 4409,
      "邏": 4410,
      "邑": 4411,
      "邕": 4412,
      "那": 4413,
      "邦": 4414,
      "邨": 4415,
      "邪": 4416,
      "邯": 4417,
      "邱": 4418,
      "郁": 4419,
      "郊": 4420,
      "郎": 4421,
      "郛": 4422,
      "郡": 4423,
      "部": 4424,
      "郭": 4425,
      "都": 4426,
      "鄉": 4427,
      "鄕": 4428,
      "鄙": 4429,
      "鄣": 4430,
      "鄧": 4431,
      "鄭": 4432,
      "鄰": 4433,
      "鄲": 4434,
      "鄽": 4435,
      "酉": 4436,
      "酋": 4437,
      "酌": 4438,
      "配": 4439,
      "酒": 4440,
      "酖": 4441,
      "酢": 4442,
      "酣": 4443,
      "酥": 4444,
      "酬": 4445,
      "酷": 4446,
      "酸": 4447,
      "醇": 4448,
      "醉": 4449,
      "醋": 4450,
      "醒": 4451,
      "醜": 4452,
      "醞": 4453,
      "醪": 4454,
      "醫": 4455,
      "釀": 4456,
      "釁": 4457,
      "采": 4458,
      "釈": 4459,
      "释": 4460,
      "釋": 4461,
      "里": 4462,
      "重": 4463,
      "野": 4464,
      "量": 4465,
      "釐": 4466,
      "金": 4467,
      "釘": 4468,
      "釜": 4469,
      "針": 4470,
      "釣": 4471,
      "釧": 4472,
      "釵": 4473,
      "釺": 4474,
      "鈌": 4475,
      "鈎": 4476,
      "鈔": 4477,
      "鈞": 4478,
      "鈠": 4479,
      "鈡": 4480,
      "鈴": 4481,
      "鈺": 4482,
      "鉅": 4483,
      "鉉": 4484,
      "鉗": 4485,
      "鉤": 4486,
      "鉹": 4487,
      "銀": 4488,
      "銃": 4489,
      "銕": 4490,
      "銘": 4491,
      "銜": 4492,
      "銳": 4493,
      "銷": 4494,
      "銺": 4495,
      "銾": 4496,
      "銿": 4497,
      "鋒": 4498,
      "鋤": 4499,
      "鋪": 4500,
      "鋫": 4501,
      "鋸": 4502,
      "錄": 4503,
      "錢": 4504,
      "錦": 4505,
      "錫": 4506,
      "錯": 4507,
      "録": 4508,
      "鍊": 4509,
      "鍋": 4510,
      "鍛": 4511,
      "鍼": 4512,
      "鍾": 4513,
      "鎖": 4514,
      "鎭": 4515,
      "鎮": 4516,
      "鎰": 4517,
      "鎼": 4518,
      "鎽": 4519,
      "鏌": 4520,
      "鏑": 4521,
      "鏗": 4522,
      "鏡": 4523,
      "鐐": 4524,
      "鐗": 4525,
      "鐘": 4526,
      "鐧": 4527,
      "鐭": 4528,
      "鐵": 4529,
      "鑄": 4530,
      "鑊": 4531,
      "鑑": 4532,
      "鑒": 4533,
      "鑠": 4534,
      "鑣": 4535,
      "鑦": 4536,
      "鑲": 4537,
      "鑽": 4538,
      "鑿": 4539,
      "钉": 4540,
      "钖": 4541,
      "钗": 4542,
      "钘": 4543,
      "钟": 4544,
      "钱": 4545,
      "铁": 4546,
      "锁": 4547,
      "锐": 4548,
      "锦": 4549,
      "長": 4550,
      "长": 4551,
      "門": 4552,
      "閁": 4553,
      "閂": 4554,
      "閈": 4555,
      "閉": 4556,
      "開": 4557,
      "閑": 4558,
      "閒": 4559,
      "間": 4560,
      "閘": 4561,
      "閣": 4562,
      "閤": 4563,
      "閥": 4564,
      "閨": 4565,
      "閫": 4566,
      "閭": 4567,
      "閱": 4568,
      "閲": 4569,
      "閶": 4570,
      "閻": 4571,
      "闃": 4572,
      "闆": 4573,
      "闇": 4574,
      "闈": 4575,
      "闊": 4576,
      "闌": 4577,
      "闔": 4578,
      "闕": 4579,
      "闚": 4580,
      "關": 4581,
      "闢": 4582,
      "闧": 4583,
      "问": 4584,
      "间": 4585,
      "闷": 4586,
      "闻": 4587,
      "阜": 4588,
      "阮": 4589,
      "阯": 4590,
      "阱": 4591,
      "防": 4592,
      "阳": 4593,
      "阴": 4594,
      "阻": 4595,
      "阿": 4596,
      "陀": 4597,
      "陁": 4598,
      "陂": 4599,
      "附": 4600,
      "陌": 4601,
      "降": 4602,
      "限": 4603,
      "陛": 4604,
      "陟": 4605,
      "院": 4606,
      "陣": 4607,
      "除": 4608,
      "陪": 4609,
      "陬": 4610,
      "陰": 4611,
      "陲": 4612,
      "陳": 4613,
      "陵": 4614,
      "陶": 4615,
      "陷": 4616,
      "陸": 4617,
      "陽": 4618,
      "隅": 4619,
      "隆": 4620,
      "隊": 4621,
      "隍": 4622,
      "階": 4623,
      "随": 4624,
      "隔": 4625,
      "隕": 4626,
      "隙": 4627,
      "際": 4628,
      "障": 4629,
      "隤": 4630,
      "隨": 4631,
      "險": 4632,
      "隰": 4633,
      "隱": 4634,
      "隳": 4635,
      "隴": 4636,
      "隸": 4637,
      "隹": 4638,
      "隻": 4639,
      "隼": 4640,
      "难": 4641,
      "雀": 4642,
      "雁": 4643,
      "雄": 4644,
      "雅": 4645,
      "集": 4646,
      "雉": 4647,
      "雌": 4648,
      "雍": 4649,
      "雎": 4650,
      "雐": 4651,
      "雒": 4652,
      "雕": 4653,
      "雖": 4654,
      "雙": 4655,
      "雜": 4656,
      "雞": 4657,
      "離": 4658,
      "難": 4659,
      "雨": 4660,
      "雩": 4661,
      "雪": 4662,
      "雲": 4663,
      "零": 4664,
      "雷": 4665,
      "電": 4666,
      "需": 4667,
      "霄": 4668,
      "霆": 4669,
      "震": 4670,
      "霍": 4671,
      "霑": 4672,
      "霓": 4673,
      "霖": 4674,
      "霚": 4675,
      "霜": 4676,
      "霞": 4677,
      "霧": 4678,
      "霪": 4679,
      "露": 4680,
      "霸": 4681,
      "霽": 4682,
      "霾": 4683,
      "靈": 4684,
      "青": 4685,
      "靖": 4686,
      "静": 4687,
      "靜": 4688,
      "非": 4689,
      "靡": 4690,
      "面": 4691,
      "革": 4692,
      "鞋": 4693,
      "鞍": 4694,
      "鞏": 4695,
      "鞓": 4696,
      "鞚": 4697,
      "鞠": 4698,
      "鞭": 4699,
      "鞶": 4700,
      "韃": 4701,
      "韋": 4702,
      "韓": 4703,
      "韜": 4704,
      "韩": 4705,
      "音": 4706,
      "韶": 4707,
      "韻": 4708,
      "響": 4709,
      "頂": 4710,
      "頃": 4711,
      "頄": 4712,
      "項": 4713,
      "順": 4714,
      "須": 4715,
      "頉": 4716,
      "頌": 4717,
      "頏": 4718,
      "預": 4719,
      "頑": 4720,
      "頒": 4721,
      "頓": 4722,
      "領": 4723,
      "頡": 4724,
      "頤": 4725,
      "頫": 4726,
      "頭": 4727,
      "頰": 4728,
      "頸": 4729,
      "頻": 4730,
      "題": 4731,
      "額": 4732,
      "顏": 4733,
      "顒": 4734,
      "顔": 4735,
      "願": 4736,
      "顛": 4737,
      "類": 4738,
      "顥": 4739,
      "顧": 4740,
      "顮": 4741,
      "顯": 4742,
      "须": 4743,
      "風": 4744,
      "颯": 4745,
      "颼": 4746,
      "飂": 4747,
      "飄": 4748,
      "风": 4749,
      "飚": 4750,
      "飛": 4751,
      "飞": 4752,
      "食": 4753,
      "飠": 4754,
      "飢": 4755,
      "飧": 4756,
      "飭": 4757,
      "飮": 4758,
      "飯": 4759,
      "飲": 4760,
      "飴": 4761,
      "飽": 4762,
      "飾": 4763,
      "餅": 4764,
      "餆": 4765,
      "餉": 4766,
      "養": 4767,
      "餌": 4768,
      "餐": 4769,
      "餒": 4770,
      "餓": 4771,
      "餗": 4772,
      "餘": 4773,
      "餚": 4774,
      "館": 4775,
      "饉": 4776,
      "饋": 4777,
      "饌": 4778,
      "饑": 4779,
      "饒": 4780,
      "饗": 4781,
      "饟": 4782,
      "饮": 4783,
      "馀": 4784,
      "首": 4785,
      "馘": 4786,
      "香": 4787,
      "馥": 4788,
      "馬": 4789,
      "馭": 4790,
      "馮": 4791,
      "馳": 4792,
      "駆": 4793,
      "駏": 4794,
      "駑": 4795,
      "駒": 4796,
      "駔": 4797,
      "駟": 4798,
      "駭": 4799,
      "駰": 4800,
      "騁": 4801,
      "騎": 4802,
      "騏": 4803,
      "騮": 4804,
      "騰": 4805,
      "騷": 4806,
      "驅": 4807,
      "驉": 4808,
      "驍": 4809,
      "驕": 4810,
      "驗": 4811,
      "驚": 4812,
      "驛": 4813,
      "驟": 4814,
      "驥": 4815,
      "驩": 4816,
      "马": 4817,
      "驻": 4818,
      "验": 4819,
      "骨": 4820,
      "骸": 4821,
      "體": 4822,
      "高": 4823,
      "髮": 4824,
      "髯": 4825,
      "髻": 4826,
      "髼": 4827,
      "鬌": 4828,
      "鬚": 4829,
      "鬟": 4830,
      "鬢": 4831,
      "鬥": 4832,
      "鬧": 4833,
      "鬪": 4834,
      "鬯": 4835,
      "鬱": 4836,
      "鬼": 4837,
      "魁": 4838,
      "魂": 4839,
      "魄": 4840,
      "魅": 4841,
      "魏": 4842,
      "魔": 4843,
      "魚": 4844,
      "魮": 4845,
      "魯": 4846,
      "鮒": 4847,
      "鮮": 4848,
      "鯨": 4849,
      "鰥": 4850,
      "鰲": 4851,
      "鱗": 4852,
      "鱷": 4853,
      "鲁": 4854,
      "鲨": 4855,
      "鳥": 4856,
      "鳧": 4857,
      "鳩": 4858,
      "鳳": 4859,
      "鳴": 4860,
      "鴉": 4861,
      "鴛": 4862,
      "鴞": 4863,
      "鴠": 4864,
      "鴦": 4865,
      "鴯": 4866,
      "鴻": 4867,
      "鵑": 4868,
      "鵠": 4869,
      "鵡": 4870,
      "鵬": 4871,
      "鵲": 4872,
      "鶩": 4873,
      "鶯": 4874,
      "鶴": 4875,
      "鶼": 4876,
      "鷁": 4877,
      "鷂": 4878,
      "鷄": 4879,
      "鷖": 4880,
      "鷲": 4881,
      "鷸": 4882,
      "鷹": 4883,
      "鷺": 4884,
      "鷾": 4885,
      "鸝": 4886,
      "鸞": 4887,
      "鹵": 4888,
      "鹹": 4889,
      "鹿": 4890,
      "麇": 4891,
      "麒": 4892,
      "麗": 4893,
      "麝": 4894,
      "麟": 4895,
      "麻": 4896,
      "黃": 4897,
      "黄": 4898,
      "黍": 4899,
      "黎": 4900,
      "黑": 4901,
      "默": 4902,
      "點": 4903,
      "黠": 4904,
      "黥": 4905,
      "黨": 4906,
      "黯": 4907,
      "黴": 4908,
      "黷": 4909,
      "鼈": 4910,
      "鼎": 4911,
      "鼓": 4912,
      "鼙": 4913,
      "鼠": 4914,
      "鼫": 4915,
      "鼻": 4916,
      "齊": 4917,
      "齋": 4918,
      "齎": 4919,
      "齐": 4920,
      "齒": 4921,
      "齡": 4922,
      "齣": 4923,
      "龍": 4924,
      "龐": 4925,
      "龔": 4926,
      "龜": 4927,
      "龠": 4928,
      "龢": 4929,
      "ꮠ": 4930,
      "가": 4931,
      "거": 4932,
      "게": 4933,
      "결": 4934,
      "고": 4935,
      "국": 4936,
      "그": 4937,
      "금": 4938,
      "나": 4939,
      "남": 4940,
      "내": 4941,
      "냐": 4942,
      "너": 4943,
      "녀": 4944,
      "는": 4945,
      "니": 4946,
      "다": 4947,
      "달": 4948,
      "당": 4949,
      "도": 4950,
      "돌": 4951,
      "디": 4952,
      "떠": 4953,
      "라": 4954,
      "랑": 4955,
      "렦": 4956,
      "로": 4957,
      "룠": 4958,
      "르": 4959,
      "를": 4960,
      "만": 4961,
      "많": 4962,
      "말": 4963,
      "면": 4964,
      "무": 4965,
      "뮠": 4966,
      "베": 4967,
      "보": 4968,
      "부": 4969,
      "빠": 4970,
      "사": 4971,
      "선": 4972,
      "세": 4973,
      "슬": 4974,
      "습": 4975,
      "신": 4976,
      "싶": 4977,
      "아": 4978,
      "야": 4979,
      "약": 4980,
      "어": 4981,
      "에": 4982,
      "여": 4983,
      "예": 4984,
      "오": 4985,
      "요": 4986,
      "으": 4987,
      "을": 4988,
      "이": 4989,
      "저": 4990,
      "정": 4991,
      "졠": 4992,
      "지": 4993,
      "쳐": 4994,
      "최": 4995,
      "탁": 4996,
      "트": 4997,
      "플": 4998,
      "하": 4999,
      "한": 5000,
      "합": 5001,
      "했": 5002,
      "혼": 5003,
      "": 5004,
      "": 5005,
      "": 5006,
      "": 5007,
      "": 5008,
      "": 5009,
      "": 5010,
      "": 5011,
      "": 5012,
      "": 5013,
      "": 5014,
      "": 5015,
      "": 5016,
      "": 5017,
      "": 5018,
      "": 5019,
      "": 5020,
      "": 5021,
      "": 5022,
      "": 5023,
      "": 5024,
      "": 5025,
      "": 5026,
      "": 5027,
      "": 5028,
      "": 5029,
      "": 5030,
      "": 5031,
      "": 5032,
      "": 5033,
      "": 5034,
      "": 5035,
      "": 5036,
      "": 5037,
      "": 5038,
      "": 5039,
      "": 5040,
      "": 5041,
      "": 5042,
      "": 5043,
      "": 5044,
      "": 5045,
      "": 5046,
      "": 5047,
      "": 5048,
      "": 5049,
      "": 5050,
      "": 5051,
      "": 5052,
      "": 5053,
      "": 5054,
      "": 5055,
      "": 5056,
      "": 5057,
      "": 5058,
      "": 5059,
      "": 5060,
      "": 5061,
      "": 5062,
      "": 5063,
      "亂": 5064,
      "復": 5065,
      "不": 5066,
      "ﬠ": 5067,
      "תּ": 5068,
      "ﮠ": 5069,
      "ﮧ": 5070,
      "ﮨ": 5071,
      "ﮪ": 5072,
      "ﰠ": 5073,
      "ﴠ": 5074,
      "ﴭ": 5075,
      "﹐": 5076,
      "﹕": 5077,
      "ﺎ": 5078,
      "ﻉ": 5079,
      "ﻠ": 5080,
      "﻿": 5081,
      "！": 5082,
      "（": 5083,
      "）": 5084,
      "＊": 5085,
      "，": 5086,
      "．": 5087,
      "：": 5088,
      "；": 5089,
      "？": 5090,
      "Ｔ": 5091,
      "ｍ": 5092,
      "ｓ": 5093,
      "ｔ": 5094,
      "ｙ": 5095,
      "�": 5096,
      "𓏹": 5097,
      "𠮧": 5098,
      "𮨠": 5099,
      "𮮮": 5100,
      "𴭯": 5101,
      "𹠠": 5102,
      "񍊣": 5103,
      "񡠴": 5104,
      "񩠤": 5105,
      "񮨠": 5106,
      "񮮮": 5107,
      "󠶦": 5108,
      "󡬠": 5109,
      "󮮮": 5110,
      "􀀀": 5111,
      "􀀰": 5112,
      "􀁏": 5113,
      "􀁐": 5114,
      "􀁶": 5115,
      "􀂁": 5116,
      "􀂄": 5117,
      "􀂇": 5118,
      "􀂍": 5119,
      "􀂐": 5120,
      "􀂙": 5121,
      "􀂟": 5122,
      "􀂡": 5123,
      "􀂽": 5124,
      "􀂿": 5125,
      "􀃃": 5126,
      "􀃈": 5127,
      "􀃋": 5128,
      "􀃌": 5129,
      "􀃒": 5130,
      "ng": 5131,
      "nh": 5132,
      "ch": 5133,
      "th": 5134,
      "kh": 5135,
      "tr": 5136,
      "ông": 5137,
      "ên": 5138,
      "ời": 5139,
      "ph": 5140,
      "là": 5141,
      "qu": 5142,
      "iế": 5143,
      "gi": 5144,
      "không": 5145,
      "ột": 5146,
      "và": 5147,
      "ôi": 5148,
      "ại": 5149,
      "ười": 5150,
      "một": 5151,
      "có": 5152,
      "ới": 5153,
      "ủa": 5154,
      "của": 5155,
      "uy": 5156,
      "ấy": 5157,
      "iệ": 5158,
      "nó": 5159,
      "ta": 5160,
      "Th": 5161,
      "ượ": 5162,
      "anh": 5163,
      "ân": 5164,
      "nà": 5165,
      "ong": 5166,
      "ươ": 5167,
      "ất": 5168,
      "như": 5169,
      "người": 5170,
      "ình": 5171,
      "ai": 5172,
      "cá": 5173,
      "đi": 5174,
      "ra": 5175,
      "ao": 5176,
      "đã": 5177,
      "nói": 5178,
      "ướ": 5179,
      "cho": 5180,
      "ược": 5181,
      "lại": 5182,
      "ương": 5183,
      "tôi": 5184,
      "ay": 5185,
      "uố": 5186,
      "ải": 5187,
      "ồi": 5188,
      "ần": 5189,
      "ngh": 5190,
      "Ch": 5191,
      "ang": 5192,
      "àng": 5193,
      "được": 5194,
      "on": 5195,
      "mà": 5196,
      "ến": 5197,
      "iên": 5198,
      "an": 5199,
      "iết": 5200,
      "ây": 5201,
      "ũng": 5202,
      "ước": 5203,
      "trong": 5204,
      "Ng": 5205,
      "ững": 5206,
      "inh": 5207,
      "cũng": 5208,
      "với": 5209,
      "ều": 5210,
      "đó": 5211,
      "ật": 5212,
      "..": 5213,
      "au": 5214,
      "Nh": 5215,
      "đến": 5216,
      "âu": 5217,
      "thì": 5218,
      "Tr": 5219,
      "ết": 5220,
      "ầu": 5221,
      "phải": 5222,
      "làm": 5223,
      "cả": 5224,
      "àn": 5225,
      "ườ": 5226,
      "những": 5227,
      "vào": 5228,
      "òn": 5229,
      "ác": 5230,
      "úng": 5231,
      "con": 5232,
      "ường": 5233,
      "em": 5234,
      ":-": 5235,
      "ái": 5236,
      "Ph": 5237,
      "ài": 5238,
      "này": 5239,
      "ắt": 5240,
      "ùng": 5241,
      "rồi": 5242,
      "lên": 5243,
      "ot": 5244,
      "gì": 5245,
      "úc": 5246,
      "ền": 5247,
      "quot": 5248,
      "iể": 5249,
      "ưa": 5250,
      "để": 5251,
      "tiế": 5252,
      "ận": 5253,
      "ằng": 5254,
      "thấy": 5255,
      "cô": 5256,
      "về": 5257,
      "biết": 5258,
      "ành": 5259,
      "ặt": 5260,
      "mình": 5261,
      "Kh": 5262,
      "êu": 5263,
      "ăn": 5264,
      "còn": 5265,
      "ức": 5266,
      "ơn": 5267,
      "ung": 5268,
      "át": 5269,
      "thế": 5270,
      "ối": 5271,
      "ậy": 5272,
      "uyệ": 5273,
      "họ": 5274,
      "ỏi": 5275,
      "ắc": 5276,
      "chỉ": 5277,
      "òng": 5278,
      "đá": 5279,
      "ữa": 5280,
      "nào": 5281,
      "ừng": 5282,
      "ồng": 5283,
      "âm": 5284,
      "cái": 5285,
      "ho": 5286,
      "hai": 5287,
      "ội": 5288,
      "đầu": 5289,
      "thể": 5290,
      "tay": 5291,
      "ôn": 5292,
      "khi": 5293,
      "ăm": 5294,
      "iểu": 5295,
      "ạn": 5296,
      "ìn": 5297,
      "iện": 5298,
      "ơi": 5299,
      "ính": 5300,
      "ti": 5301,
      "ực": 5302,
      "ống": 5303,
      "nhà": 5304,
      "nhưng": 5305,
      "áo": 5306,
      "ộc": 5307,
      "sẽ": 5308,
      "ẫn": 5309,
      "sao": 5310,
      "nhìn": 5311,
      "ắn": 5312,
      "uyện": 5313,
      "bị": 5314,
      "eo": 5315,
      "ục": 5316,
      "mặt": 5317,
      "ày": 5318,
      "ưng": 5319,
      "am": 5320,
      "iều": 5321,
      "các": 5322,
      "chúng": 5323,
      "ẳng": 5324,
      "ổi": 5325,
      "trên": 5326,
      "ảo": 5327,
      "uốn": 5328,
      "ừa": 5329,
      "uống": 5330,
      "áng": 5331,
      "từ": 5332,
      "ăng": 5333,
      "ách": 5334,
      "án": 5335,
      "iến": 5336,
      "vậy": 5337,
      "ão": 5338,
      "Tôi": 5339,
      "ộng": 5340,
      "giờ": 5341,
      "ầm": 5342,
      "đây": 5343,
      "...": 5344,
      "nghĩ": 5345,
      "công": 5346,
      "sự": 5347,
      "vì": 5348,
      "cười": 5349,
      "tiếng": 5350,
      "nữa": 5351,
      "ọng": 5352,
      "mắt": 5353,
      "nên": 5354,
      "êm": 5355,
      "ứng": 5356,
      "bà": 5357,
      "trước": 5358,
      "sau": 5359,
      "ửa": 5360,
      "ươi": 5361,
      "đang": 5362,
      "hỏi": 5363,
      "mới": 5364,
      "iệc": 5365,
      "muốn": 5366,
      "nàng": 5367,
      "Qu": 5368,
      "ích": 5369,
      "ếu": 5370,
      "lúc": 5371,
      "ập": 5372,
      "nhân": 5373,
      "ạnh": 5374,
      "nghe": 5375,
      "Anh": 5376,
      "en": 5377,
      "ọi": 5378,
      "ắm": 5379,
      "ưở": 5380,
      "tới": 5381,
      "đâu": 5382,
      "ánh": 5383,
      "ưởng": 5384,
      "ản": 5385,
      "rất": 5386,
      "việc": 5387,
      "to": 5388,
      "chị": 5389,
      "cùng": 5390,
      "chuyện": 5391,
      "đị": 5392,
      "chàng": 5393,
      "theo": 5394,
      "qua": 5395,
      "ọn": 5396,
      "xuống": 5397,
      "vừa": 5398,
      "ạc": 5399,
      "ia": 5400,
      "vẫn": 5401,
      "thành": 5402,
      "iệt": 5403,
      "ượng": 5404,
      "ngày": 5405,
      "hơn": 5406,
      "ạo": 5407,
      "Ho": 5408,
      "in": 5409,
      "út": 5410,
      "lo": 5411,
      "ồn": 5412,
      "ọc": 5413,
      "ầy": 5414,
      "uyên": 5415,
      "cứ": 5416,
      "lời": 5417,
      "ám": 5418,
      "thật": 5419,
      "thu": 5420,
      "ắng": 5421,
      "ba": 5422,
      "ặc": 5423,
      "ào": 5424,
      "ngo": 5425,
      "năm": 5426,
      "lão": 5427,
      "Nhưng": 5428,
      "chẳng": 5429,
      "iền": 5430,
      "bên": 5431,
      "nước": 5432,
      "chưa": 5433,
      "cách": 5434,
      "ậu": 5435,
      "ấn": 5436,
      "nhiên": 5437,
      "lu": 5438,
      "rằng": 5439,
      "bu": 5440,
      "ỗi": 5441,
      "iêu": 5442,
      "hay": 5443,
      "nhiều": 5444,
      "khác": 5445,
      "Gi": 5446,
      "im": 5447,
      "áu": 5448,
      "lấy": 5449,
      "tình": 5450,
      "tự": 5451,
      "iếu": 5452,
      "ạt": 5453,
      "động": 5454,
      "ốt": 5455,
      "óc": 5456,
      "ốc": 5457,
      "hết": 5458,
      "lớ": 5459,
      "iệu": 5460,
      "lòng": 5461,
      "quan": 5462,
      "quá": 5463,
      "nhất": 5464,
      "thân": 5465,
      "nhau": 5466,
      "ấu": 5467,
      "điều": 5468,
      "ạch": 5469,
      "đại": 5470,
      "tu": 5471,
      "cu": 5472,
      "ôm": 5473,
      "Không": 5474,
      "đường": 5475,
      "ốn": 5476,
      "iếm": 5477,
      "quy": 5478,
      "cảm": 5479,
      "ặp": 5480,
      "ấp": 5481,
      "bao": 5482,
      "hạ": 5483,
      "ạy": 5484,
      "iếc": 5485,
      ".-": 5486,
      "bằng": 5487,
      "chết": 5488,
      "đều": 5489,
      "nay": 5490,
      "đứng": 5491,
      "ìm": 5492,
      "ảy": 5493,
      "áp": 5494,
      "định": 5495,
      "ảng": 5496,
      "hắn": 5497,
      "chủ": 5498,
      "mẹ": 5499,
      "chính": 5500,
      "ngươi": 5501,
      "tại": 5502,
      "bảo": 5503,
      "Cô": 5504,
      "đưa": 5505,
      "ướng": 5506,
      "gia": 5507,
      "kho": 5508,
      "trở": 5509,
      "nhận": 5510,
      "óng": 5511,
      "tử": 5512,
      "lần": 5513,
      "ngồi": 5514,
      "lớn": 5515,
      "ét": 5516,
      "học": 5517,
      "tâm": 5518,
      "bạn": 5519,
      "vu": 5520,
      "tiếp": 5521,
      "ặng": 5522,
      "cửa": 5523,
      "chân": 5524,
      "Ông": 5525,
      "sống": 5526,
      "ngay": 5527,
      "đo": 5528,
      "tên": 5529,
      "vị": 5530,
      "vô": 5531,
      "tìm": 5532,
      "ụng": 5533,
      "bước": 5534,
      "đối": 5535,
      "ợi": 5536,
      "ệnh": 5537,
      "ía": 5538,
      "đồng": 5539,
      "phòng": 5540,
      "ãi": 5541,
      "mấy": 5542,
      "ngoài": 5543,
      "yêu": 5544,
      "Có": 5545,
      "hiểu": 5546,
      "cần": 5547,
      "nhỏ": 5548,
      "lắm": 5549,
      "tin": 5550,
      "gặp": 5551,
      "quân": 5552,
      "bắt": 5553,
      "thôi": 5554,
      "thứ": 5555,
      "cao": 5556,
      "tho": 5557,
      "uyền": 5558,
      "bất": 5559,
      "do": 5560,
      "thời": 5561,
      "đánh": 5562,
      "ãy": 5563,
      "chiếc": 5564,
      "ạng": 5565,
      "gh": 5566,
      "hiện": 5567,
      "ưới": 5568,
      "ễn": 5569,
      "chứ": 5570,
      "thủ": 5571,
      "ấm": 5572,
      "ẩn": 5573,
      "hình": 5574,
      "vẻ": 5575,
      "iệp": 5576,
      "sư": 5577,
      "ịch": 5578,
      "kia": 5579,
      "thường": 5580,
      "ắp": 5581,
      "nếu": 5582,
      "khỏi": 5583,
      "nơi": 5584,
      "sợ": 5585,
      "xe": 5586,
      "sinh": 5587,
      "xu": 5588,
      "phía": 5589,
      "cuộc": 5590,
      "chạy": 5591,
      "chú": 5592,
      "Tiểu": 5593,
      "Một": 5594,
      "thương": 5595,
      "xem": 5596,
      "bỏ": 5597,
      "đời": 5598,
      "ói": 5599,
      "úi": 5600,
      "ar": 5601,
      "mọi": 5602,
      "bộ": 5603,
      "ứa": 5604,
      "hành": 5605,
      "cơ": 5606,
      "Thiên": 5607,
      "gái": 5608,
      "lẽ": 5609,
      "bàn": 5610,
      "sáng": 5611,
      "Nếu": 5612,
      "bọn": 5613,
      "đáp": 5614,
      "xa": 5615,
      "câu": 5616,
      "er": 5617,
      "mất": 5618,
      "kiếm": 5619,
      "gọi": 5620,
      "mu": 5621,
      "ảnh": 5622,
      "chịu": 5623,
      "ưu": 5624,
      "ít": 5625,
      "Người": 5626,
      "rõ": 5627,
      "uốc": 5628,
      "thần": 5629,
      "đất": 5630,
      "Em": 5631,
      "dài": 5632,
      "ằm": 5633,
      "uyệt": 5634,
      "tiền": 5635,
      "quay": 5636,
      "số": 5637,
      "Nam": 5638,
      "co": 5639,
      "ởi": 5640,
      "kinh": 5641,
      "tất": 5642,
      "ẹp": 5643,
      "chỗ": 5644,
      "uối": 5645,
      "ỉnh": 5646,
      "thực": 5647,
      "hàng": 5648,
      "khó": 5649,
      "đàn": 5650,
      "éo": 5651,
      "trời": 5652,
      "áy": 5653,
      "hôm": 5654,
      "xin": 5655,
      "đấy": 5656,
      "lâu": 5657,
      "thích": 5658,
      "toàn": 5659,
      "Thanh": 5660,
      "uyết": 5661,
      "tức": 5662,
      "ổng": 5663,
      "iê": 5664,
      "lực": 5665,
      "sĩ": 5666,
      "Trong": 5667,
      "iệm": 5668,
      "ạm": 5669,
      "nữ": 5670,
      "càng": 5671,
      "Thế": 5672,
      "thêm": 5673,
      "kẻ": 5674,
      "ĩnh": 5675,
      "nhớ": 5676,
      "giọng": 5677,
      "Ngh": 5678,
      "cây": 5679,
      "gần": 5680,
      "cố": 5681,
      "nổi": 5682,
      "ép": 5683,
      "chu": 5684,
      "trả": 5685,
      "gian": 5686,
      "dùng": 5687,
      "dưới": 5688,
      "vật": 5689,
      "ựa": 5690,
      "đạo": 5691,
      "tưởng": 5692,
      "ca": 5693,
      "Hai": 5694,
      "chắc": 5695,
      "đôi": 5696,
      "phát": 5697,
      "Bà": 5698,
      "tính": 5699,
      "ẩm": 5700,
      "bé": 5701,
      "cậu": 5702,
      "lý": 5703,
      "đúng": 5704,
      "từng": 5705,
      "Con": 5706,
      "sức": 5707,
      "vui": 5708,
      "liền": 5709,
      "dân": 5710,
      "iển": 5711,
      "la": 5712,
      "phụ": 5713,
      "Tử": 5714,
      "huy": 5715,
      "mở": 5716,
      "luôn": 5717,
      "vợ": 5718,
      "cha": 5719,
      "mày": 5720,
      "đêm": 5721,
      "chút": 5722,
      "Hoa": 5723,
      "xong": 5724,
      "kỳ": 5725,
      "èn": 5726,
      "thanh": 5727,
      "trường": 5728,
      "báo": 5729,
      "Long": 5730,
      "ển": 5731,
      "giữa": 5732,
      "đệ": 5733,
      "chiến": 5734,
      "già": 5735,
      "ỗng": 5736,
      "quả": 5737,
      "khí": 5738,
      "tiểu": 5739,
      "tiên": 5740,
      "sang": 5741,
      "viên": 5742,
      "thư": 5743,
      "hồ": 5744,
      "bản": 5745,
      "giải": 5746,
      "úp": 5747,
      "đủ": 5748,
      "trọng": 5749,
      "thị": 5750,
      "bình": 5751,
      "yên": 5752,
      "mang": 5753,
      "đẹp": 5754,
      "dám": 5755,
      "quyết": 5756,
      "dù": 5757,
      "sát": 5758,
      "phu": 5759,
      "ùa": 5760,
      "chi": 5761,
      "Dương": 5762,
      "Lão": 5763,
      "Ngọc": 5764,
      "gã": 5765,
      "di": 5766,
      "Nàng": 5767,
      "khu": 5768,
      "cháu": 5769,
      "giả": 5770,
      "Đại": 5771,
      "ậm": 5772,
      "khách": 5773,
      "thức": 5774,
      "Phong": 5775,
      "nghi": 5776,
      "Khi": 5777,
      "nằm": 5778,
      "chí": 5779,
      "”.": 5780,
      "Chàng": 5781,
      "bây": 5782,
      "đầy": 5783,
      "vội": 5784,
      "hơi": 5785,
      "?-": 5786,
      "Chúng": 5787,
      "tối": 5788,
      "đau": 5789,
      "Kim": 5790,
      "ngờ": 5791,
      "Hoàng": 5792,
      "cảnh": 5793,
      "uốt": 5794,
      "đứa": 5795,
      "đề": 5796,
      "giáo": 5797,
      "Ta": 5798,
      "chồng": 5799,
      "xuất": 5800,
      "độ": 5801,
      "Từ": 5802,
      "iệng": 5803,
      "nghĩa": 5804,
      "hoa": 5805,
      "tháng": 5806,
      "đừng": 5807,
      "ngủ": 5808,
      "lập": 5809,
      "hãy": 5810,
      "ru": 5811,
      "ùi": 5812,
      "khiến": 5813,
      ";.": 5814,
      "hội": 5815,
      "Lý": 5816,
      "giữ": 5817,
      "mạnh": 5818,
      "Vân": 5819,
      ":–": 5820,
      "thở": 5821,
      "phương": 5822,
      "tuổi": 5823,
      "Những": 5824,
      "Minh": 5825,
      "tài": 5826,
      "iêng": 5827,
      "nhanh": 5828,
      "mặc": 5829,
      "tốt": 5830,
      "đồ": 5831,
      "ợp": 5832,
      "chờ": 5833,
      "lạnh": 5834,
      "buồn": 5835,
      "kể": 5836,
      "Vũ": 5837,
      "võ": 5838,
      "kêu": 5839,
      "Và": 5840,
      "phục": 5841,
      "lạ": 5842,
      "miệng": 5843,
      "Vương": 5844,
      "tư": 5845,
      "Ba": 5846,
      "ợt": 5847,
      "phần": 5848,
      "đáng": 5849,
      "thiếu": 5850,
      "mỗi": 5851,
      "biến": 5852,
      "le": 5853,
      "Trung": 5854,
      "đem": 5855,
      "òa": 5856,
      "Văn": 5857,
      "iếp": 5858,
      "vàng": 5859,
      "ưỡ": 5860,
      "pháp": 5861,
      "lặng": 5862,
      "vụ": 5863,
      "huynh": 5864,
      "ứt": 5865,
      "bác": 5866,
      "trẻ": 5867,
      "đặt": 5868,
      "dậy": 5869,
      "àm": 5870,
      "hoàn": 5871,
      "cầu": 5872,
      "dự": 5873,
      "nhẹ": 5874,
      "bay": 5875,
      "Còn": 5876,
      "cầm": 5877,
      "thay": 5878,
      "ịp": 5879,
      "cổ": 5880,
      "thằng": 5881,
      "mười": 5882,
      "hồi": 5883,
      "Thu": 5884,
      "ma": 5885,
      "vọng": 5886,
      "bóng": 5887,
      "Chỉ": 5888,
      "độc": 5889,
      "giận": 5890,
      "giúp": 5891,
      "bốn": 5892,
      "Sơn": 5893,
      "Sau": 5894,
      "giới": 5895,
      "lộ": 5896,
      "coi": 5897,
      "nương": 5898,
      "giết": 5899,
      "đình": 5900,
      "tướng": 5901,
      "hợp": 5902,
      "kéo": 5903,
      "quanh": 5904,
      "Phương": 5905,
      "rượ": 5906,
      "văn": 5907,
      "cuối": 5908,
      "đổi": 5909,
      "trang": 5910,
      "ãnh": 5911,
      "khổ": 5912,
      "sách": 5913,
      "tiến": 5914,
      "thông": 5915,
      "li": 5916,
      "trông": 5917,
      "Việt": 5918,
      "ẩy": 5919,
      "thơ": 5920,
      "vài": 5921,
      "âng": 5922,
      "thẳng": 5923,
      "Phi": 5924,
      "trái": 5925,
      "sắc": 5926,
      "ãn": 5927,
      "Bình": 5928,
      "cánh": 5929,
      "Nó": 5930,
      "ềm": 5931,
      "ngựa": 5932,
      "Thái": 5933,
      "ọt": 5934,
      "ểm": 5935,
      "Bạch": 5936,
      "bỗng": 5937,
      "chơi": 5938,
      "iếng": 5939,
      "chuy": 5940,
      "Cái": 5941,
      "đu": 5942,
      "Linh": 5943,
      "cứu": 5944,
      "quyền": 5945,
      "ín": 5946,
      "Nguyên": 5947,
      "Như": 5948,
      "Kỳ": 5949,
      "trung": 5950,
      "điểm": 5951,
      "Tại": 5952,
      "đen": 5953,
      "Hà": 5954,
      "thuốc": 5955,
      "trai": 5956,
      "giống": 5957,
      "rượu": 5958,
      "so": 5959,
      "An": 5960,
      "tội": 5961,
      "tuy": 5962,
      "vi": 5963,
      "trí": 5964,
      "trắng": 5965,
      "Các": 5966,
      "Công": 5967,
      "sai": 5968,
      "Lúc": 5969,
      "Vậy": 5970,
      "giác": 5971,
      "màu": 5972,
      "trưởng": 5973,
      "hoặc": 5974,
      "biệt": 5975,
      "danh": 5976,
      "chớ": 5977,
      "kết": 5978,
      "liên": 5979,
      "tập": 5980,
      "ịnh": 5981,
      "dễ": 5982,
      "viết": 5983,
      "tranh": 5984,
      "ảm": 5985,
      "nỗi": 5986,
      "thiên": 5987,
      "gật": 5988,
      "tinh": 5989,
      "máy": 5990,
      "Nguy": 5991,
      "úa": 5992,
      "ón": 5993,
      "Hồng": 5994,
      "Ma": 5995,
      "dụng": 5996,
      "bệnh": 5997,
      "Vì": 5998,
      "lệnh": 5999,
      "đỏ": 6000,
      "Rồi": 6001,
      "ót": 6002,
      "thầy": 6003,
      "giá": 6004,
      "lưng": 6005,
      "bố": 6006,
      "mạng": 6007,
      "núi": 6008,
      "môn": 6009,
      "tỏ": 6010,
      "phong": 6011,
      "ém": 6012,
      "Lâm": 6013,
      "thầm": 6014,
      "mươi": 6015,
      "iểm": 6016,
      "tuyệt": 6017,
      "tai": 6018,
      "điện": 6019,
      "hoàng": 6020,
      "thái": 6021,
      "Họ": 6022,
      "bài": 6023,
      "khóc": 6024,
      "tác": 6025,
      "Quân": 6026,
      "da": 6027,
      "binh": 6028,
      "Nguyễn": 6029,
      "mi": 6030,
      "amp": 6031,
      "vai": 6032,
      "thi": 6033,
      "Tây": 6034,
      "đội": 6035,
      "Đông": 6036,
      "cạnh": 6037,
      "mũ": 6038,
      "quen": 6039,
      "óa": 6040,
      "tỉnh": 6041,
      "tục": 6042,
      "uân": 6043,
      "Sao": 6044,
      "Thiếu": 6045,
      "đọc": 6046,
      "thuộc": 6047,
      "đám": 6048,
      "đợi": 6049,
      "Mai": 6050,
      "ữu": 6051,
      "mừng": 6052,
      "ệt": 6053,
      "ẳn": 6054,
      "cung": 6055,
      "ngạc": 6056,
      "trị": 6057,
      "dẫn": 6058,
      "ượt": 6059,
      "ặn": 6060,
      "Mỹ": 6061,
      "thất": 6062,
      "xanh": 6063,
      "quần": 6064,
      "tượng": 6065,
      "chung": 6066,
      "quên": 6067,
      "ụi": 6068,
      "hộ": 6069,
      "èo": 6070,
      "phủ": 6071,
      "Nói": 6072,
      "vòng": 6073,
      "suy": 6074,
      "ni": 6075,
      "ạp": 6076,
      "hậu": 6077,
      "Trần": 6078,
      "én": 6079,
      "chừng": 6080,
      "thiết": 6081,
      "19": 6082,
      "tao": 6083,
      "ớm": 6084,
      "trận": 6085,
      "lắc": 6086,
      "Bảo": 6087,
      "hiệu": 6088,
      "Hải": 6089,
      "mãi": 6090,
      "cụ": 6091,
      "ổn": 6092,
      "lễ": 6093,
      "địa": 6094,
      "nội": 6095,
      "hại": 6096,
      "ếp": 6097,
      "minh": 6098,
      "bởi": 6099,
      "nhiêu": 6100,
      "mỉ": 6101,
      "vua": 6102,
      "Tu": 6103,
      "chữ": 6104,
      "Ngươi": 6105,
      "ri": 6106,
      "bạc": 6107,
      "sắp": 6108,
      "lợi": 6109,
      "Thần": 6110,
      "hề": 6111,
      "nửa": 6112,
      "chợt": 6113,
      "hẳn": 6114,
      "Vi": 6115,
      "Lan": 6116,
      "phố": 6117,
      "dị": 6118,
      "giao": 6119,
      "Hồ": 6120,
      "nguyên": 6121,
      "kiến": 6122,
      "Chương": 6123,
      "Châu": 6124,
      "Chị": 6125,
      "Hắn": 6126,
      "sử": 6127,
      "mai": 6128,
      "trò": 6129,
      "el": 6130,
      "trăm": 6131,
      "xo": 6132,
      "máu": 6133,
      "phái": 6134,
      "gió": 6135,
      "nhảy": 6136,
      "chiều": 6137,
      "loại": 6138,
      "hướng": 6139,
      "mời": 6140,
      "căn": 6141,
      "Tiêu": 6142,
      "thượng": 6143,
      "đông": 6144,
      "xác": 6145,
      "tóc": 6146,
      "ly": 6147,
      "truyền": 6148,
      "et": 6149,
      "ẹn": 6150,
      "xảy": 6151,
      "mua": 6152,
      "vương": 6153,
      "chức": 6154,
      "hồn": 6155,
      "phản": 6156,
      "ngang": 6157,
      "quốc": 6158,
      "Bây": 6159,
      "vấn": 6160,
      "phi": 6161,
      "nhờ": 6162,
      "diện": 6163,
      "ẫu": 6164,
      "òi": 6165,
      "tiêu": 6166,
      "chứng": 6167,
      "thú": 6168,
      "chuyển": 6169,
      "Hương": 6170,
      "bán": 6171,
      "ẩu": 6172,
      "thù": 6173,
      "Nhân": 6174,
      "Tôn": 6175,
      "chưởng": 6176,
      "à": 6177,
      "Giang": 6178,
      "Tư": 6179,
      "bức": 6180,
      "tế": 6181,
      ".&": 6182,
      ";#": 6183,
      "đấu": 6184,
      "nặng": 6185,
      "hôn": 6186,
      "Mẹ": 6187,
      "thoát": 6188,
      "phá": 6189,
      "nắm": 6190,
      "mật": 6191,
      "mỉm": 6192,
      "riêng": 6193,
      "kịp": 6194,
      "sông": 6195,
      "tấm": 6196,
      "chặt": 6197,
      "song": 6198,
      "lá": 6199,
      "óm": 6200,
      "mũi": 6201,
      "Pháp": 6202,
      "bí": 6203,
      "lỗi": 6204,
      "nghiệp": 6205,
      "đoàn": 6206,
      "sâu": 6207,
      "ớt": 6208,
      "vùng": 6209,
      "đỡ": 6210,
      "Trương": 6211,
      "Thủ": 6212,
      "Quốc": 6213,
      "kế": 6214,
      "lửa": 6215,
      "thăm": 6216,
      "mê": 6217,
      "tránh": 6218,
      "môi": 6219,
      "năng": 6220,
      "trách": 6221,
      "niên": 6222,
      "may": 6223,
      "xưa": 6224,
      "phân": 6225,
      "vang": 6226,
      "chế": 6227,
      "ộn": 6228,
      "Đó": 6229,
      "viện": 6230,
      "?&": 6231,
      "đột": 6232,
      "bối": 6233,
      "Tuy": 6234,
      "rơi": 6235,
      "ban": 6236,
      "hả": 6237,
      "Hu": 6238,
      "cấp": 6239,
      "đơn": 6240,
      "tạo": 6241,
      "oan": 6242,
      "Đức": 6243,
      "đoạn": 6244,
      "buổi": 6245,
      "Thành": 6246,
      "lao": 6247,
      "thuyền": 6248,
      "Vô": 6249,
      "es": 6250,
      "Phải": 6251,
      "mong": 6252,
      "chiêu": 6253,
      "Chu": 6254,
      "chất": 6255,
      "dần": 6256,
      "Gia": 6257,
      "rời": 6258,
      "suốt": 6259,
      "ưỡng": 6260,
      "rừng": 6261,
      "àu": 6262,
      "Chính": 6263,
      "Thôi": 6264,
      "or": 6265,
      "tận": 6266,
      "tha": 6267,
      "hầu": 6268,
      "chống": 6269,
      "tổ": 6270,
      "ngu": 6271,
      "rộng": 6272,
      "mơ": 6273,
      "phép": 6274,
      "ngài": 6275,
      "lạc": 6276,
      "tăng": 6277,
      "cũ": 6278,
      "iễ": 6279,
      "cất": 6280,
      ".”": 6281,
      "quý": 6282,
      "đóng": 6283,
      "nóng": 6284,
      "giật": 6285,
      "sa": 6286,
      "sớm": 6287,
      "bật": 6288,
      "hạnh": 6289,
      "đặc": 6290,
      "phóng": 6291,
      "Đúng": 6292,
      "địch": 6293,
      "ngôi": 6294,
      "trầm": 6295,
      "tù": 6296,
      "đón": 6297,
      "ấc": 6298,
      "chăng": 6299,
      "úy": 6300,
      "bụng": 6301,
      "rút": 6302,
      "hữu": 6303,
      "Quan": 6304,
      "yếu": 6305,
      "trình": 6306,
      "lượng": 6307,
      "Bắc": 6308,
      "hóa": 6309,
      "thử": 6310,
      "phút": 6311,
      "Phật": 6312,
      "đoán": 6313,
      "đổ": 6314,
      "má": 6315,
      "kỹ": 6316,
      "biển": 6317,
      "ngoại": 6318,
      "oàn": 6319,
      "lùng": 6320,
      "muội": 6321,
      "ghế": 6322,
      "vệ": 6323,
      "Chẳng": 6324,
      "ồm": 6325,
      "thuật": 6326,
      "cơn": 6327,
      "hệ": 6328,
      "chúa": 6329,
      "phúc": 6330,
      "vốn": 6331,
      "khoảng": 6332,
      "tung": 6333,
      "Ai": 6334,
      "gây": 6335,
      "diễn": 6336,
      "thúc": 6337,
      "Thật": 6338,
      "đuổi": 6339,
      "sản": 6340,
      "Triệu": 6341,
      "cơm": 6342,
      "giấy": 6343,
      "cuốn": 6344,
      "khẽ": 6345,
      "ãng": 6346,
      "Tam": 6347,
      "kính": 6348,
      "lệ": 6349,
      "chia": 6350,
      "ửu": 6351,
      "linh": 6352,
      "đèn": 6353,
      "lắng": 6354,
      "bờ": 6355,
      "hiệp": 6356,
      "Xin": 6357,
      "nghiêm": 6358,
      "lớp": 6359,
      "khá": 6360,
      "lâm": 6361,
      "giường": 6362,
      "Hàn": 6363,
      "thắng": 6364,
      "Liên": 6365,
      "́t": 6366,
      "tan": 6367,
      "Chi": 6368,
      "quái": 6369,
      "cực": 6370,
      "nghỉ": 6371,
      "khăn": 6372,
      "õi": 6373,
      "luận": 6374,
      "thống": 6375,
      "dừng": 6376,
      "thịt": 6377,
      "Hồi": 6378,
      "đảo": 6379,
      "ửi": 6380,
      "ngọn": 6381,
      "Lê": 6382,
      "ẵn": 6383,
      "Tiên": 6384,
      "Dung": 6385,
      "quán": 6386,
      "tim": 6387,
      "mục": 6388,
      "dạy": 6389,
      "ườn": 6390,
      "Cả": 6391,
      "Du": 6392,
      "hiểm": 6393,
      "cúi": 6394,
      "Đường": 6395,
      "dữ": 6396,
      "hát": 6397,
      "lãnh": 6398,
      "lầm": 6399,
      "oi": 6400,
      "mưa": 6401,
      "làng": 6402,
      "nhắc": 6403,
      "Đồng": 6404,
      "che": 6405,
      "00": 6406,
      "tôn": 6407,
      "ằn": 6408,
      "đao": 6409,
      "ngã": 6410,
      "hùng": 6411,
      "sáu": 6412,
      "tĩnh": 6413,
      "bèn": 6414,
      ").": 6415,
      "mau": 6416,
      "tích": 6417,
      "tra": 6418,
      "La": 6419,
      "Nhất": 6420,
      "hòa": 6421,
      "xã": 6422,
      "Tất": 6423,
      "lưu": 6424,
      "chậm": 6425,
      "Lưu": 6426,
      "ủng": 6427,
      "Ngày": 6428,
      "hãi": 6429,
      "khắp": 6430,
      "ướt": 6431,
      "nghị": 6432,
      "ẫm": 6433,
      "nam": 6434,
      "đa": 6435,
      "tương": 6436,
      "Vu": 6437,
      "Thượng": 6438,
      "èm": 6439,
      "ràng": 6440,
      "sổ": 6441,
      "sở": 6442,
      "biểu": 6443,
      "--": 6444,
      "ìa": 6445,
      "Mã": 6446,
      "re": 6447,
      "vận": 6448,
      "du": 6449,
      "xét": 6450,
      "lát": 6451,
      "Bất": 6452,
      "nhị": 6453,
      "Do": 6454,
      "chắn": 6455,
      "ỳnh": 6456,
      "lịch": 6457,
      "Trước": 6458,
      "nầy": 6459,
      "run": 6460,
      "Yến": 6461,
      "Hạ": 6462,
      "tường": 6463,
      "Lăng": 6464,
      "Tuyết": 6465,
      "xấu": 6466,
      "Tâm": 6467,
      "nguy": 6468,
      "bắn": 6469,
      "tiện": 6470,
      "tuần": 6471,
      "mái": 6472,
      "dứt": 6473,
      "ưỡi": 6474,
      "Nhi": 6475,
      "Xuân": 6476,
      "sẵn": 6477,
      "chấp": 6478,
      "rối": 6479,
      "tàn": 6480,
      "ngực": 6481,
      "om": 6482,
      "lính": 6483,
      "Tần": 6484,
      "dòng": 6485,
      "?”": 6486,
      "xử": 6487,
      "Mi": 6488,
      "tham": 6489,
      "dây": 6490,
      "ủi": 6491,
      "lối": 6492,
      "Thạch": 6493,
      "nhé": 6494,
      "đành": 6495,
      "chọn": 6496,
      "quát": 6497,
      "nu": 6498,
      "thừa": 6499,
      "Hôm": 6500,
      "ry": 6501,
      "đẩy": 6502,
      "ỏng": 6503,
      "Năm": 6504,
      "sân": 6505,
      "Cậu": 6506,
      "nhiệm": 6507,
      "Trường": 6508,
      "Được": 6509,
      "luyện": 6510,
      "bảy": 6511,
      "̣t": 6512,
      "Tiếng": 6513,
      "buộc": 6514,
      "ngừng": 6515,
      "vũ": 6516,
      "Cao": 6517,
      "́i": 6518,
      "Quang": 6519,
      "giang": 6520,
      "hương": 6521,
      "hy": 6522,
      "chăm": 6523,
      "ha": 6524,
      "xúc": 6525,
      "Nghi": 6526,
      "Đến": 6527,
      "dấu": 6528,
      "hận": 6529,
      "ngàn": 6530,
      "cáo": 6531,
      "́c": 6532,
      "dung": 6533,
      "Tra": 6534,
      "lui": 6535,
      "cử": 6536,
      "khắc": 6537,
      "chuẩn": 6538,
      "ỏa": 6539,
      "say": 6540,
      "Bọn": 6541,
      "đế": 6542,
      "kích": 6543,
      "Cho": 6544,
      "Trời": 6545,
      "ẫy": 6546,
      "Thiết": 6547,
      "Cũng": 6548,
      "Đây": 6549,
      "hồng": 6550,
      "ớn": 6551,
      "Lục": 6552,
      "Chúa": 6553,
      "Gã": 6554,
      "buông": 6555,
      "hào": 6556,
      "tàu": 6557,
      "bữa": 6558,
      "mối": 6559,
      "sơn": 6560,
      "nhi": 6561,
      "khai": 6562,
      "tươi": 6563,
      "tiết": 6564,
      "ĩa": 6565,
      "Nhà": 6566,
      "chào": 6567,
      "tám": 6568,
      "mệt": 6569,
      "su": 6570,
      "điên": 6571,
      "phận": 6572,
      "ngăn": 6573,
      "thuyết": 6574,
      "băng": 6575,
      "đô": 6576,
      "ký": 6577,
      "tờ": 6578,
      "Trọng": 6579,
      "cỏ": 6580,
      "dàng": 6581,
      "phó": 6582,
      "phạm": 6583,
      "te": 6584,
      "lẫn": 6585,
      "cặp": 6586,
      "Huy": 6587,
      "Tống": 6588,
      "liệu": 6589,
      "trạng": 6590,
      "Để": 6591,
      "Trên": 6592,
      "!&": 6593,
      "Di": 6594,
      "ụp": 6595,
      "ngại": 6596,
      "lục": 6597,
      "kỷ": 6598,
      "mùa": 6599,
      "sơ": 6600,
      "Vừa": 6601,
      "niệm": 6602,
      "vết": 6603,
      "túi": 6604,
      "Nghe": 6605,
      "ợn": 6606,
      "dịch": 6607,
      "Sư": 6608,
      "thưa": 6609,
      "mô": 6610,
      "Nhật": 6611,
      "Ngô": 6612,
      "món": 6613,
      "tấn": 6614,
      "Huyền": 6615,
      "tròn": 6616,
      "đương": 6617,
      "nhập": 6618,
      "tả": 6619,
      "Độc": 6620,
      "gương": 6621,
      "nhạc": 6622,
      "mùi": 6623,
      "đức": 6624,
      "dáng": 6625,
      "đập": 6626,
      "chim": 6627,
      "Hùng": 6628,
      "ngược": 6629,
      "cắt": 6630,
      "quê": 6631,
      "̀i": 6632,
      "Thư": 6633,
      "lai": 6634,
      "can": 6635,
      "bánh": 6636,
      "dựng": 6637,
      "thoại": 6638,
      "nụ": 6639,
      "Làm": 6640,
      "chó": 6641,
      "bi": 6642,
      "dì": 6643,
      "tiếc": 6644,
      "iễu": 6645,
      "nét": 6646,
      "trốn": 6647,
      "mẫu": 6648,
      "ùm": 6649,
      "hưởng": 6650,
      "lương": 6651,
      "đòi": 6652,
      "bày": 6653,
      "duy": 6654,
      "Võ": 6655,
      ".–": 6656,
      "trượng": 6657,
      "Hãy": 6658,
      "̀ng": 6659,
      "Mọi": 6660,
      "hoảng": 6661,
      "lang": 6662,
      "bại": 6663,
      "íu": 6664,
      "hu": 6665,
      "răng": 6666,
      "loạn": 6667,
      "kín": 6668,
      "Sự": 6669,
      "kim": 6670,
      "Thì": 6671,
      "́n": 6672,
      "Ca": 6673,
      "Phụng": 6674,
      "nuôi": 6675,
      "cưới": 6676,
      "trừ": 6677,
      "Đừng": 6678,
      "Bác": 6679,
      "ngón": 6680,
      "thấp": 6681,
      "đích": 6682,
      "tán": 6683,
      "ướp": 6684,
      "Viên": 6685,
      "Chắc": 6686,
      "is": 6687,
      "Mình": 6688,
      "Cung": 6689,
      "chục": 6690,
      "Sa": 6691,
      "súng": 6692,
      "Dạ": 6693,
      "quang": 6694,
      "ty": 6695,
      "thốt": 6696,
      "vượt": 6697,
      "ựng": 6698,
      "kiện": 6699,
      "chớp": 6700,
      "Trang": 6701,
      "khả": 6702,
      "mắc": 6703,
      "....": 6704,
      "hổ": 6705,
      "nạn": 6706,
      "nghệ": 6707,
      "thoáng": 6708,
      "Kiếm": 6709,
      "Cu": 6710,
      "trống": 6711,
      "”,": 6712,
      "Kinh": 6713,
      "chiếu": 6714,
      "vườn": 6715,
      "Nga": 6716,
      "lành": 6717,
      "dịu": 6718,
      "Bộ": 6719,
      "dành": 6720,
      "mưu": 6721,
      "Thưa": 6722,
      "Thấy": 6723,
      "luật": 6724,
      "thờ": 6725,
      "Cơ": 6726,
      "gắng": 6727,
      "òm": 6728,
      "tộc": 6729,
      "nhạt": 6730,
      "Đào": 6731,
      "ụy": 6732,
      "Har": 6733,
      "Đã": 6734,
      "̀n": 6735,
      "Chuyện": 6736,
      "xếp": 6737,
      "hoang": 6738,
      "Điều": 6739,
      "Tú": 6740,
      "bang": 6741,
      "ênh": 6742,
      "tỷ": 6743,
      "ghi": 6744,
      "hi": 6745,
      "trúng": 6746,
      "hoạt": 6747,
      "ki": 6748,
      "va": 6749,
      "thận": 6750,
      "ou": 6751,
      "Đình": 6752,
      "trần": 6753,
      "se": 6754,
      "khô": 6755,
      ";,": 6756,
      "Theo": 6757,
      "́ng": 6758,
      "dường": 6759,
      "Ngu": 6760,
      "Mar": 6761,
      "đâm": 6762,
      "liệt": 6763,
      "cờ": 6764,
      "Mà": 6765,
      "mụ": 6766,
      "trại": 6767,
      "̣c": 6768,
      "NG": 6769,
      "giây": 6770,
      "thang": 6771,
      "dạ": 6772,
      "hét": 6773,
      "Cát": 6774,
      "chạm": 6775,
      "Chân": 6776,
      "!-": 6777,
      "thảm": 6778,
      "giơ": 6779,
      "khuôn": 6780,
      "Đi": 6781,
      "mức": 6782,
      "giấu": 6783,
      "ụt": 6784,
      "mờ": 6785,
      "dương": 6786,
      "Nguyệt": 6787,
      "Tuấn": 6788,
      "Thủy": 6789,
      "Dù": 6790,
      "đài": 6791,
      "ậc": 6792,
      "sứ": 6793,
      "tt": 6794,
      "canh": 6795,
      "Phượng": 6796,
      "Âu": 6797,
      "ngắn": 6798,
      "tầm": 6799,
      "niềm": 6800,
      "Liễu": 6801,
      "cướp": 6802,
      "Trúc": 6803,
      "giấc": 6804,
      "),": 6805,
      "nhắm": 6806,
      "chảy": 6807,
      "Ngo": 6808,
      "nãy": 6809,
      "vắng": 6810,
      "cộng": 6811,
      "Song": 6812,
      "Sở": 6813,
      "Quỳnh": 6814,
      "thả": 6815,
      "Lại": 6816,
      ":−": 6817,
      "Tổng": 6818,
      "đùa": 6819,
      "quỷ": 6820,
      "triều": 6821,
      "trấn": 6822,
      "kém": 6823,
      "vạn": 6824,
      "dĩ": 6825,
      "hiền": 6826,
      "triển": 6827,
      "hô": 6828,
      "chiếm": 6829,
      "toán": 6830,
      "Duy": 6831,
      "Tự": 6832,
      "pha": 6833,
      "sửa": 6834,
      "Bá": 6835,
      "Thúy": 6836,
      "huyệt": 6837,
      "Cửu": 6838,
      "vỡ": 6839,
      "Bởi": 6840,
      "phẩm": 6841,
      "na": 6842,
      "vực": 6843,
      "miền": 6844,
      "trao": 6845,
      "hứa": 6846,
      "tí": 6847,
      "cẩn": 6848,
      "Thất": 6849,
      "Cha": 6850,
      "Hay": 6851,
      "nguyện": 6852,
      "Thằng": 6853,
      "giám": 6854,
      "nghiệm": 6855,
      "chín": 6856,
      "khinh": 6857,
      "thua": 6858,
      "Cứ": 6859,
      "Hạnh": 6860,
      "Lạc": 6861,
      "mảnh": 6862,
      "nho": 6863,
      "tá": 6864,
      "ro": 6865,
      "quản": 6866,
      "Môn": 6867,
      "Chú": 6868,
      "xây": 6869,
      "vỗ": 6870,
      "bậc": 6871,
      "hạn": 6872,
      "Chủ": 6873,
      "ruột": 6874,
      "sướng": 6875,
      "nọ": 6876,
      "phiền": 6877,
      "Khánh": 6878,
      "tổng": 6879,
      "Lệ": 6880,
      "lan": 6881,
      "cổng": 6882,
      "Mấy": 6883,
      "Hội": 6884,
      "Đạo": 6885,
      "Giáo": 6886,
      "ghét": 6887,
      "Quách": 6888,
      "Sài": 6889,
      "il": 6890,
      "đào": 6891,
      "gỗ": 6892,
      "cư": 6893,
      "Cổ": 6894,
      "Đinh": 6895,
      "10": 6896,
      "châu": 6897,
      "bó": 6898,
      "dõi": 6899,
      "Cháu": 6900,
      "thí": 6901,
      "Bu": 6902,
      "Phát": 6903,
      "Tường": 6904,
      "bò": 6905,
      "Sinh": 6906,
      "nghề": 6907,
      "bầu": 6908,
      "than": 6909,
      "Ngài": 6910,
      "thèm": 6911,
      "dầu": 6912,
      "hút": 6913,
      "Kiều": 6914,
      "tựa": 6915,
      "vây": 6916,
      "đốc": 6917,
      "nở": 6918,
      "đựng": 6919,
      "Nhìn": 6920,
      "Lu": 6921,
      "cứng": 6922,
      "gấp": 6923,
      "bận": 6924,
      "ượn": 6925,
      "ngó": 6926,
      "nhỉ": 6927,
      "truyện": 6928,
      "nhẫn": 6929,
      "Vĩnh": 6930,
      "Lần": 6931,
      "Sĩ": 6932,
      "ngọc": 6933,
      "no": 6934,
      "đảm": 6935,
      "lưỡi": 6936,
      "lượt": 6937,
      "ngon": 6938,
      "Tân": 6939,
      "chén": 6940,
      "Hán": 6941,
      "cà": 6942,
      "Nữ": 6943,
      "de": 6944,
      "Uy": 6945,
      "**": 6946,
      "!”": 6947,
      "trăng": 6948,
      "góc": 6949,
      "Mày": 6950,
      "Về": 6951,
      "lông": 6952,
      "Việc": 6953,
      "kiểu": 6954,
      "ầng": 6955,
      "xung": 6956,
      "Vạn": 6957,
      "Thi": 6958,
      "chùa": 6959,
      "Uyên": 6960,
      "Vâng": 6961,
      "bụi": 6962,
      "cương": 6963,
      "Yên": 6964,
      "bá": 6965,
      "nông": 6966,
      "gà": 6967,
      "Bằng": 6968,
      "Lời": 6969,
      "khuy": 6970,
      "Tình": 6971,
      "hài": 6972,
      "trà": 6973,
      "dặn": 6974,
      "rỡ": 6975,
      "hung": 6976,
      "hộp": 6977,
      "Harry": 6978,
      "tái": 6979,
      "mệnh": 6980,
      "lũ": 6981,
      "sắt": 6982,
      "Ngay": 6983,
      "Mộc": 6984,
      "vung": 6985,
      "Lương": 6986,
      "bực": 6987,
      "Thảo": 6988,
      "tạm": 6989,
      "tín": 6990,
      "giỏi": 6991,
      "khoa": 6992,
      "đói": 6993,
      "tụi": 6994,
      "xinh": 6995,
      "cải": 6996,
      "bếp": 6997,
      "ghê": 6998,
      "khen": 6999,
      "nắng": 7000,
      "si": 7001,
      "nổ": 7002,
      "Bích": 7003,
      "đằng": 7004,
      "Nguồn": 7005,
      "Chí": 7006,
      "lôi": 7007,
      "Thông": 7008,
      "chuyên": 7009,
      "Tao": 7010,
      "hán": 7011,
      "trôi": 7012,
      "hẹn": 7013,
      "phê": 7014,
      "Tô": 7015,
      "thuận": 7016,
      "xương": 7017,
      "ọa": 7018,
      "lùi": 7019,
      "trải": 7020,
      "mộ": 7021,
      "long": 7022,
      "Câu": 7023,
      "Nội": 7024,
      "gửi": 7025,
      "Với": 7026,
      "Mạnh": 7027,
      "mây": 7028,
      "thiếp": 7029,
      "hối": 7030,
      "sạch": 7031,
      "vẽ": 7032,
      "đê": 7033,
      "ộm": 7034,
      "đắc": 7035,
      "bè": 7036,
      "chối": 7037,
      "xông": 7038,
      "mã": 7039,
      "chữa": 7040,
      "tri": 7041,
      "họa": 7042,
      "Bỗng": 7043,
      "lăn": 7044,
      "sóng": 7045,
      "hoài": 7046,
      "thâm": 7047,
      "lĩnh": 7048,
      "Thường": 7049,
      "ck": 7050,
      "man": 7051,
      "thánh": 7052,
      "̣i": 7053,
      "sung": 7054,
      "diệt": 7055,
      "dục": 7056,
      "thản": 7057,
      "mù": 7058,
      "thủy": 7059,
      "Tên": 7060,
      "Khấu": 7061,
      "tô": 7062,
      "khẩu": 7063,
      "giàu": 7064,
      "Đồ": 7065,
      "mồ": 7066,
      "đỉnh": 7067,
      "dao": 7068,
      "tắt": 7069,
      "đạt": 7070,
      "ùn": 7071,
      "sốt": 7072,
      "Hòa": 7073,
      "tạ": 7074,
      "Băng": 7075,
      "ga": 7076,
      "dịp": 7077,
      "chán": 7078,
      "xoay": 7079,
      "Ngũ": 7080,
      "ẹt": 7081,
      "Hoài": 7082,
      "Vỹ": 7083,
      "gác": 7084,
      "ngập": 7085,
      "khỏ": 7086,
      "đốt": 7087,
      "ol": 7088,
      "Kiệt": 7089,
      "Diệp": 7090,
      "ngắm": 7091,
      "ặm": 7092,
      "Kho": 7093,
      "thoảng": 7094,
      "Tinh": 7095,
      "miếng": 7096,
      "chở": 7097,
      "78": 7098,
      "khúc": 7099,
      "Ly": 7100,
      "mộng": 7101,
      "Mỗi": 7102,
      "Lang": 7103,
      "bát": 7104,
      "nhàng": 7105,
      "nghèo": 7106,
      "Giọng": 7107,
      "̣n": 7108,
      "hôi": 7109,
      "cháy": 7110,
      "khủng": 7111,
      "thiện": 7112,
      "ửng": 7113,
      "Hắc": 7114,
      "Bang": 7115,
      "gốc": 7116,
      "khuyên": 7117,
      "Lam": 7118,
      "tặng": 7119,
      "nền": 7120,
      "ẹo": 7121,
      "cục": 7122,
      "ngơ": 7123,
      "tớ": 7124,
      "khỏe": 7125,
      "Hầu": 7126,
      "màn": 7127,
      "dò": 7128,
      "Thầy": 7129,
      "mát": 7130,
      "khiếp": 7131,
      "ve": 7132,
      "Huệ": 7133,
      "dụ": 7134,
      "Nhị": 7135,
      "dối": 7136,
      "ne": 7137,
      "Ha": 7138,
      "trực": 7139,
      "Nhạc": 7140,
      "chợ": 7141,
      "bãi": 7142,
      "Đoàn": 7143,
      "thảo": 7144,
      "chóng": 7145,
      "đeo": 7146,
      "Qua": 7147,
      "điệu": 7148,
      "Bố": 7149,
      "nhu": 7150,
      "khởi": 7151,
      "Tứ": 7152,
      "sàng": 7153,
      "Mặt": 7154,
      "Hình": 7155,
      "Hành": 7156,
      "nhóm": 7157,
      "giản": 7158,
      "Mặc": 7159,
      "ừu": 7160,
      "đớn": 7161,
      "rắn": 7162,
      "bấy": 7163,
      "tứ": 7164,
      "Ro": 7165,
      "nát": 7166,
      "Thương": 7167,
      "Thánh": 7168,
      "khôn": 7169,
      "ném": 7170,
      "Bách": 7171,
      "Toàn": 7172,
      "lừa": 7173,
      "son": 7174,
      "Đôi": 7175,
      "Hạng": 7176,
      "Luân": 7177,
      "duyên": 7178,
      "họp": 7179,
      "thê": 7180,
      "Lôi": 7181,
      "lộn": 7182,
      "trưa": 7183,
      "tước": 7184,
      "huyện": 7185,
      "nhục": 7186,
      "Khu": 7187,
      "ủy": 7188,
      "hở": 7189,
      "biên": 7190,
      "mỏi": 7191,
      "Phạm": 7192,
      "Thân": 7193,
      "cuồng": 7194,
      "tràn": 7195,
      "dọc": 7196,
      "trợ": 7197,
      "Giả": 7198,
      "Cuối": 7199,
      "oán": 7200,
      "là": 7201,
      "gan": 7202,
      "lái": 7203,
      "lơ": 7204,
      "ún": 7205,
      "trừng": 7206,
      "khói": 7207,
      "12": 7208,
      "Đêm": 7209,
      "dọn": 7210,
      "bề": 7211,
      "sanh": 7212,
      "Na": 7213,
      "thổi": 7214,
      "mò": 7215,
      "Loan": 7216,
      "hoá": 7217,
      "Tùng": 7218,
      "Quả": 7219,
      "chuyến": 7220,
      "thưởng": 7221,
      "tắm": 7222,
      "chém": 7223,
      "đảng": 7224,
      "ran": 7225,
      "Nhu": 7226,
      "cốc": 7227,
      "hầm": 7228,
      "nhật": 7229,
      "tam": 7230,
      "Dịch": 7231,
      "dại": 7232,
      "Ngân": 7233,
      "thỉnh": 7234,
      "liếc": 7235,
      "xứ": 7236,
      "xuyên": 7237,
      "Ban": 7238,
      "sợi": 7239,
      "Nghĩa": 7240,
      "Kha": 7241,
      "rực": 7242,
      "kiểm": 7243,
      "hoạch": 7244,
      "treo": 7245,
      "hấp": 7246,
      "chả": 7247,
      "lầu": 7248,
      "Cách": 7249,
      "hạt": 7250,
      "bẩm": 7251,
      "bông": 7252,
      "thiệt": 7253,
      "nghiêng": 7254,
      "chụp": 7255,
      "al": 7256,
      "lướt": 7257,
      "triệu": 7258,
      "bổn": 7259,
      "hư": 7260,
      "ýt": 7261,
      "thậm": 7262,
      "vải": 7263,
      "Phúc": 7264,
      "Thời": 7265,
      "Gòn": 7266,
      "Mục": 7267,
      "Phan": 7268,
      "Hoàn": 7269,
      "ton": 7270,
      "net": 7271,
      "hứng": 7272,
      "dựa": 7273,
      "xóm": 7274,
      "chương": 7275,
      "Ni": 7276,
      "Đỗ": 7277,
      "lỗ": 7278,
      "vuốt": 7279,
      "giai": 7280,
      "cường": 7281,
      "căng": 7282,
      "muộn": 7283,
      ";&": 7284,
      "ịt": 7285,
      "tố": 7286,
      "cản": 7287,
      "tòa": 7288,
      "mạo": 7289,
      "cãi": 7290,
      "kiếp": 7291,
      "Bên": 7292,
      "Biết": 7293,
      "Sáng": 7294,
      "vách": 7295,
      "mãn": 7296,
      "mến": 7297,
      "đạn": 7298,
      "trì": 7299,
      "cau": 7300,
      "chốc": 7301,
      "gạt": 7302,
      "tiệc": 7303,
      "tuyên": 7304,
      "Ánh": 7305,
      "cát": 7306,
      "ốm": 7307,
      "Âm": 7308,
      "tệ": 7309,
      "tuyết": 7310,
      "Chưa": 7311,
      "vững": 7312,
      "hạng": 7313,
      "móc": 7314,
      "Là": 7315,
      "râu": 7316,
      "đạp": 7317,
      "cắn": 7318,
      "Tho": 7319,
      "Ân": 7320,
      "Ngoài": 7321,
      "Bao": 7322,
      "phấn": 7323,
      "mắng": 7324,
      "mạch": 7325,
      "Lệnh": 7326,
      "Hưng": 7327,
      "kịch": 7328,
      "18": 7329,
      "bội": 7330,
      "dâng": 7331,
      "bổ": 7332,
      "thuquan": 7333,
      "ngũ": 7334,
      "ngữ": 7335,
      "tủ": 7336,
      "gối": 7337,
      "Tố": 7338,
      "khéo": 7339,
      "Jo": 7340,
      "ngộ": 7341,
      "us": 7342,
      "ấ": 7343,
      "nhăn": 7344,
      "thơm": 7345,
      "Sương": 7346,
      "ngâm": 7347,
      "̉i": 7348,
      "vã": 7349,
      "khích": 7350,
      "dạng": 7351,
      "Mộng": 7352,
      "Nương": 7353,
      "úm": 7354,
      "Vua": 7355,
      "tỉ": 7356,
      "sóc": 7357,
      "rung": 7358,
      "nấu": 7359,
      "xi": 7360,
      "Hiệp": 7361,
      "Ôi": 7362,
      "ngẩn": 7363,
      "săn": 7364,
      "lô": 7365,
      "cự": 7366,
      "Đo": 7367,
      "bút": 7368,
      "đồn": 7369,
      "diệu": 7370,
      "Giờ": 7371,
      "phù": 7372,
      "lấp": 7373,
      "Hữu": 7374,
      "ếch": 7375,
      "Đạt": 7376,
      "nhiệt": 7377,
      "Li": 7378,
      "tụ": 7379,
      "ụa": 7380,
      "giọt": 7381,
      "Ra": 7382,
      "Tạ": 7383,
      "nô": 7384,
      "vơ": 7385,
      "sờ": 7386,
      "iễm": 7387,
      "Mu": 7388,
      "leo": 7389,
      "Lân": 7390,
      "cớ": 7391,
      "Cám": 7392,
      "trộm": 7393,
      "dắt": 7394,
      "đậu": 7395,
      "trụ": 7396,
      "rửa": 7397,
      "Quý": 7398,
      "tia": 7399,
      "tây": 7400,
      "ngọt": 7401,
      "non": 7402,
      "dày": 7403,
      "rãi": 7404,
      "dồn": 7405,
      "Mao": 7406,
      "tịch": 7407,
      "bạch": 7408,
      "ce": 7409,
      "ngoan": 7410,
      "ka": 7411,
      "Thực": 7412,
      "chứa": 7413,
      "Dân": 7414,
      "khoái": 7415,
      "mềm": 7416,
      "đống": 7417,
      "bạo": 7418,
      "vụt": 7419,
      "nha": 7420,
      "Quỷ": 7421,
      "ngắt": 7422,
      "Quyên": 7423,
      "ine": 7424,
      "bớt": 7425,
      "bừng": 7426,
      "bốc": 7427,
      "ke": 7428,
      "giặc": 7429,
      "làn": 7430,
      "và": 7431,
      "sương": 7432,
      "hang": 7433,
      "Thị": 7434,
      "lau": 7435,
      "thợ": 7436,
      "Lĩnh": 7437,
      "hốt": 7438,
      "tồn": 7439,
      "tắc": 7440,
      "tùy": 7441,
      "̉a": 7442,
      "mỹ": 7443,
      "phán": 7444,
      "Cuộc": 7445,
      "ễu": 7446,
      "Lãnh": 7447,
      "Thục": 7448,
      "Vào": 7449,
      "cấm": 7450,
      "loài": 7451,
      "?–": 7452,
      "đáo": 7453,
      "Khang": 7454,
      "cán": 7455,
      "tầng": 7456,
      "trán": 7457,
      "̃ng": 7458,
      "lẩm": 7459,
      "hà": 7460,
      "nộ": 7461,
      "Vị": 7462,
      "ngây": 7463,
      "24": 7464,
      "lánh": 7465,
      "ko": 7466,
      "Chiếc": 7467,
      "//": 7468,
      "luồng": 7469,
      "huyết": 7470,
      "ghé": 7471,
      "ẩng": 7472,
      "biện": 7473,
      "đứt": 7474,
      "dặm": 7475,
      "dâu": 7476,
      "Hồn": 7477,
      "lật": 7478,
      "xuân": 7479,
      "bào": 7480,
      "vn": 7481,
      "van": 7482,
      "hàm": 7483,
      "tốc": 7484,
      "://": 7485,
      "ttp": 7486,
      "http": 7487,
      "Dao": 7488,
      "kiên": 7489,
      "thụ": 7490,
      "Lập": 7491,
      "Điền": 7492,
      "cột": 7493,
      "Trí": 7494,
      "vọt": 7495,
      "ngợi": 7496,
      ":&": 7497,
      "chấm": 7498,
      "nối": 7499,
      "cốt": 7500,
      "Khanh": 7501,
      "chốn": 7502,
      "Đầu": 7503,
      "Định": 7504,
      "Hiện": 7505,
      "NH": 7506,
      "khám": 7507,
      "cõi": 7508,
      "hè": 7509,
      "đà": 7510,
      "phí": 7511,
      "chúc": 7512,
      "Quảng": 7513,
      "ngôn": 7514,
      "Nghĩ": 7515,
      "Hơn": 7516,
      "hoà": 7517,
      "thước": 7518,
      "uyến": 7519,
      "Hổ": 7520,
      "nghiên": 7521,
      "cành": 7522,
      "khốn": 7523,
      "11": 7524,
      "reo": 7525,
      "cân": 7526,
      "nợ": 7527,
      "hải": 7528,
      "mượn": 7529,
      "ùy": 7530,
      "thét": 7531,
      "lăm": 7532,
      "Thẩm": 7533,
      "Đang": 7534,
      "San": 7535,
      "len": 7536,
      "nhằm": 7537,
      "ter": 7538,
      "vnthuquan": 7539,
      "trào": 7540,
      "nảy": 7541,
      "cởi": 7542,
      "Viễn": 7543,
      "toan": 7544,
      "xưng": 7545,
      "Giao": 7546,
      "đụng": 7547,
      "phạt": 7548,
      "ngẩng": 7549,
      "đuôi": 7550,
      "Phú": 7551,
      "nề": 7552,
      "nâng": 7553,
      "ãm": 7554,
      "netPhát": 7555,
      "dưỡng": 7556,
      "giam": 7557,
      "ngầm": 7558,
      "Uyển": 7559,
      "Khải": 7560,
      "khuất": 7561,
      "buôn": 7562,
      "Trịnh": 7563,
      "thiệu": 7564,
      "ngột": 7565,
      "Mười": 7566,
      "ờn": 7567,
      "khóa": 7568,
      "Nay": 7569,
      "châm": 7570,
      "liều": 7571,
      "Huyết": 7572,
      "Tiền": 7573,
      "tốn": 7574,
      "có": 7575,
      "mỗ": 7576,
      "Cộng": 7577,
      "gánh": 7578,
      "khát": 7579,
      "sững": 7580,
      "nấy": 7581,
      "Cốc": 7582,
      "bám": 7583,
      "quyển": 7584,
      "chìm": 7585,
      "đặng": 7586,
      "rào": 7587,
      "đền": 7588,
      "Bạn": 7589,
      "Lâu": 7590,
      "ịa": 7591,
      "ard": 7592,
      "chư": 7593,
      "Mẫn": 7594,
      "Phùng": 7595,
      "as": 7596,
      "lò": 7597,
      "Đà": 7598,
      "chấn": 7599,
      "quí": 7600,
      "gồm": 7601,
      "chánh": 7602,
      "Nhiều": 7603,
      "lê": 7604,
      "Vy": 7605,
      "Chung": 7606,
      "xứng": 7607,
      "chép": 7608,
      "tơ": 7609,
      "gượng": 7610,
      "lọt": 7611,
      "mắn": 7612,
      "phất": 7613,
      "̀u": 7614,
      "Diệm": 7615,
      "Bản": 7616,
      "Nhã": 7617,
      "xô": 7618,
      "sạn": 7619,
      "cam": 7620,
      "Dũng": 7621,
      "ngân": 7622,
      "vả": 7623,
      "Này": 7624,
      "Hiền": 7625,
      "20": 7626,
      "suối": 7627,
      "một": 7628,
      "trùng": 7629,
      "óp": 7630,
      "đoạt": 7631,
      "quỳ": 7632,
      "Chào": 7633,
      "bọc": 7634,
      "tà": 7635,
      "lạy": 7636,
      "me": 7637,
      "Cúc": 7638,
      "gỡ": 7639,
      "chuông": 7640,
      "Ninh": 7641,
      ".“": 7642,
      "vời": 7643,
      "vâng": 7644,
      "Cảnh": 7645,
      "đồi": 7646,
      "khẩn": 7647,
      "Chiêu": 7648,
      "tạp": 7649,
      "dính": 7650,
      "hoan": 7651,
      "thạch": 7652,
      "Mạc": 7653,
      "Hạo": 7654,
      "múa": 7655,
      "Bát": 7656,
      "đãi": 7657,
      "thôn": 7658,
      "mồm": 7659,
      "Phần": 7660,
      "phim": 7661,
      "Thứ": 7662,
      ":“": 7663,
      "rít": 7664,
      "trương": 7665,
      "Bốn": 7666,
      "?”.": 7667,
      "ười": 7668,
      "be": 7669,
      "Tà": 7670,
      "kình": 7671,
      "não": 7672,
      "dội": 7673,
      "chê": 7674,
      "bắc": 7675,
      "khuya": 7676,
      "mãnh": 7677,
      "ruộng": 7678,
      "lựa": 7679,
      "nhã": 7680,
      "Nước": 7681,
      "túng": 7682,
      "chăn": 7683,
      "200": 7684,
      "cận": 7685,
      "Nào": 7686,
      "15": 7687,
      "muôn": 7688,
      "nguồn": 7689,
      "ếm": 7690,
      "giảm": 7691,
      "pháo": 7692,
      "dạo": 7693,
      "gầm": 7694,
      "gõ": 7695,
      "Trinh": 7696,
      "gói": 7697,
      "Cầm": 7698,
      "Tướng": 7699,
      "chọc": 7700,
      "Đan": 7701,
      "chửi": 7702,
      "Thắng": 7703,
      "lỡ": 7704,
      "mọc": 7705,
      "__": 7706,
      "Cần": 7707,
      "Trác": 7708,
      "dư": 7709,
      "Độ": 7710,
      "ươn": 7711,
      "căm": 7712,
      "II": 7713,
      "lẻ": 7714,
      "My": 7715,
      "đòn": 7716,
      "dưng": 7717,
      "bần": 7718,
      "truy": 7719,
      "mông": 7720,
      "Mộ": 7721,
      "thẹn": 7722,
      "mực": 7723,
      "Bảy": 7724,
      "Ti": 7725,
      "hảo": 7726,
      "Phủ": 7727,
      "đăm": 7728,
      "Nhược": 7729,
      "thề": 7730,
      "chui": 7731,
      "thập": 7732,
      "miễn": 7733,
      "Triển": 7734,
      "xót": 7735,
      "Kỵ": 7736,
      "Lo": 7737,
      "vờ": 7738,
      "há": 7739,
      "Hiểu": 7740,
      "lồng": 7741,
      "Bo": 7742,
      "go": 7743,
      "xé": 7744,
      "Khách": 7745,
      "tre": 7746,
      "xám": 7747,
      "ờng": 7748,
      "ge": 7749,
      "bệ": 7750,
      "tiệm": 7751,
      "hiếu": 7752,
      "giảng": 7753,
      "dở": 7754,
      "lanh": 7755,
      "cắm": 7756,
      "nhịn": 7757,
      "hỏa": 7758,
      "khe": 7759,
      "Hân": 7760,
      "chôn": 7761,
      "thuê": 7762,
      "nén": 7763,
      "cay": 7764,
      "tò": 7765,
      "Nhạn": 7766,
      "doanh": 7767,
      "vẫy": 7768,
      "quà": 7769,
      "rũ": 7770,
      "siêu": 7771,
      "Đối": 7772,
      "gầy": 7773,
      "TH": 7774,
      "vân": 7775,
      "cạn": 7776,
      "ấy": 7777,
      "Ðại": 7778,
      "̣ng": 7779,
      "kìa": 7780,
      "nghìn": 7781,
      "quét": 7782,
      "chặn": 7783,
      "Dĩ": 7784,
      "ngục": 7785,
      "giày": 7786,
      "Tưởng": 7787,
      "Tuyệt": 7788,
      "tảng": 7789,
      "xá": 7790,
      "ngất": 7791,
      "của": 7792,
      "Tề": 7793,
      "vãn": 7794,
      "bến": 7795,
      "xách": 7796,
      "thùng": 7797,
      "Côn": 7798,
      "nhủ": 7799,
      "Sát": 7800,
      "sôi": 7801,
      "lược": 7802,
      "Muốn": 7803,
      "So": 7804,
      "Ka": 7805,
      "dã": 7806,
      "tang": 7807,
      "Ne": 7808,
      "lén": 7809,
      "ngào": 7810,
      "Sáu": 7811,
      "sàn": 7812,
      "trợn": 7813,
      "soạn": 7814,
      "tui": 7815,
      "kiệt": 7816,
      "nghịch": 7817,
      "xoa": 7818,
      "gởi": 7819,
      "Hàng": 7820,
      "đàng": 7821,
      "Rất": 7822,
      "Đảng": 7823,
      "cám": 7824,
      "túc": 7825,
      "kỵ": 7826,
      "gọn": 7827,
      "Bội": 7828,
      "Đoạn": 7829,
      "chìa": 7830,
      "màng": 7831,
      "sảnh": 7832,
      "Trân": 7833,
      "huyền": 7834,
      "thổ": 7835,
      "tê": 7836,
      "Thiệu": 7837,
      "nhún": 7838,
      "viễn": 7839,
      "hất": 7840,
      "nuốt": 7841,
      "CH": 7842,
      "khoác": 7843,
      "té": 7844,
      "Tiết": 7845,
      "Lai": 7846,
      "tháo": 7847,
      "kháng": 7848,
      "khung": 7849,
      "dốc": 7850,
      "ghen": 7851,
      "Cương": 7852,
      "ngước": 7853,
      "tiễn": 7854,
      "Xuyên": 7855,
      "nhặt": 7856,
      "Thừa": 7857,
      "Hy": 7858,
      "Đài": 7859,
      "khối": 7860,
      "trúc": 7861,
      "chai": 7862,
      "cỡ": 7863,
      "hỗ": 7864,
      "buồng": 7865,
      "Tịnh": 7866,
      "tách": 7867,
      "Le": 7868,
      "Xem": 7869,
      "thai": 7870,
      "khoát": 7871,
      "ươm": 7872,
      "pho": 7873,
      "kê": 7874,
      "xen": 7875,
      "----": 7876,
      "Đột": 7877,
      "chỉnh": 7878,
      "ley": 7879,
      "dãy": 7880,
      "Tấn": 7881,
      "lờ": 7882,
      "To": 7883,
      "bồi": 7884,
      "õng": 7885,
      "bồ": 7886,
      "lin": 7887,
      "Đa": 7888,
      "Phu": 7889,
      "30": 7890,
      "ham": 7891,
      "Co": 7892,
      "Si": 7893,
      "27": 7894,
      "nhường": 7895,
      "rùng": 7896,
      "cưỡng": 7897,
      "May": 7898,
      "Hậu": 7899,
      "thói": 7900,
      "Khắc": 7901,
      "ngạo": 7902,
      "né": 7903,
      "ngốc": 7904,
      "Đế": 7905,
      "ốp": 7906,
      "thô": 7907,
      "Thích": 7908,
      "thác": 7909,
      "Phù": 7910,
      "gạo": 7911,
      "and": 7912,
      "Da": 7913,
      "trọn": 7914,
      "ngơi": 7915,
      "Nha": 7916,
      "vỏ": 7917,
      "xâm": 7918,
      "Tối": 7919,
      "Cừu": 7920,
      "Lộc": 7921,
      "hắc": 7922,
      "rủ": 7923,
      "sánh": 7924,
      "vĩnh": 7925,
      "Vệ": 7926,
      "Phó": 7927,
      "Đặng": 7928,
      "Dư": 7929,
      "dược": 7930,
      "thiền": 7931,
      "tánh": 7932,
      "Diệu": 7933,
      "phú": 7934,
      "trâu": 7935,
      "ngửa": 7936,
      "rô": 7937,
      "Diện": 7938,
      "khoan": 7939,
      "16": 7940,
      "mèo": 7941,
      "đẻ": 7942,
      "ngác": 7943,
      "sót": 7944,
      "gắt": 7945,
      "ngưng": 7946,
      "ngự": 7947,
      "gào": 7948,
      "đăng": 7949,
      "Hằng": 7950,
      "gắn": 7951,
      "xuôi": 7952,
      "thám": 7953,
      "25": 7954,
      "Tổ": 7955,
      "Phục": 7956,
      "Vợ": 7957,
      "táo": 7958,
      "giở": 7959,
      "rách": 7960,
      "roi": 7961,
      "Ngư": 7962,
      "Chưởng": 7963,
      "Đô": 7964,
      "giáp": 7965,
      "Cam": 7966,
      "dũng": 7967,
      ".−": 7968,
      "xà": 7969,
      "xua": 7970,
      "đinh": 7971,
      "nà": 7972,
      "lăng": 7973,
      "nồng": 7974,
      "mỏng": 7975,
      "trồng": 7976,
      "lãng": 7977,
      "huống": 7978,
      "ber": 7979,
      "les": 7980,
      "Par": 7981,
      "Mắt": 7982,
      "Vinh": 7983,
      "Giữa": 7984,
      "tân": 7985,
      "thỏa": 7986,
      "Cường": 7987,
      "ớp": 7988,
      "nhát": 7989,
      "kiêu": 7990,
      "báu": 7991,
      "lam": 7992,
      "chen": 7993,
      "gớm": 7994,
      "Trầm": 7995,
      "Mông": 7996,
      "hẹp": 7997,
      "thọ": 7998,
      "nan": 7999,
      "tổn": 8000,
      "17": 8001,
      "rắc": 8002,
      "Hiếu": 8003,
      "Ar": 8004,
      "sáo": 8005,
      "ngần": 8006,
      "đả": 8007,
      "xao": 8008,
      "lay": 8009,
      "Kẻ": 8010,
      "tăm": 8011,
      "đáy": 8012,
      "rẽ": 8013,
      "Huỳnh": 8014,
      "Thập": 8015,
      "nghiến": 8016,
      "Pi": 8017,
      "Ja": 8018,
      "ngưỡng": 8019,
      "nhọc": 8020,
      "ất": 8021,
      "tỳ": 8022,
      "xích": 8023,
      "khứ": 8024,
      "Lợi": 8025,
      "lung": 8026,
      "thình": 8027,
      "bo": 8028,
      "trơ": 8029,
      "bưng": 8030,
      "tâu": 8031,
      "Tay": 8032,
      "Quy": 8033,
      "đươ": 8034,
      "góp": 8035,
      "Hừ": 8036,
      "vĩ": 8037,
      "dinh": 8038,
      "Hi": 8039,
      "ưởi": 8040,
      "Tào": 8041,
      "Hóa": 8042,
      "tặc": 8043,
      "lụa": 8044,
      "Tông": 8045,
      "thắc": 8046,
      "ngụ": 8047,
      "Vả": 8048,
      "ậ": 8049,
      "one": 8050,
      "Xung": 8051,
      "Tĩnh": 8052,
      "bàng": 8053,
      "vở": 8054,
      "Diễm": 8055,
      "gục": 8056,
      "Bửu": 8057,
      "phức": 8058,
      "toà": 8059,
      "nhịp": 8060,
      "gợi": 8061,
      "dập": 8062,
      "quận": 8063,
      "Mới": 8064,
      "lẹ": 8065,
      "thoải": 8066,
      "Bàn": 8067,
      "bia": 8068,
      "rau": 8069,
      "Lộ": 8070,
      "...-": 8071,
      "̀nh": 8072,
      "hèn": 8073,
      "thiệp": 8074,
      "Tiến": 8075,
      "Tương": 8076,
      "sói": 8077,
      "giành": 8078,
      "ngả": 8079,
      "Mụ": 8080,
      "tru": 8081,
      "Oanh": 8082,
      "mạn": 8083,
      "đầm": 8084,
      "Sử": 8085,
      "hái": 8086,
      "za": 8087,
      "chua": 8088,
      "Cẩm": 8089,
      "chằm": 8090,
      "Quần": 8091,
      "vú": 8092,
      "mép": 8093,
      "cắp": 8094,
      "Tiếu": 8095,
      "manh": 8096,
      "tráng": 8097,
      "bão": 8098,
      "rầu": 8099,
      "Chiến": 8100,
      "hít": 8101,
      "đắm": 8102,
      "sữa": 8103,
      "giục": 8104,
      "phe": 8105,
      "Pet": 8106,
      "13": 8107,
      "Lữ": 8108,
      "soi": 8109,
      "nghẹn": 8110,
      "thò": 8111,
      "bóp": 8112,
      "Cảm": 8113,
      "hiếm": 8114,
      "hò": 8115,
      "tật": 8116,
      "don": 8117,
      "dọa": 8118,
      "Dưới": 8119,
      "tỏa": 8120,
      "!”.": 8121,
      "điếu": 8122,
      "trùm": 8123,
      "Kiến": 8124,
      "Khai": 8125,
      "trói": 8126,
      "cuộn": 8127,
      "trễ": 8128,
      "õm": 8129,
      "văng": 8130,
      "Buổi": 8131,
      "tuân": 8132,
      "dè": 8133,
      "vút": 8134,
      "bái": 8135,
      "Ri": 8136,
      "khẳng": 8137,
      "cậy": 8138,
      "vẹn": 8139,
      "Địch": 8140,
      "Triều": 8141,
      "ris": 8142,
      "cú": 8143,
      "hừ": 8144,
      "bách": 8145,
      "gãy": 8146,
      "oai": 8147,
      "rên": 8148,
      "Trình": 8149,
      "lia": 8150,
      "tấp": 8151,
      "quyến": 8152,
      "tùng": 8153,
      "loạt": 8154,
      "Thuần": 8155,
      "Nhiên": 8156,
      "tàng": 8157,
      "lúng": 8158,
      "ộp": 8159,
      "Học": 8160,
      "hòn": 8161,
      "14": 8162,
      "gu": 8163,
      "ngỡ": 8164,
      "thắt": 8165,
      "ẻo": 8166,
      "nheo": 8167,
      "điềm": 8168,
      "Thuận": 8169,
      "Ái": 8170,
      "Pa": 8171,
      "Thơ": 8172,
      "Thiện": 8173,
      "khoẻ": 8174,
      "the": 8175,
      "bã": 8176,
      "hỏng": 8177,
      "Tốt": 8178,
      "Han": 8179,
      "Khả": 8180,
      "196": 8181,
      "ũa": 8182,
      "nháy": 8183,
      "Mo": 8184,
      "hăng": 8185,
      "bắp": 8186,
      "đe": 8187,
      "tro": 8188,
      "Tám": 8189,
      "khép": 8190,
      "bầy": 8191
    },
    "merges": [
      [
        "n",
        "g"
      ],
      [
        "n",
        "h"
      ],
      [
        "c",
        "h"
      ],
      [
        "t",
        "h"
      ],
      [
        "k",
        "h"
      ],
      [
        "t",
        "r"
      ],
      [
        "ô",
        "ng"
      ],
      [
        "ê",
        "n"
      ],
      [
        "ờ",
        "i"
      ],
      [
        "p",
        "h"
      ],
      [
        "l",
        "à"
      ],
      [
        "q",
        "u"
      ],
      [
        "i",
        "ế"
      ],
      [
        "g",
        "i"
      ],
      [
        "kh",
        "ông"
      ],
      [
        "ộ",
        "t"
      ],
      [
        "v",
        "à"
      ],
      [
        "ô",
        "i"
      ],
      [
        "ạ",
        "i"
      ],
      [
        "ư",
        "ời"
      ],
      [
        "m",
        "ột"
      ],
      [
        "c",
        "ó"
      ],
      [
        "ớ",
        "i"
      ],
      [
        "ủ",
        "a"
      ],
      [
        "c",
        "ủa"
      ],
      [
        "u",
        "y"
      ],
      [
        "ấ",
        "y"
      ],
      [
        "i",
        "ệ"
      ],
      [
        "n",
        "ó"
      ],
      [
        "t",
        "a"
      ],
      [
        "T",
        "h"
      ],
      [
        "ư",
        "ợ"
      ],
      [
        "a",
        "nh"
      ],
      [
        "â",
        "n"
      ],
      [
        "n",
        "à"
      ],
      [
        "o",
        "ng"
      ],
      [
        "ư",
        "ơ"
      ],
      [
        "ấ",
        "t"
      ],
      [
        "nh",
        "ư"
      ],
      [
        "ng",
        "ười"
      ],
      [
        "ì",
        "nh"
      ],
      [
        "a",
        "i"
      ],
      [
        "c",
        "á"
      ],
      [
        "đ",
        "i"
      ],
      [
        "r",
        "a"
      ],
      [
        "a",
        "o"
      ],
      [
        "đ",
        "ã"
      ],
      [
        "nó",
        "i"
      ],
      [
        "ư",
        "ớ"
      ],
      [
        "ch",
        "o"
      ],
      [
        "ượ",
        "c"
      ],
      [
        "l",
        "ại"
      ],
      [
        "ươ",
        "ng"
      ],
      [
        "t",
        "ôi"
      ],
      [
        "a",
        "y"
      ],
      [
        "u",
        "ố"
      ],
      [
        "ả",
        "i"
      ],
      [
        "ồ",
        "i"
      ],
      [
        "ầ",
        "n"
      ],
      [
        "ng",
        "h"
      ],
      [
        "C",
        "h"
      ],
      [
        "a",
        "ng"
      ],
      [
        "à",
        "ng"
      ],
      [
        "đ",
        "ược"
      ],
      [
        "o",
        "n"
      ],
      [
        "m",
        "à"
      ],
      [
        "ế",
        "n"
      ],
      [
        "i",
        "ên"
      ],
      [
        "a",
        "n"
      ],
      [
        "iế",
        "t"
      ],
      [
        "â",
        "y"
      ],
      [
        "ũ",
        "ng"
      ],
      [
        "ướ",
        "c"
      ],
      [
        "tr",
        "ong"
      ],
      [
        "N",
        "g"
      ],
      [
        "ữ",
        "ng"
      ],
      [
        "i",
        "nh"
      ],
      [
        "c",
        "ũng"
      ],
      [
        "v",
        "ới"
      ],
      [
        "ề",
        "u"
      ],
      [
        "đ",
        "ó"
      ],
      [
        "ậ",
        "t"
      ],
      [
        ".",
        "."
      ],
      [
        "a",
        "u"
      ],
      [
        "N",
        "h"
      ],
      [
        "đ",
        "ến"
      ],
      [
        "â",
        "u"
      ],
      [
        "th",
        "ì"
      ],
      [
        "T",
        "r"
      ],
      [
        "ế",
        "t"
      ],
      [
        "ầ",
        "u"
      ],
      [
        "ph",
        "ải"
      ],
      [
        "là",
        "m"
      ],
      [
        "c",
        "ả"
      ],
      [
        "à",
        "n"
      ],
      [
        "ư",
        "ờ"
      ],
      [
        "nh",
        "ững"
      ],
      [
        "và",
        "o"
      ],
      [
        "ò",
        "n"
      ],
      [
        "á",
        "c"
      ],
      [
        "ú",
        "ng"
      ],
      [
        "c",
        "on"
      ],
      [
        "ườ",
        "ng"
      ],
      [
        "e",
        "m"
      ],
      [
        ":",
        "-"
      ],
      [
        "á",
        "i"
      ],
      [
        "P",
        "h"
      ],
      [
        "à",
        "i"
      ],
      [
        "nà",
        "y"
      ],
      [
        "ắ",
        "t"
      ],
      [
        "ù",
        "ng"
      ],
      [
        "r",
        "ồi"
      ],
      [
        "l",
        "ên"
      ],
      [
        "o",
        "t"
      ],
      [
        "g",
        "ì"
      ],
      [
        "ú",
        "c"
      ],
      [
        "ề",
        "n"
      ],
      [
        "qu",
        "ot"
      ],
      [
        "i",
        "ể"
      ],
      [
        "ư",
        "a"
      ],
      [
        "đ",
        "ể"
      ],
      [
        "t",
        "iế"
      ],
      [
        "ậ",
        "n"
      ],
      [
        "ằ",
        "ng"
      ],
      [
        "th",
        "ấy"
      ],
      [
        "c",
        "ô"
      ],
      [
        "v",
        "ề"
      ],
      [
        "b",
        "iết"
      ],
      [
        "à",
        "nh"
      ],
      [
        "ặ",
        "t"
      ],
      [
        "m",
        "ình"
      ],
      [
        "K",
        "h"
      ],
      [
        "ê",
        "u"
      ],
      [
        "ă",
        "n"
      ],
      [
        "c",
        "òn"
      ],
      [
        "ứ",
        "c"
      ],
      [
        "ơ",
        "n"
      ],
      [
        "u",
        "ng"
      ],
      [
        "á",
        "t"
      ],
      [
        "th",
        "ế"
      ],
      [
        "ố",
        "i"
      ],
      [
        "ậ",
        "y"
      ],
      [
        "uy",
        "ệ"
      ],
      [
        "h",
        "ọ"
      ],
      [
        "ỏ",
        "i"
      ],
      [
        "ắ",
        "c"
      ],
      [
        "ch",
        "ỉ"
      ],
      [
        "ò",
        "ng"
      ],
      [
        "đ",
        "á"
      ],
      [
        "ữ",
        "a"
      ],
      [
        "nà",
        "o"
      ],
      [
        "ừ",
        "ng"
      ],
      [
        "ồ",
        "ng"
      ],
      [
        "â",
        "m"
      ],
      [
        "cá",
        "i"
      ],
      [
        "h",
        "o"
      ],
      [
        "h",
        "ai"
      ],
      [
        "ộ",
        "i"
      ],
      [
        "đ",
        "ầu"
      ],
      [
        "th",
        "ể"
      ],
      [
        "ta",
        "y"
      ],
      [
        "ô",
        "n"
      ],
      [
        "kh",
        "i"
      ],
      [
        "ă",
        "m"
      ],
      [
        "iể",
        "u"
      ],
      [
        "ạ",
        "n"
      ],
      [
        "ì",
        "n"
      ],
      [
        "iệ",
        "n"
      ],
      [
        "ơ",
        "i"
      ],
      [
        "í",
        "nh"
      ],
      [
        "t",
        "i"
      ],
      [
        "ự",
        "c"
      ],
      [
        "ố",
        "ng"
      ],
      [
        "nh",
        "à"
      ],
      [
        "như",
        "ng"
      ],
      [
        "á",
        "o"
      ],
      [
        "ộ",
        "c"
      ],
      [
        "s",
        "ẽ"
      ],
      [
        "ẫ",
        "n"
      ],
      [
        "s",
        "ao"
      ],
      [
        "nh",
        "ìn"
      ],
      [
        "ắ",
        "n"
      ],
      [
        "uyệ",
        "n"
      ],
      [
        "b",
        "ị"
      ],
      [
        "e",
        "o"
      ],
      [
        "ụ",
        "c"
      ],
      [
        "m",
        "ặt"
      ],
      [
        "à",
        "y"
      ],
      [
        "ư",
        "ng"
      ],
      [
        "a",
        "m"
      ],
      [
        "i",
        "ều"
      ],
      [
        "cá",
        "c"
      ],
      [
        "ch",
        "úng"
      ],
      [
        "ẳ",
        "ng"
      ],
      [
        "ổ",
        "i"
      ],
      [
        "tr",
        "ên"
      ],
      [
        "ả",
        "o"
      ],
      [
        "uố",
        "n"
      ],
      [
        "ừ",
        "a"
      ],
      [
        "uố",
        "ng"
      ],
      [
        "á",
        "ng"
      ],
      [
        "t",
        "ừ"
      ],
      [
        "ă",
        "ng"
      ],
      [
        "á",
        "ch"
      ],
      [
        "á",
        "n"
      ],
      [
        "iế",
        "n"
      ],
      [
        "v",
        "ậy"
      ],
      [
        "ã",
        "o"
      ],
      [
        "T",
        "ôi"
      ],
      [
        "ộ",
        "ng"
      ],
      [
        "gi",
        "ờ"
      ],
      [
        "ầ",
        "m"
      ],
      [
        "đ",
        "ây"
      ],
      [
        "..",
        "."
      ],
      [
        "ngh",
        "ĩ"
      ],
      [
        "c",
        "ông"
      ],
      [
        "s",
        "ự"
      ],
      [
        "v",
        "ì"
      ],
      [
        "c",
        "ười"
      ],
      [
        "tiế",
        "ng"
      ],
      [
        "n",
        "ữa"
      ],
      [
        "ọ",
        "ng"
      ],
      [
        "m",
        "ắt"
      ],
      [
        "n",
        "ên"
      ],
      [
        "ê",
        "m"
      ],
      [
        "ứ",
        "ng"
      ],
      [
        "b",
        "à"
      ],
      [
        "tr",
        "ước"
      ],
      [
        "s",
        "au"
      ],
      [
        "ử",
        "a"
      ],
      [
        "ươ",
        "i"
      ],
      [
        "đ",
        "ang"
      ],
      [
        "h",
        "ỏi"
      ],
      [
        "m",
        "ới"
      ],
      [
        "iệ",
        "c"
      ],
      [
        "m",
        "uốn"
      ],
      [
        "nà",
        "ng"
      ],
      [
        "Q",
        "u"
      ],
      [
        "í",
        "ch"
      ],
      [
        "ế",
        "u"
      ],
      [
        "l",
        "úc"
      ],
      [
        "ậ",
        "p"
      ],
      [
        "nh",
        "ân"
      ],
      [
        "ạ",
        "nh"
      ],
      [
        "ngh",
        "e"
      ],
      [
        "A",
        "nh"
      ],
      [
        "e",
        "n"
      ],
      [
        "ọ",
        "i"
      ],
      [
        "ắ",
        "m"
      ],
      [
        "ư",
        "ở"
      ],
      [
        "t",
        "ới"
      ],
      [
        "đ",
        "âu"
      ],
      [
        "á",
        "nh"
      ],
      [
        "ưở",
        "ng"
      ],
      [
        "ả",
        "n"
      ],
      [
        "r",
        "ất"
      ],
      [
        "v",
        "iệc"
      ],
      [
        "t",
        "o"
      ],
      [
        "ch",
        "ị"
      ],
      [
        "c",
        "ùng"
      ],
      [
        "ch",
        "uyện"
      ],
      [
        "đ",
        "ị"
      ],
      [
        "ch",
        "àng"
      ],
      [
        "th",
        "eo"
      ],
      [
        "qu",
        "a"
      ],
      [
        "ọ",
        "n"
      ],
      [
        "x",
        "uống"
      ],
      [
        "v",
        "ừa"
      ],
      [
        "ạ",
        "c"
      ],
      [
        "i",
        "a"
      ],
      [
        "v",
        "ẫn"
      ],
      [
        "th",
        "ành"
      ],
      [
        "iệ",
        "t"
      ],
      [
        "ượ",
        "ng"
      ],
      [
        "ng",
        "ày"
      ],
      [
        "h",
        "ơn"
      ],
      [
        "ạ",
        "o"
      ],
      [
        "H",
        "o"
      ],
      [
        "i",
        "n"
      ],
      [
        "ú",
        "t"
      ],
      [
        "l",
        "o"
      ],
      [
        "ồ",
        "n"
      ],
      [
        "ọ",
        "c"
      ],
      [
        "ầ",
        "y"
      ],
      [
        "uy",
        "ên"
      ],
      [
        "c",
        "ứ"
      ],
      [
        "l",
        "ời"
      ],
      [
        "á",
        "m"
      ],
      [
        "th",
        "ật"
      ],
      [
        "th",
        "u"
      ],
      [
        "ắ",
        "ng"
      ],
      [
        "b",
        "a"
      ],
      [
        "ặ",
        "c"
      ],
      [
        "à",
        "o"
      ],
      [
        "ng",
        "o"
      ],
      [
        "n",
        "ăm"
      ],
      [
        "l",
        "ão"
      ],
      [
        "Nh",
        "ưng"
      ],
      [
        "ch",
        "ẳng"
      ],
      [
        "i",
        "ền"
      ],
      [
        "b",
        "ên"
      ],
      [
        "n",
        "ước"
      ],
      [
        "ch",
        "ưa"
      ],
      [
        "cá",
        "ch"
      ],
      [
        "ậ",
        "u"
      ],
      [
        "ấ",
        "n"
      ],
      [
        "nh",
        "iên"
      ],
      [
        "l",
        "u"
      ],
      [
        "r",
        "ằng"
      ],
      [
        "b",
        "u"
      ],
      [
        "ỗ",
        "i"
      ],
      [
        "i",
        "êu"
      ],
      [
        "h",
        "ay"
      ],
      [
        "nh",
        "iều"
      ],
      [
        "kh",
        "ác"
      ],
      [
        "G",
        "i"
      ],
      [
        "i",
        "m"
      ],
      [
        "á",
        "u"
      ],
      [
        "l",
        "ấy"
      ],
      [
        "t",
        "ình"
      ],
      [
        "t",
        "ự"
      ],
      [
        "iế",
        "u"
      ],
      [
        "ạ",
        "t"
      ],
      [
        "đ",
        "ộng"
      ],
      [
        "ố",
        "t"
      ],
      [
        "ó",
        "c"
      ],
      [
        "ố",
        "c"
      ],
      [
        "h",
        "ết"
      ],
      [
        "l",
        "ớ"
      ],
      [
        "iệ",
        "u"
      ],
      [
        "l",
        "òng"
      ],
      [
        "qu",
        "an"
      ],
      [
        "qu",
        "á"
      ],
      [
        "nh",
        "ất"
      ],
      [
        "th",
        "ân"
      ],
      [
        "nh",
        "au"
      ],
      [
        "ấ",
        "u"
      ],
      [
        "đi",
        "ều"
      ],
      [
        "ạ",
        "ch"
      ],
      [
        "đ",
        "ại"
      ],
      [
        "t",
        "u"
      ],
      [
        "c",
        "u"
      ],
      [
        "ô",
        "m"
      ],
      [
        "Kh",
        "ông"
      ],
      [
        "đ",
        "ường"
      ],
      [
        "ố",
        "n"
      ],
      [
        "iế",
        "m"
      ],
      [
        "qu",
        "y"
      ],
      [
        "cả",
        "m"
      ],
      [
        "ặ",
        "p"
      ],
      [
        "ấ",
        "p"
      ],
      [
        "b",
        "ao"
      ],
      [
        "h",
        "ạ"
      ],
      [
        "ạ",
        "y"
      ],
      [
        "iế",
        "c"
      ],
      [
        ".",
        "-"
      ],
      [
        "b",
        "ằng"
      ],
      [
        "ch",
        "ết"
      ],
      [
        "đ",
        "ều"
      ],
      [
        "n",
        "ay"
      ],
      [
        "đ",
        "ứng"
      ],
      [
        "ì",
        "m"
      ],
      [
        "ả",
        "y"
      ],
      [
        "á",
        "p"
      ],
      [
        "đị",
        "nh"
      ],
      [
        "ả",
        "ng"
      ],
      [
        "h",
        "ắn"
      ],
      [
        "ch",
        "ủ"
      ],
      [
        "m",
        "ẹ"
      ],
      [
        "ch",
        "ính"
      ],
      [
        "ng",
        "ươi"
      ],
      [
        "t",
        "ại"
      ],
      [
        "b",
        "ảo"
      ],
      [
        "C",
        "ô"
      ],
      [
        "đ",
        "ưa"
      ],
      [
        "ướ",
        "ng"
      ],
      [
        "gi",
        "a"
      ],
      [
        "kh",
        "o"
      ],
      [
        "tr",
        "ở"
      ],
      [
        "nh",
        "ận"
      ],
      [
        "ó",
        "ng"
      ],
      [
        "t",
        "ử"
      ],
      [
        "l",
        "ần"
      ],
      [
        "ng",
        "ồi"
      ],
      [
        "lớ",
        "n"
      ],
      [
        "é",
        "t"
      ],
      [
        "họ",
        "c"
      ],
      [
        "t",
        "âm"
      ],
      [
        "b",
        "ạn"
      ],
      [
        "v",
        "u"
      ],
      [
        "tiế",
        "p"
      ],
      [
        "ặ",
        "ng"
      ],
      [
        "c",
        "ửa"
      ],
      [
        "ch",
        "ân"
      ],
      [
        "Ô",
        "ng"
      ],
      [
        "s",
        "ống"
      ],
      [
        "ng",
        "ay"
      ],
      [
        "đ",
        "o"
      ],
      [
        "t",
        "ên"
      ],
      [
        "v",
        "ị"
      ],
      [
        "v",
        "ô"
      ],
      [
        "t",
        "ìm"
      ],
      [
        "ụ",
        "ng"
      ],
      [
        "b",
        "ước"
      ],
      [
        "đ",
        "ối"
      ],
      [
        "ợ",
        "i"
      ],
      [
        "ệ",
        "nh"
      ],
      [
        "í",
        "a"
      ],
      [
        "đ",
        "ồng"
      ],
      [
        "ph",
        "òng"
      ],
      [
        "ã",
        "i"
      ],
      [
        "m",
        "ấy"
      ],
      [
        "ngo",
        "ài"
      ],
      [
        "y",
        "êu"
      ],
      [
        "C",
        "ó"
      ],
      [
        "h",
        "iểu"
      ],
      [
        "c",
        "ần"
      ],
      [
        "nh",
        "ỏ"
      ],
      [
        "l",
        "ắm"
      ],
      [
        "ti",
        "n"
      ],
      [
        "g",
        "ặp"
      ],
      [
        "qu",
        "ân"
      ],
      [
        "b",
        "ắt"
      ],
      [
        "th",
        "ôi"
      ],
      [
        "th",
        "ứ"
      ],
      [
        "c",
        "ao"
      ],
      [
        "th",
        "o"
      ],
      [
        "uy",
        "ền"
      ],
      [
        "b",
        "ất"
      ],
      [
        "d",
        "o"
      ],
      [
        "th",
        "ời"
      ],
      [
        "đá",
        "nh"
      ],
      [
        "ã",
        "y"
      ],
      [
        "ch",
        "iếc"
      ],
      [
        "ạ",
        "ng"
      ],
      [
        "g",
        "h"
      ],
      [
        "h",
        "iện"
      ],
      [
        "ư",
        "ới"
      ],
      [
        "ễ",
        "n"
      ],
      [
        "ch",
        "ứ"
      ],
      [
        "th",
        "ủ"
      ],
      [
        "ấ",
        "m"
      ],
      [
        "ẩ",
        "n"
      ],
      [
        "h",
        "ình"
      ],
      [
        "v",
        "ẻ"
      ],
      [
        "iệ",
        "p"
      ],
      [
        "s",
        "ư"
      ],
      [
        "ị",
        "ch"
      ],
      [
        "k",
        "ia"
      ],
      [
        "th",
        "ường"
      ],
      [
        "ắ",
        "p"
      ],
      [
        "n",
        "ếu"
      ],
      [
        "kh",
        "ỏi"
      ],
      [
        "n",
        "ơi"
      ],
      [
        "s",
        "ợ"
      ],
      [
        "x",
        "e"
      ],
      [
        "s",
        "inh"
      ],
      [
        "x",
        "u"
      ],
      [
        "ph",
        "ía"
      ],
      [
        "cu",
        "ộc"
      ],
      [
        "ch",
        "ạy"
      ],
      [
        "ch",
        "ú"
      ],
      [
        "T",
        "iểu"
      ],
      [
        "M",
        "ột"
      ],
      [
        "th",
        "ương"
      ],
      [
        "x",
        "em"
      ],
      [
        "b",
        "ỏ"
      ],
      [
        "đ",
        "ời"
      ],
      [
        "ó",
        "i"
      ],
      [
        "ú",
        "i"
      ],
      [
        "a",
        "r"
      ],
      [
        "m",
        "ọi"
      ],
      [
        "b",
        "ộ"
      ],
      [
        "ứ",
        "a"
      ],
      [
        "h",
        "ành"
      ],
      [
        "c",
        "ơ"
      ],
      [
        "Th",
        "iên"
      ],
      [
        "g",
        "ái"
      ],
      [
        "l",
        "ẽ"
      ],
      [
        "b",
        "àn"
      ],
      [
        "s",
        "áng"
      ],
      [
        "N",
        "ếu"
      ],
      [
        "b",
        "ọn"
      ],
      [
        "đá",
        "p"
      ],
      [
        "x",
        "a"
      ],
      [
        "c",
        "âu"
      ],
      [
        "e",
        "r"
      ],
      [
        "m",
        "ất"
      ],
      [
        "k",
        "iếm"
      ],
      [
        "g",
        "ọi"
      ],
      [
        "m",
        "u"
      ],
      [
        "ả",
        "nh"
      ],
      [
        "chị",
        "u"
      ],
      [
        "ư",
        "u"
      ],
      [
        "í",
        "t"
      ],
      [
        "Ng",
        "ười"
      ],
      [
        "r",
        "õ"
      ],
      [
        "uố",
        "c"
      ],
      [
        "th",
        "ần"
      ],
      [
        "đ",
        "ất"
      ],
      [
        "E",
        "m"
      ],
      [
        "d",
        "ài"
      ],
      [
        "ằ",
        "m"
      ],
      [
        "uyệ",
        "t"
      ],
      [
        "ti",
        "ền"
      ],
      [
        "qu",
        "ay"
      ],
      [
        "s",
        "ố"
      ],
      [
        "N",
        "am"
      ],
      [
        "c",
        "o"
      ],
      [
        "ở",
        "i"
      ],
      [
        "k",
        "inh"
      ],
      [
        "t",
        "ất"
      ],
      [
        "ẹ",
        "p"
      ],
      [
        "ch",
        "ỗ"
      ],
      [
        "uố",
        "i"
      ],
      [
        "ỉ",
        "nh"
      ],
      [
        "th",
        "ực"
      ],
      [
        "h",
        "àng"
      ],
      [
        "kh",
        "ó"
      ],
      [
        "đ",
        "àn"
      ],
      [
        "é",
        "o"
      ],
      [
        "tr",
        "ời"
      ],
      [
        "á",
        "y"
      ],
      [
        "h",
        "ôm"
      ],
      [
        "x",
        "in"
      ],
      [
        "đ",
        "ấy"
      ],
      [
        "l",
        "âu"
      ],
      [
        "th",
        "ích"
      ],
      [
        "to",
        "àn"
      ],
      [
        "Th",
        "anh"
      ],
      [
        "uy",
        "ết"
      ],
      [
        "t",
        "ức"
      ],
      [
        "ổ",
        "ng"
      ],
      [
        "i",
        "ê"
      ],
      [
        "l",
        "ực"
      ],
      [
        "s",
        "ĩ"
      ],
      [
        "Tr",
        "ong"
      ],
      [
        "iệ",
        "m"
      ],
      [
        "ạ",
        "m"
      ],
      [
        "n",
        "ữ"
      ],
      [
        "c",
        "àng"
      ],
      [
        "Th",
        "ế"
      ],
      [
        "th",
        "êm"
      ],
      [
        "k",
        "ẻ"
      ],
      [
        "ĩ",
        "nh"
      ],
      [
        "nh",
        "ớ"
      ],
      [
        "gi",
        "ọng"
      ],
      [
        "Ng",
        "h"
      ],
      [
        "c",
        "ây"
      ],
      [
        "g",
        "ần"
      ],
      [
        "c",
        "ố"
      ],
      [
        "n",
        "ổi"
      ],
      [
        "é",
        "p"
      ],
      [
        "ch",
        "u"
      ],
      [
        "tr",
        "ả"
      ],
      [
        "gi",
        "an"
      ],
      [
        "d",
        "ùng"
      ],
      [
        "d",
        "ưới"
      ],
      [
        "v",
        "ật"
      ],
      [
        "ự",
        "a"
      ],
      [
        "đ",
        "ạo"
      ],
      [
        "t",
        "ưởng"
      ],
      [
        "c",
        "a"
      ],
      [
        "H",
        "ai"
      ],
      [
        "ch",
        "ắc"
      ],
      [
        "đ",
        "ôi"
      ],
      [
        "ph",
        "át"
      ],
      [
        "B",
        "à"
      ],
      [
        "t",
        "ính"
      ],
      [
        "ẩ",
        "m"
      ],
      [
        "b",
        "é"
      ],
      [
        "c",
        "ậu"
      ],
      [
        "l",
        "ý"
      ],
      [
        "đ",
        "úng"
      ],
      [
        "t",
        "ừng"
      ],
      [
        "C",
        "on"
      ],
      [
        "s",
        "ức"
      ],
      [
        "vu",
        "i"
      ],
      [
        "l",
        "iền"
      ],
      [
        "d",
        "ân"
      ],
      [
        "iể",
        "n"
      ],
      [
        "l",
        "a"
      ],
      [
        "ph",
        "ụ"
      ],
      [
        "T",
        "ử"
      ],
      [
        "h",
        "uy"
      ],
      [
        "m",
        "ở"
      ],
      [
        "lu",
        "ôn"
      ],
      [
        "v",
        "ợ"
      ],
      [
        "ch",
        "a"
      ],
      [
        "mà",
        "y"
      ],
      [
        "đ",
        "êm"
      ],
      [
        "ch",
        "út"
      ],
      [
        "Ho",
        "a"
      ],
      [
        "x",
        "ong"
      ],
      [
        "k",
        "ỳ"
      ],
      [
        "è",
        "n"
      ],
      [
        "th",
        "anh"
      ],
      [
        "tr",
        "ường"
      ],
      [
        "b",
        "áo"
      ],
      [
        "L",
        "ong"
      ],
      [
        "ể",
        "n"
      ],
      [
        "gi",
        "ữa"
      ],
      [
        "đ",
        "ệ"
      ],
      [
        "ch",
        "iến"
      ],
      [
        "gi",
        "à"
      ],
      [
        "ỗ",
        "ng"
      ],
      [
        "qu",
        "ả"
      ],
      [
        "kh",
        "í"
      ],
      [
        "t",
        "iểu"
      ],
      [
        "t",
        "iên"
      ],
      [
        "s",
        "ang"
      ],
      [
        "v",
        "iên"
      ],
      [
        "th",
        "ư"
      ],
      [
        "h",
        "ồ"
      ],
      [
        "b",
        "ản"
      ],
      [
        "gi",
        "ải"
      ],
      [
        "ú",
        "p"
      ],
      [
        "đ",
        "ủ"
      ],
      [
        "tr",
        "ọng"
      ],
      [
        "th",
        "ị"
      ],
      [
        "b",
        "ình"
      ],
      [
        "y",
        "ên"
      ],
      [
        "m",
        "ang"
      ],
      [
        "đ",
        "ẹp"
      ],
      [
        "d",
        "ám"
      ],
      [
        "quy",
        "ết"
      ],
      [
        "d",
        "ù"
      ],
      [
        "s",
        "át"
      ],
      [
        "ph",
        "u"
      ],
      [
        "ù",
        "a"
      ],
      [
        "ch",
        "i"
      ],
      [
        "D",
        "ương"
      ],
      [
        "L",
        "ão"
      ],
      [
        "Ng",
        "ọc"
      ],
      [
        "g",
        "ã"
      ],
      [
        "d",
        "i"
      ],
      [
        "N",
        "àng"
      ],
      [
        "kh",
        "u"
      ],
      [
        "ch",
        "áu"
      ],
      [
        "gi",
        "ả"
      ],
      [
        "Đ",
        "ại"
      ],
      [
        "ậ",
        "m"
      ],
      [
        "kh",
        "ách"
      ],
      [
        "th",
        "ức"
      ],
      [
        "Ph",
        "ong"
      ],
      [
        "ngh",
        "i"
      ],
      [
        "Kh",
        "i"
      ],
      [
        "n",
        "ằm"
      ],
      [
        "ch",
        "í"
      ],
      [
        "”",
        "."
      ],
      [
        "Ch",
        "àng"
      ],
      [
        "b",
        "ây"
      ],
      [
        "đ",
        "ầy"
      ],
      [
        "v",
        "ội"
      ],
      [
        "h",
        "ơi"
      ],
      [
        "?",
        "-"
      ],
      [
        "Ch",
        "úng"
      ],
      [
        "t",
        "ối"
      ],
      [
        "đ",
        "au"
      ],
      [
        "K",
        "im"
      ],
      [
        "ng",
        "ờ"
      ],
      [
        "Ho",
        "àng"
      ],
      [
        "cả",
        "nh"
      ],
      [
        "uố",
        "t"
      ],
      [
        "đ",
        "ứa"
      ],
      [
        "đ",
        "ề"
      ],
      [
        "gi",
        "áo"
      ],
      [
        "T",
        "a"
      ],
      [
        "ch",
        "ồng"
      ],
      [
        "xu",
        "ất"
      ],
      [
        "đ",
        "ộ"
      ],
      [
        "T",
        "ừ"
      ],
      [
        "iệ",
        "ng"
      ],
      [
        "nghĩ",
        "a"
      ],
      [
        "ho",
        "a"
      ],
      [
        "th",
        "áng"
      ],
      [
        "đ",
        "ừng"
      ],
      [
        "ng",
        "ủ"
      ],
      [
        "l",
        "ập"
      ],
      [
        "h",
        "ãy"
      ],
      [
        "r",
        "u"
      ],
      [
        "ù",
        "i"
      ],
      [
        "kh",
        "iến"
      ],
      [
        ";",
        "."
      ],
      [
        "h",
        "ội"
      ],
      [
        "L",
        "ý"
      ],
      [
        "gi",
        "ữ"
      ],
      [
        "m",
        "ạnh"
      ],
      [
        "V",
        "ân"
      ],
      [
        ":",
        "–"
      ],
      [
        "th",
        "ở"
      ],
      [
        "ph",
        "ương"
      ],
      [
        "tu",
        "ổi"
      ],
      [
        "Nh",
        "ững"
      ],
      [
        "M",
        "inh"
      ],
      [
        "t",
        "ài"
      ],
      [
        "iê",
        "ng"
      ],
      [
        "nh",
        "anh"
      ],
      [
        "m",
        "ặc"
      ],
      [
        "t",
        "ốt"
      ],
      [
        "đ",
        "ồ"
      ],
      [
        "ợ",
        "p"
      ],
      [
        "ch",
        "ờ"
      ],
      [
        "l",
        "ạnh"
      ],
      [
        "bu",
        "ồn"
      ],
      [
        "k",
        "ể"
      ],
      [
        "V",
        "ũ"
      ],
      [
        "v",
        "õ"
      ],
      [
        "k",
        "êu"
      ],
      [
        "V",
        "à"
      ],
      [
        "ph",
        "ục"
      ],
      [
        "l",
        "ạ"
      ],
      [
        "m",
        "iệng"
      ],
      [
        "V",
        "ương"
      ],
      [
        "t",
        "ư"
      ],
      [
        "B",
        "a"
      ],
      [
        "ợ",
        "t"
      ],
      [
        "ph",
        "ần"
      ],
      [
        "đá",
        "ng"
      ],
      [
        "th",
        "iếu"
      ],
      [
        "m",
        "ỗi"
      ],
      [
        "b",
        "iến"
      ],
      [
        "l",
        "e"
      ],
      [
        "Tr",
        "ung"
      ],
      [
        "đ",
        "em"
      ],
      [
        "ò",
        "a"
      ],
      [
        "V",
        "ăn"
      ],
      [
        "iế",
        "p"
      ],
      [
        "và",
        "ng"
      ],
      [
        "ư",
        "ỡ"
      ],
      [
        "ph",
        "áp"
      ],
      [
        "l",
        "ặng"
      ],
      [
        "v",
        "ụ"
      ],
      [
        "huy",
        "nh"
      ],
      [
        "ứ",
        "t"
      ],
      [
        "b",
        "ác"
      ],
      [
        "tr",
        "ẻ"
      ],
      [
        "đ",
        "ặt"
      ],
      [
        "d",
        "ậy"
      ],
      [
        "à",
        "m"
      ],
      [
        "ho",
        "àn"
      ],
      [
        "c",
        "ầu"
      ],
      [
        "d",
        "ự"
      ],
      [
        "nh",
        "ẹ"
      ],
      [
        "b",
        "ay"
      ],
      [
        "C",
        "òn"
      ],
      [
        "c",
        "ầm"
      ],
      [
        "th",
        "ay"
      ],
      [
        "ị",
        "p"
      ],
      [
        "c",
        "ổ"
      ],
      [
        "th",
        "ằng"
      ],
      [
        "m",
        "ười"
      ],
      [
        "h",
        "ồi"
      ],
      [
        "Th",
        "u"
      ],
      [
        "m",
        "a"
      ],
      [
        "v",
        "ọng"
      ],
      [
        "b",
        "óng"
      ],
      [
        "Ch",
        "ỉ"
      ],
      [
        "đ",
        "ộc"
      ],
      [
        "gi",
        "ận"
      ],
      [
        "gi",
        "úp"
      ],
      [
        "b",
        "ốn"
      ],
      [
        "S",
        "ơn"
      ],
      [
        "S",
        "au"
      ],
      [
        "gi",
        "ới"
      ],
      [
        "l",
        "ộ"
      ],
      [
        "co",
        "i"
      ],
      [
        "n",
        "ương"
      ],
      [
        "g",
        "iết"
      ],
      [
        "đ",
        "ình"
      ],
      [
        "t",
        "ướng"
      ],
      [
        "h",
        "ợp"
      ],
      [
        "k",
        "éo"
      ],
      [
        "qu",
        "anh"
      ],
      [
        "Ph",
        "ương"
      ],
      [
        "r",
        "ượ"
      ],
      [
        "v",
        "ăn"
      ],
      [
        "c",
        "uối"
      ],
      [
        "đ",
        "ổi"
      ],
      [
        "tr",
        "ang"
      ],
      [
        "ã",
        "nh"
      ],
      [
        "kh",
        "ổ"
      ],
      [
        "s",
        "ách"
      ],
      [
        "tiế",
        "n"
      ],
      [
        "th",
        "ông"
      ],
      [
        "l",
        "i"
      ],
      [
        "tr",
        "ông"
      ],
      [
        "V",
        "iệt"
      ],
      [
        "ẩ",
        "y"
      ],
      [
        "th",
        "ơ"
      ],
      [
        "và",
        "i"
      ],
      [
        "â",
        "ng"
      ],
      [
        "th",
        "ẳng"
      ],
      [
        "Ph",
        "i"
      ],
      [
        "tr",
        "ái"
      ],
      [
        "s",
        "ắc"
      ],
      [
        "ã",
        "n"
      ],
      [
        "B",
        "ình"
      ],
      [
        "cá",
        "nh"
      ],
      [
        "N",
        "ó"
      ],
      [
        "ề",
        "m"
      ],
      [
        "ng",
        "ựa"
      ],
      [
        "Th",
        "ái"
      ],
      [
        "ọ",
        "t"
      ],
      [
        "ể",
        "m"
      ],
      [
        "B",
        "ạch"
      ],
      [
        "b",
        "ỗng"
      ],
      [
        "ch",
        "ơi"
      ],
      [
        "iế",
        "ng"
      ],
      [
        "ch",
        "uy"
      ],
      [
        "C",
        "ái"
      ],
      [
        "đ",
        "u"
      ],
      [
        "L",
        "inh"
      ],
      [
        "cứ",
        "u"
      ],
      [
        "quy",
        "ền"
      ],
      [
        "í",
        "n"
      ],
      [
        "Ng",
        "uyên"
      ],
      [
        "Nh",
        "ư"
      ],
      [
        "K",
        "ỳ"
      ],
      [
        "tr",
        "ung"
      ],
      [
        "đi",
        "ểm"
      ],
      [
        "T",
        "ại"
      ],
      [
        "đ",
        "en"
      ],
      [
        "H",
        "à"
      ],
      [
        "th",
        "uốc"
      ],
      [
        "tr",
        "ai"
      ],
      [
        "gi",
        "ống"
      ],
      [
        "rượ",
        "u"
      ],
      [
        "s",
        "o"
      ],
      [
        "A",
        "n"
      ],
      [
        "t",
        "ội"
      ],
      [
        "t",
        "uy"
      ],
      [
        "v",
        "i"
      ],
      [
        "tr",
        "í"
      ],
      [
        "tr",
        "ắng"
      ],
      [
        "C",
        "ác"
      ],
      [
        "C",
        "ông"
      ],
      [
        "s",
        "ai"
      ],
      [
        "L",
        "úc"
      ],
      [
        "V",
        "ậy"
      ],
      [
        "gi",
        "ác"
      ],
      [
        "mà",
        "u"
      ],
      [
        "tr",
        "ưởng"
      ],
      [
        "ho",
        "ặc"
      ],
      [
        "b",
        "iệt"
      ],
      [
        "d",
        "anh"
      ],
      [
        "ch",
        "ớ"
      ],
      [
        "k",
        "ết"
      ],
      [
        "l",
        "iên"
      ],
      [
        "t",
        "ập"
      ],
      [
        "ị",
        "nh"
      ],
      [
        "d",
        "ễ"
      ],
      [
        "v",
        "iết"
      ],
      [
        "tr",
        "anh"
      ],
      [
        "ả",
        "m"
      ],
      [
        "n",
        "ỗi"
      ],
      [
        "th",
        "iên"
      ],
      [
        "g",
        "ật"
      ],
      [
        "t",
        "inh"
      ],
      [
        "m",
        "áy"
      ],
      [
        "Ng",
        "uy"
      ],
      [
        "ú",
        "a"
      ],
      [
        "ó",
        "n"
      ],
      [
        "H",
        "ồng"
      ],
      [
        "M",
        "a"
      ],
      [
        "d",
        "ụng"
      ],
      [
        "b",
        "ệnh"
      ],
      [
        "V",
        "ì"
      ],
      [
        "l",
        "ệnh"
      ],
      [
        "đ",
        "ỏ"
      ],
      [
        "R",
        "ồi"
      ],
      [
        "ó",
        "t"
      ],
      [
        "th",
        "ầy"
      ],
      [
        "gi",
        "á"
      ],
      [
        "l",
        "ưng"
      ],
      [
        "b",
        "ố"
      ],
      [
        "m",
        "ạng"
      ],
      [
        "n",
        "úi"
      ],
      [
        "m",
        "ôn"
      ],
      [
        "t",
        "ỏ"
      ],
      [
        "ph",
        "ong"
      ],
      [
        "é",
        "m"
      ],
      [
        "L",
        "âm"
      ],
      [
        "th",
        "ầm"
      ],
      [
        "m",
        "ươi"
      ],
      [
        "iể",
        "m"
      ],
      [
        "t",
        "uyệt"
      ],
      [
        "ta",
        "i"
      ],
      [
        "đ",
        "iện"
      ],
      [
        "ho",
        "àng"
      ],
      [
        "th",
        "ái"
      ],
      [
        "H",
        "ọ"
      ],
      [
        "b",
        "ài"
      ],
      [
        "kh",
        "óc"
      ],
      [
        "t",
        "ác"
      ],
      [
        "Qu",
        "ân"
      ],
      [
        "d",
        "a"
      ],
      [
        "b",
        "inh"
      ],
      [
        "Nguy",
        "ễn"
      ],
      [
        "m",
        "i"
      ],
      [
        "am",
        "p"
      ],
      [
        "v",
        "ai"
      ],
      [
        "th",
        "i"
      ],
      [
        "T",
        "ây"
      ],
      [
        "đ",
        "ội"
      ],
      [
        "Đ",
        "ông"
      ],
      [
        "c",
        "ạnh"
      ],
      [
        "m",
        "ũ"
      ],
      [
        "qu",
        "en"
      ],
      [
        "ó",
        "a"
      ],
      [
        "t",
        "ỉnh"
      ],
      [
        "t",
        "ục"
      ],
      [
        "u",
        "ân"
      ],
      [
        "S",
        "ao"
      ],
      [
        "Th",
        "iếu"
      ],
      [
        "đ",
        "ọc"
      ],
      [
        "thu",
        "ộc"
      ],
      [
        "đá",
        "m"
      ],
      [
        "đ",
        "ợi"
      ],
      [
        "M",
        "ai"
      ],
      [
        "ữ",
        "u"
      ],
      [
        "m",
        "ừng"
      ],
      [
        "ệ",
        "t"
      ],
      [
        "ẳ",
        "n"
      ],
      [
        "c",
        "ung"
      ],
      [
        "ng",
        "ạc"
      ],
      [
        "tr",
        "ị"
      ],
      [
        "d",
        "ẫn"
      ],
      [
        "ượ",
        "t"
      ],
      [
        "ặ",
        "n"
      ],
      [
        "M",
        "ỹ"
      ],
      [
        "th",
        "ất"
      ],
      [
        "x",
        "anh"
      ],
      [
        "qu",
        "ần"
      ],
      [
        "t",
        "ượng"
      ],
      [
        "ch",
        "ung"
      ],
      [
        "qu",
        "ên"
      ],
      [
        "ụ",
        "i"
      ],
      [
        "h",
        "ộ"
      ],
      [
        "è",
        "o"
      ],
      [
        "ph",
        "ủ"
      ],
      [
        "N",
        "ói"
      ],
      [
        "v",
        "òng"
      ],
      [
        "s",
        "uy"
      ],
      [
        "n",
        "i"
      ],
      [
        "ạ",
        "p"
      ],
      [
        "h",
        "ậu"
      ],
      [
        "Tr",
        "ần"
      ],
      [
        "é",
        "n"
      ],
      [
        "ch",
        "ừng"
      ],
      [
        "th",
        "iết"
      ],
      [
        "1",
        "9"
      ],
      [
        "ta",
        "o"
      ],
      [
        "ớ",
        "m"
      ],
      [
        "tr",
        "ận"
      ],
      [
        "l",
        "ắc"
      ],
      [
        "B",
        "ảo"
      ],
      [
        "h",
        "iệu"
      ],
      [
        "H",
        "ải"
      ],
      [
        "m",
        "ãi"
      ],
      [
        "c",
        "ụ"
      ],
      [
        "ổ",
        "n"
      ],
      [
        "l",
        "ễ"
      ],
      [
        "đị",
        "a"
      ],
      [
        "n",
        "ội"
      ],
      [
        "h",
        "ại"
      ],
      [
        "ế",
        "p"
      ],
      [
        "m",
        "inh"
      ],
      [
        "b",
        "ởi"
      ],
      [
        "nh",
        "iêu"
      ],
      [
        "m",
        "ỉ"
      ],
      [
        "vu",
        "a"
      ],
      [
        "T",
        "u"
      ],
      [
        "ch",
        "ữ"
      ],
      [
        "Ng",
        "ươi"
      ],
      [
        "r",
        "i"
      ],
      [
        "b",
        "ạc"
      ],
      [
        "s",
        "ắp"
      ],
      [
        "l",
        "ợi"
      ],
      [
        "Th",
        "ần"
      ],
      [
        "h",
        "ề"
      ],
      [
        "n",
        "ửa"
      ],
      [
        "ch",
        "ợt"
      ],
      [
        "h",
        "ẳn"
      ],
      [
        "V",
        "i"
      ],
      [
        "L",
        "an"
      ],
      [
        "ph",
        "ố"
      ],
      [
        "d",
        "ị"
      ],
      [
        "gi",
        "ao"
      ],
      [
        "H",
        "ồ"
      ],
      [
        "ng",
        "uyên"
      ],
      [
        "k",
        "iến"
      ],
      [
        "Ch",
        "ương"
      ],
      [
        "Ch",
        "âu"
      ],
      [
        "Ch",
        "ị"
      ],
      [
        "H",
        "ắn"
      ],
      [
        "s",
        "ử"
      ],
      [
        "m",
        "ai"
      ],
      [
        "tr",
        "ò"
      ],
      [
        "e",
        "l"
      ],
      [
        "tr",
        "ăm"
      ],
      [
        "x",
        "o"
      ],
      [
        "m",
        "áu"
      ],
      [
        "ph",
        "ái"
      ],
      [
        "gi",
        "ó"
      ],
      [
        "nh",
        "ảy"
      ],
      [
        "ch",
        "iều"
      ],
      [
        "lo",
        "ại"
      ],
      [
        "h",
        "ướng"
      ],
      [
        "m",
        "ời"
      ],
      [
        "c",
        "ăn"
      ],
      [
        "T",
        "iêu"
      ],
      [
        "th",
        "ượng"
      ],
      [
        "đ",
        "ông"
      ],
      [
        "x",
        "ác"
      ],
      [
        "t",
        "óc"
      ],
      [
        "l",
        "y"
      ],
      [
        "tr",
        "uyền"
      ],
      [
        "e",
        "t"
      ],
      [
        "ẹ",
        "n"
      ],
      [
        "x",
        "ảy"
      ],
      [
        "mu",
        "a"
      ],
      [
        "v",
        "ương"
      ],
      [
        "ch",
        "ức"
      ],
      [
        "h",
        "ồn"
      ],
      [
        "ph",
        "ản"
      ],
      [
        "ng",
        "ang"
      ],
      [
        "qu",
        "ốc"
      ],
      [
        "B",
        "ây"
      ],
      [
        "v",
        "ấn"
      ],
      [
        "ph",
        "i"
      ],
      [
        "nh",
        "ờ"
      ],
      [
        "d",
        "iện"
      ],
      [
        "ẫ",
        "u"
      ],
      [
        "ò",
        "i"
      ],
      [
        "ti",
        "êu"
      ],
      [
        "ch",
        "ứng"
      ],
      [
        "th",
        "ú"
      ],
      [
        "chuy",
        "ển"
      ],
      [
        "H",
        "ương"
      ],
      [
        "b",
        "án"
      ],
      [
        "ẩ",
        "u"
      ],
      [
        "th",
        "ù"
      ],
      [
        "Nh",
        "ân"
      ],
      [
        "T",
        "ôn"
      ],
      [
        "ch",
        "ưởng"
      ],
      [
        "a",
        "̀"
      ],
      [
        "Gi",
        "ang"
      ],
      [
        "T",
        "ư"
      ],
      [
        "b",
        "ức"
      ],
      [
        "t",
        "ế"
      ],
      [
        ".",
        "&"
      ],
      [
        ";",
        "#"
      ],
      [
        "đ",
        "ấu"
      ],
      [
        "n",
        "ặng"
      ],
      [
        "h",
        "ôn"
      ],
      [
        "M",
        "ẹ"
      ],
      [
        "tho",
        "át"
      ],
      [
        "ph",
        "á"
      ],
      [
        "n",
        "ắm"
      ],
      [
        "m",
        "ật"
      ],
      [
        "mỉ",
        "m"
      ],
      [
        "r",
        "iêng"
      ],
      [
        "k",
        "ịp"
      ],
      [
        "s",
        "ông"
      ],
      [
        "t",
        "ấm"
      ],
      [
        "ch",
        "ặt"
      ],
      [
        "s",
        "ong"
      ],
      [
        "l",
        "á"
      ],
      [
        "ó",
        "m"
      ],
      [
        "mũ",
        "i"
      ],
      [
        "Ph",
        "áp"
      ],
      [
        "b",
        "í"
      ],
      [
        "l",
        "ỗi"
      ],
      [
        "ngh",
        "iệp"
      ],
      [
        "đo",
        "àn"
      ],
      [
        "s",
        "âu"
      ],
      [
        "ớ",
        "t"
      ],
      [
        "v",
        "ùng"
      ],
      [
        "đ",
        "ỡ"
      ],
      [
        "Tr",
        "ương"
      ],
      [
        "Th",
        "ủ"
      ],
      [
        "Q",
        "uốc"
      ],
      [
        "k",
        "ế"
      ],
      [
        "l",
        "ửa"
      ],
      [
        "th",
        "ăm"
      ],
      [
        "m",
        "ê"
      ],
      [
        "tr",
        "ánh"
      ],
      [
        "m",
        "ôi"
      ],
      [
        "n",
        "ăng"
      ],
      [
        "tr",
        "ách"
      ],
      [
        "n",
        "iên"
      ],
      [
        "m",
        "ay"
      ],
      [
        "x",
        "ưa"
      ],
      [
        "ph",
        "ân"
      ],
      [
        "v",
        "ang"
      ],
      [
        "ch",
        "ế"
      ],
      [
        "ộ",
        "n"
      ],
      [
        "Đ",
        "ó"
      ],
      [
        "v",
        "iện"
      ],
      [
        "?",
        "&"
      ],
      [
        "đ",
        "ột"
      ],
      [
        "b",
        "ối"
      ],
      [
        "T",
        "uy"
      ],
      [
        "r",
        "ơi"
      ],
      [
        "b",
        "an"
      ],
      [
        "h",
        "ả"
      ],
      [
        "H",
        "u"
      ],
      [
        "c",
        "ấp"
      ],
      [
        "đ",
        "ơn"
      ],
      [
        "t",
        "ạo"
      ],
      [
        "o",
        "an"
      ],
      [
        "Đ",
        "ức"
      ],
      [
        "đo",
        "ạn"
      ],
      [
        "bu",
        "ổi"
      ],
      [
        "Th",
        "ành"
      ],
      [
        "l",
        "ao"
      ],
      [
        "th",
        "uyền"
      ],
      [
        "V",
        "ô"
      ],
      [
        "e",
        "s"
      ],
      [
        "Ph",
        "ải"
      ],
      [
        "m",
        "ong"
      ],
      [
        "ch",
        "iêu"
      ],
      [
        "Ch",
        "u"
      ],
      [
        "ch",
        "ất"
      ],
      [
        "d",
        "ần"
      ],
      [
        "G",
        "ia"
      ],
      [
        "r",
        "ời"
      ],
      [
        "s",
        "uốt"
      ],
      [
        "ưỡ",
        "ng"
      ],
      [
        "r",
        "ừng"
      ],
      [
        "à",
        "u"
      ],
      [
        "Ch",
        "ính"
      ],
      [
        "Th",
        "ôi"
      ],
      [
        "o",
        "r"
      ],
      [
        "t",
        "ận"
      ],
      [
        "th",
        "a"
      ],
      [
        "h",
        "ầu"
      ],
      [
        "ch",
        "ống"
      ],
      [
        "t",
        "ổ"
      ],
      [
        "ng",
        "u"
      ],
      [
        "r",
        "ộng"
      ],
      [
        "m",
        "ơ"
      ],
      [
        "ph",
        "ép"
      ],
      [
        "ng",
        "ài"
      ],
      [
        "l",
        "ạc"
      ],
      [
        "t",
        "ăng"
      ],
      [
        "c",
        "ũ"
      ],
      [
        "i",
        "ễ"
      ],
      [
        "c",
        "ất"
      ],
      [
        ".",
        "”"
      ],
      [
        "qu",
        "ý"
      ],
      [
        "đó",
        "ng"
      ],
      [
        "nó",
        "ng"
      ],
      [
        "gi",
        "ật"
      ],
      [
        "s",
        "a"
      ],
      [
        "s",
        "ớm"
      ],
      [
        "b",
        "ật"
      ],
      [
        "h",
        "ạnh"
      ],
      [
        "đ",
        "ặc"
      ],
      [
        "ph",
        "óng"
      ],
      [
        "Đ",
        "úng"
      ],
      [
        "đị",
        "ch"
      ],
      [
        "ng",
        "ôi"
      ],
      [
        "tr",
        "ầm"
      ],
      [
        "t",
        "ù"
      ],
      [
        "đó",
        "n"
      ],
      [
        "ấ",
        "c"
      ],
      [
        "ch",
        "ăng"
      ],
      [
        "ú",
        "y"
      ],
      [
        "b",
        "ụng"
      ],
      [
        "r",
        "út"
      ],
      [
        "h",
        "ữu"
      ],
      [
        "Qu",
        "an"
      ],
      [
        "y",
        "ếu"
      ],
      [
        "tr",
        "ình"
      ],
      [
        "l",
        "ượng"
      ],
      [
        "B",
        "ắc"
      ],
      [
        "h",
        "óa"
      ],
      [
        "th",
        "ử"
      ],
      [
        "ph",
        "út"
      ],
      [
        "Ph",
        "ật"
      ],
      [
        "đo",
        "án"
      ],
      [
        "đ",
        "ổ"
      ],
      [
        "m",
        "á"
      ],
      [
        "k",
        "ỹ"
      ],
      [
        "b",
        "iển"
      ],
      [
        "ngo",
        "ại"
      ],
      [
        "o",
        "àn"
      ],
      [
        "l",
        "ùng"
      ],
      [
        "mu",
        "ội"
      ],
      [
        "gh",
        "ế"
      ],
      [
        "v",
        "ệ"
      ],
      [
        "Ch",
        "ẳng"
      ],
      [
        "ồ",
        "m"
      ],
      [
        "thu",
        "ật"
      ],
      [
        "c",
        "ơn"
      ],
      [
        "h",
        "ệ"
      ],
      [
        "chú",
        "a"
      ],
      [
        "ph",
        "úc"
      ],
      [
        "v",
        "ốn"
      ],
      [
        "kho",
        "ảng"
      ],
      [
        "t",
        "ung"
      ],
      [
        "A",
        "i"
      ],
      [
        "g",
        "ây"
      ],
      [
        "di",
        "ễn"
      ],
      [
        "th",
        "úc"
      ],
      [
        "Th",
        "ật"
      ],
      [
        "đu",
        "ổi"
      ],
      [
        "s",
        "ản"
      ],
      [
        "Tr",
        "iệu"
      ],
      [
        "cơ",
        "m"
      ],
      [
        "gi",
        "ấy"
      ],
      [
        "c",
        "uốn"
      ],
      [
        "kh",
        "ẽ"
      ],
      [
        "ã",
        "ng"
      ],
      [
        "T",
        "am"
      ],
      [
        "k",
        "ính"
      ],
      [
        "l",
        "ệ"
      ],
      [
        "ch",
        "ia"
      ],
      [
        "ử",
        "u"
      ],
      [
        "l",
        "inh"
      ],
      [
        "đ",
        "èn"
      ],
      [
        "l",
        "ắng"
      ],
      [
        "b",
        "ờ"
      ],
      [
        "h",
        "iệp"
      ],
      [
        "X",
        "in"
      ],
      [
        "nghi",
        "êm"
      ],
      [
        "lớ",
        "p"
      ],
      [
        "kh",
        "á"
      ],
      [
        "l",
        "âm"
      ],
      [
        "gi",
        "ường"
      ],
      [
        "H",
        "àn"
      ],
      [
        "th",
        "ắng"
      ],
      [
[...]
